#version: 0.2 - Trained by `huggingface/tokenizers`
Ġ Ġ
ĠĠ ĠĠ
ĠĠ Ġ
o r
i m
i n
e r
or t
p ort
a t
im port
Ġ =
o n
ĠĠĠĠ ĠĠĠ
s e
) <
r e
d e
s t
r o
a r
Ġ t
l e
: <
a s
, <
e n
a l
c h
c t
a n
ro m
f rom
i on
Ġ import
Ġ n
i t
u t
) :<
l o
a m
Ġ re
e t
e s
Ġ p
de f
_ _
d i
ĠĠĠĠ ĠĠĠĠ
p e
u r
f i
Ġ m
Ġ c
l f
se lf
in g
u m
Ġ '
r a
e l
Ġ s
Ġ f
Ġ <
Ġ "
or ch
d at
Ġ as
Ġ i
ar g
> <
o de
a d
Ġ o
e d
Ġre t
Ġ in
ur n
Ġret urn
u n
Ġt orch
p t
ĠĠĠĠ ĠĠĠĠĠĠĠ
dat a
a g
o l
c e
i z
en t
y pe
di ct
am e
at h
c k
' ,
c l
Ġ b
u e
p y
e x
Ġ 1
ode l
a b
i l
u l
in t
as s
or m
o t
Ġ def
Ġ self
l i
o m
e st
s er
= '
i d
r an
st r
on e
u p
n ame
] <
( <
se t
arg s
c on
Ġ g
( )<
Ġ [
ag e
Ġ *
iz e
o d
Ġi f
v al
re s
ul t
p o
) ,<
Ġ (
lo g
Ġ T
a p
p ar
i g
at ion
er s
Ġ w
Ġ 0
t ype
cl ass
fi g
ct ion
p ut
at e
N one
fi le
e m
a se
Ġ _
Ġ -
Ġo s
Ġn p
p ath
0 0
Ġn um
ra in
i s
Ġf or
) )<
t o
Ġ dict
Ġ h
n n
" ,
k e
Ġ d
i c
ĠĠĠĠĠĠĠĠ ĠĠĠĠĠĠĠĠ
es s
m odel
' ,<
en s
r ue
Ġ 2
p l
Ġ __
i st
in it
" <
Ġ a
ex t
an d
c o
s ize
Ġ= =
pt ion
) .
( "
p ro
t est
in e
Ġ +
m a
y p
. .
( '
Ġ C
f orm
s c
log g
Ġ F
r i
im e
h t
a y
an n
s s
q u
Ġ x
im g
Ġ None
f g
al l
t rain
u le
ad d
ens or
as k
y s
Ġ l
Ġi s
Ġ {
Ġ data
v e
I N
Ġ de
ut il
Ġ P
b o
) ,
Ġ D
Ġc on
er t
a ck
al se
ab le
t h
v i
s h
" ,<
Ġ A
Ġ S
g et
' )<
Ġn n
E R
] ,
[ '
ran s
at ch
" )<
le n
' <
Ġ L
Ġ O
con fig
h e
__ (
o ut
Ġnum py
" :
od ule
Ġ str
e ct
T rue
b ase
c fg
i f
en d
a ult
n um
t er
e p
p le
E S
' ]
p re
Ġt yp
Ġ logg
k w
ann el
" "
Ġ j
Ġ st
Ġm odel
C on
p er
- -
ig ht
Ġtyp ing
Ġ* *
Ġp ar
kw args
d er
ser t
Ġ el
Ġ 3
lo ad
Ġg et
Ġt ype
n t
ch annel
util s
it h
a pe
di r
O N
Ġo ut
O R
o w
f f
ap p
u b
Ġas sert
bo x
A T
Ġ M
ess age
s on
r or
or e
] )<
b u
D E
a x
Ġlogg ing
( ):<
li b
l ine
o g
li st
um ent
ran d
= [
c om
= "
Ġt o
g e
r int
o s
par se
e w
rans form
t orch
A R
Ġ I
F alse
Ġn ot
( )
Ġre s
' :
ption al
p i
u re
Ġ .
> _
C H
ĠĠĠĠĠĠĠĠ ĠĠĠĠĠĠĠ
Ġ v
se s
d s
o ol
ch e
i al
o b
m ent
Ġ- >
Ġt est
st an
ke y
n et
ĠO ptional
f lo
Ġ r
Ġ /
e ight
Ġ y
at a
o c
Ġ B
un ction
E T
a ct
iz er
j ect
i p
Ġel se
am ple
ab el
data set
i o
S T
u s
1 0
ar d
up le
Ġ R
] ,<
at t
sh ape
m et
po int
i ct
v er
o p
t ext
Ġ di
at or
c ess
> @
Ġs ys
im age
} <
Ġp re
r ror
a st
Ġ )<
n c
ar t
E N
E rror
par am
Ġ ex
Ġdef ault
val ue
a ce
rand om
a in
e at
lo ss
Ġ arg
e g
n orm
q ue
Ġc ol
k en
Ġin t
m ask
1 2
ur l
ĠL ist
train ed
.. /
Ġ k
Ġ e
che ck
it y
a le
Ġp y
ma in
Ġ se
[ :
Ġ img
Ġ en
ra y
channel s
as ses
un t
arg et
in put
f o
sc ri
3 2
l ay
Ġm ath
d im
b ack
D ata
Ġp rint
arg ument
d a
vi ce
[ "
( ).
Ġt ime
n p
. _
pe line
le ction
Ġc o
Ġarg parse
S t
ing s
> ""
up er
o pt
Ġ u
Ġ 4
w or
5 0
i se
M A
p s
qu i
il d
r y
cl asses
an g
ma x
b y
lo ck
Ġ[ <
f unction
Ġ args
stan ce
it er
en er
Ġ E
p h
m odule
en ce
i ve
m o
Ġs h
re g
ig n
R E
ĠT rue
Ġ 5
Ġ U
el p
ran ge
Ġs c
Ġ from
Ġ len
out put
ro ot
j o
c ol
Ġj son
ra d
a v
u g
in d
fi el
Ġ un
Ġp ro
Ġs uper
T ensor
ers ion
or y
Ġn ame
c ode
Ġm m
Ġp ath
de x
par ser
e an
L E
6 4
h od
Ġ :
Ġ N
er n
ro up
m essage
de n
w ard
i le
L o
st at
c es
Ġw ith
( [
/ /
ar ray
m age
he ad
it em
ĠĠĠĠ Ġ
I ON
i de
> )<
P E
2 0
Ġcon fig
con v
ag es
t ensor
a re
v is
c v
Ġ ra
ar n
I n
M odel
R A
Ġ file
ation s
r c
w eight
V E
ĠF alse
Ġt f
re ate
ist er
pi peline
Ġ and
1 6
ĠT uple
Ġh elp
ow n
p u
n y
Ġb u
: //
Ġin put
M O
lection s
l abel
[: ,
Ġ ab
y nc
A r
ro p
od er
Ġ @
Ġ ..
Ġt he
o k
c u
Ġ' ../
a il
C O
app end
ool s
in stance
pl it
model s
Con fig
scri pt
M odule
m in
t e
pro cess
i v
f l
b box
fi x
Ġ{ <
Ġcol lections
flo at
met hod
Ġ random
re ad
Ġ or
Ġ dat
Ġres ult
Ġ %
ch ed
in fo
m l
i b
f eat
ĠD ict
R O
A L
j son
= (
t ransform
" ]
A S
o ur
C T
Ġm ax
val u
Ġ set
Ġpar ser
d b
lo t
jo in
ke ys
p on
Ġ G
m s
def ault
AR CH
lo w
ĠA ny
Ġt rain
Ġre qui
Ġout put
I VE
r un
que st
form at
p en
R es
e c
et ime
Ġ >
un d
) )
r on
e ad
N et
o x
check point
im izer
= =
u res
ĠĠĠĠĠĠĠĠ ĠĠĠĠĠĠĠĠĠĠĠ
I L
em b
m ap
_ /
Ġt ensor
lo b
pro to
po s
T o
function al
Ġ V
a c
Ġra ise
P T
po ch
ar y
it e
l ass
T ype
ARCH IVE
I T
o og
N orm
Ġm et
IN G
li p
' ),<
oog le
con t
5 6
param s
id den
p n
Ġis instance
Ġf un
i es
' :<
Ġdata set
E D
> ]<
a ve
yp es
script or
Ġt h
pt h
00 0
ĠU n
v ersion
2 4
logg er
t f
as h
fi l
Ġ[ "
Ġ1 0
v el
s ample
dat e
res s
m and
DE L
lo c
i r
r ic
Ġt arget
>"" "<
Data set
A M
i as
P ro
Ġdat etime
bu f
Ġmm cv
lo at
st ate
s um
Ġc om
Ġ H
res ult
Ġn orm
* *
pre trained
A N
Ġ[ ]<
Ġco py
ce ption
P ar
de t
f t
it ion
le ct
s p
Ġ val
o ck
flo w
g t
i fi
b atch
Ġ range
w ith
Ġf l
Ġo f
n d
co co
wor k
ra ct
Ġ (<
Ġp ass
Con v
b one
a ut
ep s
u ser
s plit
n er
Ġpy test
" :<
sc ale
(' --
ult i
R I
in dex
ce pt
ĠC on
to ken
at ed
l r
fiel ds
D ict
an t
int er
e qu
a ke
ĠUn ion
c a
E x
ar k
att r
C K
c ore
ra p
ar m
proto buf
am es
L og
d u
Ġg oogle
Ġ ch
( __
lay er
F I
st art
m ean
Ġrequi res
ut e
ht t
ar ch
( (
ern el
Ġt ransform
Ġ 8
it test
ap i
' )
Ġfor ward
Ġ'../ _
Ġpar am
g rad
MO DEL
t t
g er
Ġb ack
cu da
f or
Ġp i
Ġ loss
y m
' ]<
Ġen um
S E
Ġp l
c or
Y PE
I D
ĠP ath
at io
p rint
ct ools
e f
vis ion
L O
b ert
ob ject
Ġ load
10 1
A D
id th
Ġ ro
g th
de vice
M essage
h o
Ġbu ild
Ġ image
t ime
e poch
ĠĠĠĠĠĠĠĠĠĠĠĠĠĠĠĠ ĠĠĠĠĠĠĠĠĠĠĠĠĠĠĠĠ
re e
al le
v ent
c oder
Ġ+ =
" )
] .
Ġfun ctools
Ġ' .
g roup
our ce
p lot
i el
B ase
" ]<
le vel
pe ct
reg ister
Ġs ub
Ġb atch
Ġun ittest
vi ew
(). __
co unt
iz ed
Ġpre trained
Ġc fg
l in
I mage
ption s
s ched
i x
Ġd im
Ġc v
Ġ key
__ ()<
ay er
iel d
> __
Ġ 6
Ġ' __
C E
Ġl abel
b lock
ion s
Ġn ew
U L
f er
opt imizer
t s
U T
g r
. __
t ypes
( ))<
i ent
Ġs ize
Ġel if
res net
Ġ al
Ġo pen
A B
Ġab s
] )
Ġ list
Lo ad
C om
c ur
Ġm ask
op en
z er
ol d
Ġ log
il der
Ġpath lib
c all
Ġ value
it s
Ġm ain
id s
F or
un c
back end
Ġw eight
emb ed
. <
u ct
se ed
pe c
r atio
R e
u se
en v
t arget
arm up
C ON
ang o
pl ace
act or
Log ger
er ror
res h
po se
u al
u st
er y
f ut
Ġcon t
D I
c ation
Ġo b
feat ures
Ġo pt
all able
c at
Ġm in
m on
am pl
Ġb box
re ct
Ġ1 2
Ġ W
Ġp o
ul l
L I
3 3
pon se
>"" "
Ġ url
Ġu se
'] .
arn ings
Ġf loat
n ew
Ar ch
C ol
Ġin it
lay ers
F ile
Ġdata classes
Ġb ase
d oc
fut ure
add ing
ol s
a ir
p b
ail able
A P
Ġ[ '
l er
htt ps
n o
et a
b er
__ )<
dataset s
Ġ z
] :<
z e
Ġb ox
ch em
n e
Ġ" __
al ize
ĠI mage
t es
F A
-- --
str ib
m at
ex p
Ġdi st
int s
p ol
Ġg lob
id x
ag s
ann ot
r ame
s ub
f pn
cl s
j ango
ĠĠĠĠ ĠĠ
m ark
c reate
ran k
Ġc reate
Ġback bone
strib ut
n s
ra ph
ĠC allable
__ ':<
Ġcon v
ot al
). __
Ġ 7
param et
r g
O T
H ead
v ar
t rans
Lo ss
a it
de scriptor
fiel d
00 00
Ġd type
Ġw arnings
Ġb ool
4 0
Ġt ry
em p
Ġr un
. ,
RA IN
Ġstr ide
or s
av ailable
l d
n ode
num py
valu es
Ġ im
8 0
st ep
ine ar
t x
ĠĠĠĠĠĠĠĠĠĠĠĠĠĠĠĠ ĠĠĠĠĠĠĠĠ
li ent
w r
len gth
rc nn
=[ <
co py
a ction
Ġ on
ES T
l y
ER S
Ġw or
g pu
Ġdata class
" ])<
al ue
sched ule
U M
( *
item s
1 7
Ġst d
Ġ )
'] ,<
Ġi d
re l
up date
pre fix
( ),
Ġ add
py torch
C RI
r der
f n
rap per
__ ":<
CRI PT
= ['
Ġm odule
m p
label s
ĠT ype
S I
re t
P O
ener ator
ro po
Ġ ]<
To ken
U N
A G
( -
di st
y le
Ġtensor flow
d m
and om
ropo ut
d f
Ġt ext
m an
2 5
R eg
m ode
Ġex cept
l l
w idth
" .
ol der
se q
t ra
q l
a ch
UL T
"" "<
O C
P R
Ġl r
Ġi o
ind ow
file name
Ġw armup
al s
t ask
stat es
EN T
iz ation
orm at
unt ime
de c
D AT
to ols
ĠD ata
w ait
and ler
ES CRIPT
Ġb e
Ġ ext
L M
Ġin ter
Ġde vice
Ġ iter
T est
n ames
o ok
am b
f ace
on g
e val
h er
Ġ( '
> }<
Ġd jango
Ġ keys
s ave
Ġ{ "
C h
h idden
Ġh idden
= {
Ġ !
} ,<
st ract
Ġm ean
pl y
d own
ampl er
qu ery
Ġresult s
ob j
F OR
Ġcon text
7 5
P re
Ġsc ale
U R
Ġa x
bu ilder
Ġas ync
equ ence
pro ject
e y
Ġ! =
Ġc l
Ġk ernel
Ġ q
str ing
ESCRIPT OR
t ial
Ġc lass
A d
alle l
q dm
( _
ff set
Ġ'. /
re d
um n
ke ep
b ias
f actor
ent ion
p r
fil ter
se g
ri b
rder ed
s ym
Ġ an
point s
a u
rdered Dict
re f
Ġre g
ur ation
) ))<
ut o
get Logger
S S
c s
P L
Par ser
1 00
iv ation
== ==
Ġre quest
de d
Ġlogg er
Ġs ample
s ys
r t
oc ab
pro b
Ġt qdm
di ces
am p
f unc
ct x
fer ence
Ġ X
Ġ* <
m b
i str
L ist
1 8
pre d
Ġa ct
re nt
ĠO rderedDict
backend s
Ġde t
Ġ{ }
vi ron
Ġ utils
amb da
ro w
Ġsh util
Ġpar se
Ġp os
Ġs er
2 56
M E
C lass
s o
Ġf eat
Ġ.. .
L ayer
annot ations
is s
Ġabs l
con text
met a
Ġm at
m d
E X
in s
I m
t em
th r
th on
c lo
t ings
x y
ĠB ase
T O
ate g
ent er
= -
scri ption
or d
ĠE x
N AM
] ]
Ġ Q
stribut ed
CH E
ĠI n
ss ion
a k
ab s
h or
Ġg roup
Ġ K
Ġ1 6
ck le
Ġm essage
p p
b n
re am
Ġ }<
ra w
mask s
4 8
cl ient
0 1
ot t
p are
de nt
Ġb ias
Ar g
Ġde scriptor
Ġ( "
Ġc ur
O L
FA ULT
P ath
o f
l t
loc al
R andom
Ġb y
9 9
Ġu ser
ĠS t
Ġmodel s
D ESCRIPTOR
istr y
g n
[ -
L U
result s
pl an
p at
} )<
i an
as ync
E nt
ul er
T YPE
ple ment
box es
e ck
_ (
ern al
file s
wr ite
ifi cation
ic y
ER T
a f
fi r
Ġp adding
on t
Ġin dex
an ge
cl ip
Ġw h
act ory
Ġde pth
1 1
CO M
MA P
zer os
. """<
Ġsub process
Ġ ],<
a ug
re qui
Arch ive
weight s
ens ion
vi de
rg b
val id
IN T
que e
Ġn ode
st d
Ġpar tial
et er
app ing
Ġ 9
str uct
dec ay
input s
Ġa wait
Ġ ]
am l
FI G
Ġ keep
ĠR es
met ric
bbox es
1 5
Ġos p
Ġa ction
t able
ĠP IL
quee ze
d ing
Ġ check
o und
Ġ app
li c
r untime
Ġ" "
P RO
H E
epoch s
ument Parser
Ġt emp
d um
ass ert
Ġp ol
N D
P AT
paramet ers
d type
ag er
p ack
alue Error
or der
Ġst art
T ransform
ro ss
per ator
nd array
B lock
wor d
Ġt ra
it le
T T
{ }
f older
s k
tx t
e b
F O
Ġ/ /
ET RAIN
l ation
inter val
c pu
u d
Ġj np
Ġre du
ff er
r ate
le te
) ]<
py test
F ield
gr am
L inear
at ive
Ġ{ }<
Token izer
T rain
. ")<
Ġj ax
G ener
po st
F rom
po ol
Com mand
S et
am ed
Ġpi ckle
DE FAULT
le ment
en viron
m y
Ġto ken
p atch
k ens
ĠT F
P I
h ash
p ad
Ġiter tools
ĠCon v
ETRAIN ED
Ġ all
Ġ field
Ġl ine
pon ent
com mand
V I
Ġ att
dir name
V ar
y n
AT E
col or
K E
Ġh as
sc ore
CON FIG
'] )<
u id
Ġg t
logg ing
s w
o ptions
Ġmet ric
ert y
S c
s rc
line ar
Ġ checkpoint
) ),<
bu ild
int ernal
l a
or es
' .
f c
p k
stract method
Ġ |
, ),<
B atch
k er
ri x
g ine
stat us
Ġpl t
B N
) :
ing le
ri pt
Ġax is
S e
b in
in dices
Ġ item
Ġ 64
' ):<
s ign
Ġtorch vision
module s
t otal
im it
IN E
arn ing
norm al
AT ION
ect or
op s
o o
s queeze
ic es
in al
Ġm ake
ph a
io u
pect ed
re quest
w rapper
Ġres ponse
Ġp d
M ask
k ernel
t rue
Ġ2 0
pro p
Ġpre d
clo se
Ġv ersion
Ġf unction
n ot
plan es
CHE CK
t on
P o
ST R
se nt
s g
mo ve
by tes
im ages
' ))<
ro t
C L
st em
ect ron
v ocab
Ġ ann
com mon
ĠI ter
ĠP y
e valu
transform s
D e
init ial
Ġob j
ar r
i ce
en c
St r
ĠV alueError
Ġparam s
low er
5 5
Ġp atch
Ġpi peline
n ext
in k
ch ar
PR ETRAINED
s ig
i dat
de pth
F lip
s u
ĠS equence
as ic
U S
3 0
PAT H
v g
el l
.. .,
ES S
conv ert
fi c
Ġt im
ug in
Reg ister
Ġ le
ca che
arg e
U P
e vent
f ast
ist s
sp ace
Ġtransform s
st ore
} /
str ide
ent ity
T h
ml ab
O ut
Ġ5 12
ĠN ot
class method
St ate
Norm alize
pre dict
sample s
m mlab
[ ...,
ang le
Ġh ead
opt im
5 12
r ight
lt a
Ġn et
stat ic
ĠT ensor
" ),<
m e
L e
ap ply
up port
Ġbox es
fir st
IN FO
rel u
run ner
t uple
MA G
AS S
NAM E
s pec
C o
F ormat
om ent
resh ape
Ġ eps
ser v
ver se
ro py
ma ke
Ġmet a
pe d
un k
AR T
Ġm ulti
) ):<
ay load
DI R
Ġ :<
T ext
Ġst ate
Ġs k
ad er
r iter
Ġt ask
c cess
t im
m atch
' {
d ropout
pl ate
u int
stan t
Ġp ad
. ')<
on es
Par am
en se
test ing
Ġtransform ers
i able
m t
chem a
Ġm ode
c ase
di s
E n
en coder
Ġinput s
T uple
1 9
I G
i ck
n ow
E L
Ġconv ert
Ġp er
F F
u de
par allel
plot lib
f rame
( ),<
Ġf lip
MA ND
plement ed
bu g
Ġasync io
B ert
vide o
f ind
an ce
mo ck
Ġ2 56
process ing
t ry
Ġ> =
is c
SI Z
ock et
Ġtemp file
Ġst ep
es h
ot h
it ers
Ġg rad
COM MAND
Ex ception
2 8
m ult
Ġst at
T EST
B O
ig r
jo ints
c nn
S h
U ser
Image From
Ġt rans
S er
Ġo p
ap es
Ġ"" "<
Ġab c
Ġmm det
er ate
Ġb lock
" {
P N
s m
2 24
o us
(" --
od ing
l arge
w h
p ace
str ip
Ġ kwargs
D ef
ĠT YPE
Ġ1 00
load er
g lob
Col lect
2 1
Batch Norm
lin es
Ġ- -
Ġlabel s
Ġs ave
act ivation
Ġen v
CT ION
re place
data class
c c
Ġ3 2
Ġcol or
o ver
n der
Ġ ,
F loat
E num
a w
s y
ĠĠĠĠĠĠĠĠĠĠĠĠĠĠĠĠ ĠĠĠĠĠĠĠ
re du
H ook
em ory
pare nt
S P
K ey
s ource
u ff
Ġ ),<
O b
ex cept
to col
ex ample
ifi er
s pect
Ġ5 7
Load ImageFrom
b e
di stributed
te ction
st eps
Pro cess
cont ent
iv es
ith ub
train ing
KE Y
" ):<
Arg umentParser
AB LE
CHECK ING
and le
U n
Ġm ock
s with
Ġ up
pt y
Ġc or
C A
stan ces
] [
ro und
RE G
so ft
ant ic
7 6
) [
Im plemented
zer o
g enerator
i py
LoadImageFrom File
se arch
ment s
mo id
oment um
1 4
Ġfile name
is h
Ġc lient
y g
Ġenum erate
dir s
N ode
Ġrequest s
T H
Ġdefault dict
8 4
Ġs ql
Ġn ms
group s
g raph
A tt
st ack
Ġ ])<
m m
cor d
N UM
de lete
de code
Ġa re
g ener
g ress
Ġc ode
a i
E nc
it ies
Implemented Error
rect ory
S G
u ild
Ġz ip
st ages
Ġs plit
om e
c re
num ber
Ġ end
Load er
P ool
Ġd f
es c
Ġmat plotlib
3 6
co s
to kens
ĠP ro
Ġth read
Ġid x
c rop
ort ed
om ain
pos ition
di o
Ġtrain ing
Out put
2 2
AP I
HE AD
'] ),<
un i
ut ion
Ġro t
Ġ embed
schedule s
Ġd own
le d
s q
D et
de lta
ust om
---- ----
c le
Ġw idth
log its
is ion
I C
de scription
Ġ{ '
H andler
R un
k it
s v
ol ute
ĠNot ImplementedError
ot e
at form
RA N
ast ype
den se
ac y
feat ure
Ġset up
Ġdet ectron
back bone
Ġl ay
m iss
m ulti
E M
n ing
R ES
g ithub
Ġsh ape
Ġv ar
ic al
fl ags
Ġ12 8
t itle
z en
ep copy
um e
og rad
Ġ attr
Ġgroup s
meta data
l p
yg on
ax is
ĠCon fig
ho st
Ġ: ,
Register Message
mat rix
c i
( **
S ampler
3 9
Ġc a
iz ers
air seq
Ġin spect
if y
Re LU
Ġwor k
a z
Ġcl s
li cation
wor ld
are d
20 17
Ġ< =
Ġ" .
I nt
I O
p an
un ter
d rop
FOR M
c al
Ġy ield
ign er
B ox
Res ize
ex ists
f lip
att en
gr id
M ulti
le ase
Ġcont ain
Ġ ad
de tection
ent ial
n ers
Ġre ad
r im
Ġimport lib
Ġex pected
Ġw indow
Ġ1 5
len eck
ott leneck
Ġd o
con f
bo ard
Ġser ial
H T
ol ve
v ert
evalu ation
d ition
dim s
ĠC om
( {
to p
Ġa ut
n ms
qu ence
SIZ E
ĠR e
ht ml
ro zen
Float Tensor
ser ver
and as
Arch ives
../ ../
B U
L A
To Tensor
ity sc
put e
Ġsc ipy
V AL
al o
E CT
l ast
l ambda
ry pt
im ple
Ġco unt
> )
Ġ lib
Ġredu ction
ms g
for ward
AS ET
} ")<
LI ST
Ġf ind
att ention
Ġt uple
head s
ne ction
ĠIter able
il l
Ġ1 1
ĠEx ception
N O
en gine
Ġh ash
b ot
pe at
c am
cl ude
eg er
en code
ĠI m
Ġg ener
OR T
in es
de v
he ight
' ],
12 8
Class ification
n g
r id
str ings
Ġc all
T he
Ġ \
htt p
Ġ1 4
cur rent
U p
p air
ert a
] ))<
D OC
ho ok
f p
se ssion
fic ient
p ri
o ffset
In put
g it
C N
port Error
Ġt otal
em pty
t r
Ġ2 55
prop erty
I M
arg v
metric s
itysc apes
3 4
aut ograd
Ġ J
CL ASS
D own
st all
yp er
Ġl ayer
ra di
ex ec
2 00
Pro tocol
add ress
vis or
Q U
9 6
ic s
Ġstr ing
ment ation
d o
AG E
V ER
form er
N ot
im al
Ġ ct
Ġs rc
ess ages
Ġst yle
Ġy aml
ĠType Var
" ],<
l ate
Ġlay ers
0 5
set tings
p adding
ang u
D ec
Ġopt imizer
g ing
OR S
V i
ro l
A CK
ag ent
" ))<
ob erta
block s
b l
h andler
in x
Ġp andas
at ure
ff e
DAT A
EX T
d ot
od y
Ġglob al
P y
ul d
ig h
th resh
cu st
P UT
c enter
p ass
static method
Ġ qu
W OR
] ):<
ic ode
Ġstr uct
cust om
Ġ ctx
Ġurl lib
Ġo ffset
Con t
t ers
D i
oc al
==== ====
Ġfun c
chem y
m ary
e ar
loc ation
use d
u pt
er o
Def ault
: :
un squeeze
se d
Ġreg ister
N t
l m
Ġs um
g en
st er
T op
Ġ error
B C
equ ential
t mp
Ġthread ing
di c
li g
Ġal pha
ph inx
Ġsample s
Random Flip
' '
rand n
Ġ at
1 33
Ġn o
Ġwh ile
if t
ch at
L R
im um
Ob ject
Ġ2 8
0 2
Ġpre dict
m od
Ġ( _
le ft
DE F
Ġf ormat
c ast
n ect
o st
aut h
E vent
O ptions
1 000
5 3
b s
ĠData set
Ġpol icy
p ers
st ream
Ġget attr
ex it
transform er
F actory
AS E
n x
Ġcontext lib
sq rt
Ġ Y
00 1
Ġse ssion
uff le
w ise
sc ores
down load
b it
sh ow
Ġ },<
Ġj o
ched uler
rib ute
ĠIm portError
P ER
iz es
D esc
au ss
} ,
In fo
l at
Ġ &
CO L
am ma
mo oth
Ġ" --
exp and
er r
t ree
Ġ" ,
Ġpro ject
Conv ert
dum p
ut f
o ice
5 8
Ad am
R o
Ġm atch
S H
u x
w indow
l ong
tensor s
Ġ arr
Ġc li
N ame
e ction
ch or
Ġ" <
col umn
er ge
K EN
bo ol
p ress
se lect
Ġd oc
man ager
Ġh tt
Ġim ages
, ),
pl ay
Ġfl at
Ġpro cess
Ġd b
Ġ annotations
EN ET
s l
ab c
N e
ĠC o
ĠĠĠĠĠĠĠĠ ĠĠĠĠĠĠ
Ġf ast
s ync
el per
add le
de coder
Ġst age
F unction
Ġ `
ent ry
ĠĠĠĠĠĠĠĠ Ġ
aut o
P ad
a ces
path s
ĠC ol
alo ader
ab stractmethod
angu age
Enc oder
Gener ated
en um
T ools
] ),<
Ġdataset s
j it
P S
f ull
ff ine
po p
Ġabs olute
Ġinit ial
Ġ1 16
c ityscapes
Con text
Ġd rop
ver age
F IL
C lient
token izer
lig ht
U B
ateg ory
A ss
p c
Ġcur rent
w d
Ġbbox es
sig moid
1 3
Ġs ig
py plot
g o
s ampler
or age
Ġl ambda
Ġm ap
Ġin ference
av ar
und le
T F
Ġe val
Ġex ample
o u
doc strings
Layer Norm
ĠD e
Run ner
P AR
G et
v id
fil l
igr ations
at es
Ġmet avar
c y
w er
Ġ root
mb ed
config uration
S ET
em ail
Ġde epcopy
Res ult
al chemy
MAG ENET
M L
UR L
pi le
trans pose
bo ok
Ġf n
Ġ lo
ve c
l ap
sc en
Ġ' --
av g
Ġinter val
ex ception
133 3
6 75
S equential
Ġ1 3
ĠM odel
Ġby tes
Ġ2 00
/ '<
S ize
ĠT est
ter n
sched uler
en ch
Ġm sg
Ġa uto
Ġ" \
me di
Ġct ypes
g es
su ccess
h elp
Ġo ver
her e
D O
ref lection
Message Type
Ġ update
i e
ĠĠĠĠĠĠĠĠĠĠĠĠĠĠĠĠ ĠĠĠĠ
m ul
par t
Ġro w
M an
} "<
an s
b ar
Ġcont ent
S pec
com m
Ġh eight
Ġob ject
ĠB ert
pn g
Protocol MessageType
e e
de bug
u ous
Ġm omentum
Ġse g
Generated ProtocolMessageType
Ġp addle
Ex t
T RAIN
com ponent
i ses
C ase
or g
aut hor
ker as
REG I
T rans
ol ution
DAT ASET
ar ange
t ure
img s
Ġnum ber
bert a
cont ain
ch ain
# #
s in
or ig
Ġfunction al
5 00
Ġa st
li ke
D A
10 24
] ]<
MA X
Ġpo ints
Ġp ack
com pat
im ent
ERS ION
ĠĠĠĠĠĠĠĠĠĠĠĠĠĠĠĠ ĠĠĠĠĠ
Ġcom mand
Ġen c
fil ters
ER R
ff ers
ut ton
Ġde scription
Res Net
ath er
ess ion
ug ging
Ġg raph
fast er
Q u
Ġ query
qu al
000 1
TO KEN
A nn
pt s
T orch
st yle
ĠU ser
j ob
requi res
L L
S ER
an k
or ds
B ERT
Ġv is
ign ore
ĠR eg
c ent
12 3
start swith
yn am
idat ion
Ġdi vision
Ġnorm al
per m
Ġ10 24
redu ce
Ġdi s
Ent ropy
url s
** **
ca ffe
glob al
O UT
n on
ĠĠĠĠĠĠĠĠĠĠĠĠĠĠĠĠ ĠĠĠĠĠĠ
z ip
re q
ra ises
Ġs ign
ĠA BC
U RE
Ġ_ ,
S equence
DEF INE
auss ian
in ator
ro i
Ġcom mon
P ORT
ugging face
o ft
pl ugin
w rap
Ġtra ce
Ġi gn
id get
er a
__ (<
Ġs a
ĠF l
Pre Train
Ad d
F L
pe ll
Ġa c
D ER
F E
w o
f actory
bu ffers
STR Y
Y LE
i k
re pr
ench mark
in ue
ĠĠĠĠĠĠĠĠ ĠĠ
Ġu uid
s ql
ib le
ross Entropy
ĠĠĠĠĠĠĠĠĠĠĠĠĠĠĠĠ Ġ
Ġsc ore
Ġset tings
in stances
Ġs orted
REGI STRY
stan ts
Th is
re move
Ġc rop
con cat
Param eter
Ġv er
Ġ ):<
bu ffer
ĠI MAGENET
T I
Ġ' /
Vi ew
py thon
Ġwork ers
e ch
Ġ channel
Ġe vent
s ingle
le arn
il t
d omain
fl ake
lin k
sm all
Ġmet hod
alle d
P RE
G roup
} .
ul ator
Ġrequi red
Ġ one
Ġmulti processing
a pt
P U
in f
ut h
ig uous
ve ct
ac c
ĠE num
/ ',<
F rame
H O
set up
M ap
Ġab stractmethod
tra ck
In ter
V OC
Ġf airseq
he ck
Ġhas attr
E lement
c md
o uld
or ies
est amp
Ġb l
Ġserial ized
Desc ript
f fix
p us
in ference
ĠĠĠĠĠĠĠĠĠĠĠĠĠĠĠĠ ĠĠ
W ith
Ġs ocket
Ġde code
h ot
Str ing
P l
y aml
Ġs pec
al og
Ġh ook
on ly
Ġ channels
) ),
g l
Ġoutput s
G E
r am
fl atten
M eta
Ġn eg
res ume
object s
) ).
Ġ view
c n
O P
V alue
res ponse
Ġe valu
res olve
Top Down
ut es
al ign
V ERSION
Ġlen gth
our ces
Ġun icode
S K
bo se
h uggingface
Ġb in
" ],
Ġs p
com pile
net work
reg istry
ck et
n own
per iment
Transform er
el se
I Z
er as
Ġ1 9
eat ure
Descript or
b ol
w in
ens ions
6 0
Ġs ource
. /
Ġpl atform
Ġstat us
) ')<
Ġe poch
pro pos
ĠC N
sh ot
ret urn
ynam ic
Ent ity
now flake
ĠP re
Ġtarget s
D B
EN CE
Ġ' <
upt ools
Ass igner
Col or
soft max
ERR OR
; <
el u
Ġc an
ampl ing
w ay
re al
Ġbu ilder
25 5
uni form
cs v
G G
Ġign ore
r ames
s ses
ĠA rg
que ue
w w
tem plate
N um
S ub
BO X
Ġ util
en et
Ġse q
Ġs u
ed ge
Ġde st
re ction
Ġn ext
Ġfl ags
cont iguous
TT P
h as
Ġde c
b a
se nd
ub lic
s phinx
u i
Ġwor ld
rand int
Ġc sv
ĠĠĠĠĠĠĠĠ ĠĠĠĠĠ
Ġth is
ĠC h
Ġ level
di ff
Le vel
S chema
e ed
Ġfl ax
Ġpo int
Ġto p
2 6
Ġse ed
FI LE
de nc
Ġf ont
Ġo ptions
abs path
g ra
c ar
equ al
pre c
St at
re ak
al g
sy stem
E mbed
Ġ rank
res next
ĠM apping
Ġsql alchemy
i a
t ag
Ġ values
le an
Ġg ym
3 75
Ġl ast
un ch
ca de
cor ners
Ġ })<
config s
Ġre verse
Ġn eck
Ġm ust
Ġpre fix
model ing
t il
Ar ray
Ġf rozen
= _
F PN
test s
I o
Q ue
as cade
b ind
n a
le ep
Ġor ig
qu ant
RO I
Ġth at
Ġlog its
Ġio u
Ch annel
yper params
ument s
et ch
nt ity
T R
] ),
Ġc ast
3 5
I d
T able
Ġ us
di visor
A n
cur acy
requi re
" ).
d d
it t
Ġor der
ri de
Ġdi lation
al f
con stant
A ug
work ers
Ġopt im
output s
Ġpro gress
rossEntropy Loss
S A
g old
Ġ entity
CH AN
Ġcont inue
a a
ĠL O
s izes
r ite
Ġfeat ures
SG D
Ġb py
Ġ port
fix ture
B undle
l imit
A ction
M ix
Ann ot
Ġtrace back
dat aloader
ĠS et
man ual
Ġfile s
M essages
X t
Test Case
Ġ ap
h r
Ġt x
ser vice
__ <
ST D
Ġf ull
Convert er
in ds
Ġse lect
Ġpy torch
ĠS h
sent ence
AL L
(" /
Ġres net
Ġcom pute
g oogle
al y
A pp
9 0
Ġ Z
w armup
Ġact ivation
le t
g b
Ġ2 4
em plate
M ax
et ric
V al
th er
embed ding
all back
ul ate
AG S
x el
um p
i date
v o
Ġre l
m ix
li er
Ġflat buffers
w are
ef ficient
G enerator
() )
Ġgener ate
b ody
ĠT h
CLASS ES
p g
39 5
B Box
ro ut
ST YLE
={ "
P er
ag g
m emory
con d
stat s
Ġ10 3
'] ['
Sc ale
', '
ĠReg istry
. "<
Ġtime delta
Ġsc ores
riter ion
" ),
Ġcl asses
sk ip
U ID
seg ment
Ġpos ition
Ġ filter
S C
cont rib
Ġra w
Man ager
Ġex ist
N ET
um my
SP Messages
pro j
A l
PE C
Ġnorm alize
M ock
er ic
ĠP ar
Ġcli ck
e le
m ath
s ort
pt imizer
Ġ% (
Ġjo in
F ER
c p
d ings
Ġse nt
PO INT
m apping
nc cl
L IN
Ġ: :
=[ "
[ [
ma il
Ġf rame
et ers
CO DE
Ġfeat ure
ĠRes Net
Ne Xt
Ġset uptools
St art
Ġweight s
upport ed
ass ign
se quence
RO OT
Ġt able
Ġ" "<
target s
Ġext ra
Format Bundle
an et
ĠA uto
Ġt er
radi ent
Base d
Ġex ec
ĠK ey
d k
t ri
Ġt mp
I P
Ġ" /
A A
p il
a vi
Ġ" -
af ter
B y
CH ART
Po int
ĠT SPMessages
act iv
convert er
est ed
Ġc al
ext ra
B u
amed tuple
Io U
c r
Ġ'../ ../
p ayload
Ġf actor
Ġm o
ma ster
A ny
F UN
Ġ( (
ag enet
v oc
IG HT
d nn
Ġp ri
Ġval id
B ottleneck
S AM
it ect
f it
en ces
al ar
ĠA l
N o
Ġex p
b est
pi e
t ing
R oberta
thresh old
re c
Ġen coder
ott om
in place
se c
con nect
pack ages
Ġ local
m esh
ig a
an c
iter al
w eb
A IL
} )
Mask s
O perator
Ġsc ript
ef ore
Col umn
id ual
Ġpro b
pol icy
f in
Ġm od
ĠF ield
ĠT o
IN PUT
I ES
Ġ api
I tem
att n
Ġ8 00
: ]
Ġt a
Annot ations
var s
are a
emb er
U til
Ġsh ould
ro berta
ran ch
m isc
_ =
PRO P
Default FormatBundle
r ary
z oo
Ġm igrations
co pe
__ '
M ET
i ch
o unt
ip lier
able d
l ab
Ġin stall
Ġo perator
Ġmeta data
h ist
ag ic
Ġredu ce
i os
G B
I ter
S PL
W rapper
Dec oder
il i
Ġ4 0
ĠĠĠĠĠĠĠĠ ĠĠĠĠ
EN D
% (
ext ract
opt ic
B ACK
Ġf low
Ġb ot
Par allel
PO S
z z
ad min
au dio
af e
G N
M IN
is ode
Ġde l
Ġtyp es
bin ary
Ġtim m
A U
B ASE
' ).
Ġparam eter
: ]<
} ')<
ĠQ t
u sh
RE AD
rop erty
Ġrun ner
Ġdi sc
Ġpo st
T ask
W N
am ount
n eg
Ġ it
per ation
y stem
ver y
sw er
Ġhash lib
stribut ion
I S
r ize
Ġn ull
ĠF ile
F l
h andle
train er
Ġtest s
(' /
eg r
C heck
T S
v it
st one
Ġsig ma
" }<
v ate
Ġo ther
Ġ3 6
paramet rize
F ound
ser ial
ĠD E
[: -
ĠD i
u dio
node s
Ġ err
F il
al pha
ent ropy
O p
B ON
in sert
CON T
Ġabsl test
Ġenc oding
cl amp
pol ation
A V
Ġc u
pl t
ĠM O
di rectory
ĠT ransform
T ree
w s
NAM ES
FE AT
M ENT
S OL
C rop
em e
n ess
Ġb reak
Ġin fo
Ġc am
AN D
om et
T RAN
Ġ arch
Ġ1 000
ext ension
bo und
St yle
Load Annotations
ĠConv Module
vect or
Ġf ound
ĠT rain
ĠA tt
pers on
P ING
S eg
a de
h ex
fl ag
en ate
__ .
itect ure
com ple
im agenet
Ġp ool
Ġ3 0
Ġ2 24
ter min
torch vision
rypt o
s im
av ed
Ġtoken izer
Res ponse
SPL IT
Ġa vg
l s
r ing
Q t
st ion
b ers
data base
ase d
rot ation
W E
Ġf p
Ġfl ash
ĠData Loader
Ġattr s
_ {
app lication
idat or
S PEC
pen denc
Ġnet work
Ġ first
make dirs
C ore
n one
Ġin stance
dat etime
ĠĠĠĠĠĠĠĠĠĠĠĠĠĠĠĠ ĠĠĠĠĠĠĠĠĠĠĠ
b asic
aug ment
Ġhook s
C C
oc ument
F orm
U E
c ross
ĠO b
DE T
Ġro i
Logger Hook
error s
ME AN
Ġmetric s
se ction
ail s
FIL ES
g round
Ġc enter
ut or
token ization
ic le
ĠE ntity
Ġ li
Ġ[ ('
ĠArg umentParser
U DA
Ġre move
ci i
res ize
ĠG ener
ĠX LM
e lement
ob ile
ĠV ar
ames pace
S ON
Ġc lip
ep isode
Ġ{} ".
pie ce
re cord
pre ds
Ġatt ention
A uto
rom pt
li sh
Ġdi ff
CN N
7 8
H R
struct ure
G RO
Ġ' _
ach ine
6 5
Ġre nder
Att ention
c er
Ġ et
D ist
Ġd ropout
MAP PING
m erge
re nder
st age
le g
Ġp k
Ġr atio
back ward
FER ENCE
l ang
di sc
6 8
> ''
pos it
_ ,
at er
at ter
function s
Ġsh uffle
Ġch ar
ĠĠĠĠĠĠĠĠĠĠĠĠĠĠĠĠĠĠĠĠĠĠĠĠ Ġ
tra ce
rim inator
c ascade
ĠC lient
VI CE
0 4
A ct
ĠP ol
ifi c
3 84
E qual
re set
' ),
T ime
serv ation
4 56
ust er
ĠT S
Ġa ug
head ers
Ġfast api
D ropout
an e
EN S
P Y
d antic
um ns
Ġdown load
re n
Ġc ustom
(" \
Ġm p
all y
() [
ator s
aw s
" \
ĠL og
det ector
initial izer
F ast
g g
Ġin place
MO D
k dir
t k
F eature
rout er
F T
I ST
re p
Ġv ocab
7 2
el lo
Ġt itle
Re quest
M P
s uper
ex port
ul ar
C a
Ġ[ [
em o
scen e
P os
n dim
Ġ fields
ch ild
Ġw rite
AR G
emb ers
Ġuse d
ĠCol umn
efficient net
Based Runner
2 25
ext end
76 9
exception s
Ġ' \
th read
Ġj ob
ile d
Process or
N OR
R ec
w e
w here
se m
Ġb n
work flow
Ġm a
con st
rib utes
ist ic
lect ra
Ġver bose
PROP ERT
D S
ĠM eta
pair s
M ode
48 5
Ġf ake
ĠM ulti
Ġca che
(' -
run c
L ib
S ync
b enchmark
ed Model
act ive
component s
f s
i od
Ġ fi
Ġ1 8
ĠI nt
ir d
Ġa ux
"] ["
40 6
Ġext ract
Q L
LI C
ak y
res ource
pro file
Ġal low
Ġto kens
Ġy ou
re en
22 9
get env
di v
d p
Ġkeep dim
t ol
ub ert
concat enate
ff ff
us ion
Que stion
g ather
Ġst ream
pk l
az y
da pt
example s
> ):<
b stract
Ġdat e
task s
mult iplier
Ġsk learn
vid er
L D
Ġin dices
il ity
GRO UP
Ġal ign
Ġx y
t emp
as cii
Ġb eta
tim estamp
no ise
pol y
2 9
A ns
e q
re peat
Det ector
ĠD ec
norm alize
il on
miss ion
C at
t ot
con stants
ĠA PI
Text LoggerHook
Ġsk ip
Ġk eras
LO CK
Ġp lot
Ġth resh
LIN ES
] ).
d Dict
g est
h and
h elper
Ġc at
ox el
a iled
pe ech
Ġc md
(' \
A CTION
U Net
p end
prob s
L P
M o
std out
d ar
co ords
e di
v ed
ĠL iteral
f ont
Ġu int
Ġhtt p
Ġs ix
cu dnn
Ġparam eters
xy z
s a
ol ver
Ġh ero
Ġg amma
Ġ8 0
FL AGS
e pl
m n
agic Mock
ent ions
(" .
f ree
Ġfl ask
unc ased
cal c
B ack
Ġre place
di stance
ST ATE
Base Model
s or
is kit
ial izer
Ġse quence
R ead
u es
SOL VER
Ġp ayload
I MAG
O ptional
th e
ĠR andom
pell Entity
Ġi da
Ġde coder
gener ate
: ,
st op
alle t
over lap
face book
c ut
ĠF unction
PAR AM
con ds
PreTrain edModel
Ġ' -
Ġw ill
Res NeXt
pack age
Mask ed
c ategory
b eta
LO G
A X
Ġm y
head er
var iable
ateg y
D is
or ith
as on
d ri
(' .
Not Found
r b
ck pt
fl ax
gra de
Ġb ound
and ard
press ion
Ġs oft
] ])<
Ġf in
end swith
ĠPy Torch
predict ions
Ġare a
Ġ video
lo op
di rect
AT CH
f un
o lo
s qu
pro x
LA Y
COMMAND ARCHIVE
O PT
c an
h ip
ĠQ u
h alf
p age
Ġ* =
li ce
Ġl ines
Embed ding
ch unk
Ġs cheduler
co unter
Ġsh ow
SS ES
pass word
activ ations
Ans wer
4 4
a ded
Ġ" _
det ach
TT k
E G
ĠP Y
IT ION
Format ter
j pg
k s
Ġd st
ĠS ession
dition al
7 0
Ġc re
Ġb et
TRAN S
f y
"] .
Ġtrain er
o ption
o perator
perm ute
1 50
dict ion
fg Node
E poch
W AR
c b
in y
St ream
process or
Ġ'../../ _
Ġ 50
8 6
in ation
an h
embed dings
BU G
ar io
)) )
J ECT
Ġn amedtuple
int eger
Ġpy dantic
Ġn on
DE N
B asic
EN ER
call back
s lot
Ġm an
Ġo ld
([ <
O B
s n
Ġse arch
as y
ĠS nowflake
Fil ter
s ocket
Ġin st
val idation
ĠC O
s chema
m id
di ag
len der
St age
Ġback end
igr ation
Stat us
d ynamic
dum ps
Ext ension
Ġcal c
it ch
Ġ2 3
h ome
ress ion
Ġs m
ĠM odule
Ġfont Tools
Answer ing
der r
d n
Ġpy thon
PE LINES
action s
r at
ĠT ext
par tial
ĠS c
: -
d r
ro ad
Ġpre c
Ġsh ift
CT YPE
Ch ar
ic ro
ug ins
propos als
For Sequence
ĠIter ator
ForSequence Classification
on nx
al ys
Ġg rid
ĠM essage
Ġta iga
o ices
cl ick
own er
Ġan y
ĠC rypto
En v
Ġus ing
Ġ' '<
du ct
alys is
/ {
2 3
w ar
ed it
cl i
th eme
ac count
ĠVar iable
f rames
s cope
re lease
Ġdi rectory
t ags
ex periment
Ġm ult
ik i
) ]
ro ute
ent ities
cl one
sh ared
Ġ\ <
medi ate
DATASET S
ĠC rossEntropyLoss
flo ps
wor ds
RE FERENCE
ĠN amed
Ġon nx
epl ab
v m
Ġc lo
Ġas sign
INT ER
T ra
ot her
ret in
su ffix
w arning
Ġa cc
T ER
in dic
ow er
Ġ> >
COL OR
ur i
E nd
] ],
) ])<
O ptimizer
S O
ECT ORS
ES ET
os p
Ġh t
ay out
d l
initial ized
O K
col ors
at ing
it map
Ġcor rect
ĠCo unter
C M
v core
- %
R ot
zz le
ub le
ml p
Ġact ual
le m
Data Frame
ho ice
Question Answering
, )<
O f
W idget
sym bol
dent ity
Ġhtt ps
ili ary
ch ange
pl us
imit ive
serv able
FUN CTYPE
dist il
Ġsc en
-------- --------
ut able
LM Head
: %
M T
r ng
av a
I SS
le arning
ch oice
cle an
IZ ER
A ffine
d le
pe ed
Ġ[ -
7 9
x ml
ri es
l ers
ĠC fgNode
In dex
T arget
b b
Ġ" ""
dum my
Cat alog
ĠM y
R Y
R CNN
g pt
g amma
eg a
ĠBase Model
F C
Ġre f
ĠM agicMock
h i
Ġm lp
ĠFl ax
pendenc ies
FI X
Ġcontain er
L abel
M S
m it
LO W
retin anet
Ġ2 2
fo o
hr net
Ġr ate
fl at
ilt in
pol ygon
redu ction
T E
Ġs g
sum mary
7 4
pl ates
C LI
in p
e a
Ġ loc
ĠĠĠĠĠĠĠĠĠĠĠĠĠĠĠĠĠĠĠĠĠĠĠĠ ĠĠ
STR ING
' t
project s
ESS ION
ĠL o
paramet er
sig ma
B OT
c pp
di lation
assert Equal
Ġfunction s
Mix in
A s
de st
d jango
j i
log in
Ġsign al
token izers
pol ate
untime Error
in v
lo sses
Ġp db
Ġd t
) (
M M
an swer
lo y
mb le
P roperty
R ef
f ficient
un ittest
r l
st orage
ide o
Ġbu f
) }
C ustom
Ġ array
([ [
vg g
Ġf vcore
ex pected
W S
h params
r ig
s ampling
log s
IT H
cont rol
lin alg
w n
Ġn b
and b
ĠR oberta
are nt
MO DE
R L
u ction
Ġt ag
Ġser ver
Ġh andle
load s
b ranch
ST ART
Ġ dir
em a
ĠP o
Ġ: ]
enc oding
contain ing
tot ype
G raph
For QuestionAnswering
L ong
di fi
Ġh ost
Ġde n
Image ToTensor
ra ps
add r
Ġtra ck
v s
__ .__
pe g
Ġm ark
agg reg
IT Y
ĠType Error
VOC AB
R GB
] +
t y
. ",<
ob s
Ġhead ers
t i
ĠO pen
Ġ6 0
M IT
g ent
as set
road cast
. *
d am
p id
ĠĠĠĠĠĠĠĠĠĠĠĠĠĠĠĠĠĠĠĠĠĠĠĠĠĠĠĠĠĠĠĠ Ġ
c ateg
le ss
ne ck
8 8
C S
al low
0 3
Ġde bug
Ġcon struct
Num ber
Ġnull able
s ide
s orted
Ġ angle
Ġt ri
um eric
ĠN o
99 9
sign al
======== ========
b order
Masked LM
ĠS er
Ġext ension
A dapt
ext ensions
Epoch BasedRunner
I F
t ab
t yp
at ron
Ġht ml
M etric
A c
s upport
G R
W riter
d t
DE BUG
R ET
s leep
requi red
({ "
e am
Ġw rap
Ġr gb
G RA
Ġt p
For MaskedLM
Ġb s
cam era
TI ME
_ <
m omentum
Ġa v
ĠMO DEL
f name
al len
Ġrequi re
doc ument
Ser ializer
pi xel
miss ions
ĠĠĠĠĠĠĠĠĠĠĠĠĠĠĠĠ ĠĠĠĠĠĠĠĠĠĠĠĠĠĠĠ
Ġv ert
ION S
1 0000
X L
d ay
v es
Ġst em
Ġconfig uration
16 0
Ġcor ners
A CT
] ]:<
a unch
Ġ apply
Ġs ym
ĠR o
work er
U SE
iz ont
Ġw eb
AD D
clo ud
yp h
ĠA pp
Ġpro totype
s ity
at om
ain er
Ġun i
ET ER
eg atron
Ġwor d
er e
ot ion
ser ies
po w
Ġcon f
AB C
19 2
izont al
a im
set Level
C AL
s i
Gener ation
se ns
ĠB atch
g elu
k nown
Ġs w
ĠS E
Ġaut hor
or i
ro le
ert ies
Ġr ight
ĠPol ygon
Ġaux iliary
C reate
g pus
Ġs im
Ġy our
f req
level s
Ġpo se
l iter
quest ion
Pro ject
command s
SE Loss
reg net
Ġon ly
Tokenizer Fast
Ġcontain ing
file path
all close
Ġ3 84
Ġh eat
FORM AT
PROPERT Y
c d
t ar
re nc
Ġl at
ĠS T
lay out
C ode
N E
ur al
Ġle ft
exec ute
Ro I
5 4
Ġp t
ex e
con nection
ĠP ool
Ġex port
j ust
o ff
al ing
Ġ[ (
er g
oc r
iv ed
VI S
event s
7 7
E PS
Ġc os
max imum
n an
0 6
w b
z one
ĠC lass
CO CO
Ent ry
0 33
Ġs mooth
Ġg en
Ġl ink
sh ift
ĠB asic
p a
15 2
Ġ fig
Ġm esh
um an
com pute
O n
ph et
IMAG E
per ations
WE IGHT
um mary
Ġd ummy
Ġval idate
case d
H TTP
en u
ĠD ocument
Ġw rapper
det ectron
Ġh ave
ĠD AT
arch itecture
uni que
## ##
avi er
w arnings
__ ))<
BU IL
liter als
A UT
Ġre set
Co co
U LE
ro gram
Ġr pn
Int eger
comm it
U UID
s parse
Ġ entry
P ol
f ter
m kdir
Ġre peat
b i
x x
col umns
2 000
Ġd s
f old
y d
Ġp air
Ġimg s
ING S
Ġen code
De vice
pan optic
an chor
row s
so le
Ġatt n
B ot
b il
ĠT rans
Ġp arent
Ġc y
of s
enc y
light ning
Ġt ree
ial s
WOR LD
A ST
F M
ĠR untimeError
renc y
Ġcol ors
by te
user name
Ser vice
Qu ery
C hoice
R et
Ġnum bers
VE L
termin istic
4 2
w av
over ride
BACK BON
D ense
al er
ched ule
ĠG PT
anc ed
Ġheat map
at ern
FI C
7 3
Ġre cord
In it
Ġbu cket
new ton
HEAD S
>'' '<
t a
get item
ĠB ox
Ġse nd
Multi ple
A Y
N N
n v
ĠA T
In stance
Ġch unk
Ġl ong
US ER
', ),<
co in
ĠD ep
ĠH TTP
user s
ĠĠĠĠĠĠĠĠĠĠĠĠĠĠĠĠĠĠĠĠĠĠĠĠ ĠĠĠĠ
ĠRe quest
g an
s imple
u uid
ub lish
re call
.. .
ĠC ON
num s
Ġe lement
d st
key points
ĠB ottleneck
F N
S ample
r pn
viron ment
ĠSt ring
Param s
st rain
Ġ: ]<
Class ifier
ĠTh read
SAM PL
V ector
ate way
IoU Assigner
indic ator
et un
Ġs y
AV AIL
Ġp ts
__ ,
MA SK
Ġpro pos
vis ible
Ġch ild
OR CH
require ments
Pre trained
struct ures
Train er
E AD
f inal
u a
Ġ edge
ĠP l
tem plates
Ġno ise
N OT
s ame
Ġpar t
S ession
ra per
ĠF ast
ST AGE
Data Parallel
Com ponent
fc n
GG ER
N ING
Ġh igh
Ġdo es
9 5
g ame
or n
ĠL inear
sp an
**** ****
sql ite
Ġcu da
Sync BN
S ource
in clude
pl atform
cont ract
LO AD
her o
PARAM ETER
P i
Ġ filters
__ ).
=[ ],<
ww w
c ot
e ff
m i
Ġm erge
ĠF orm
Ġ9 6
ĠPar am
V ENT
po ser
list dir
Ġdi git
Ġevalu ate
NotFound Error
m ar
Ġs upport
Ġ1 7
d ll
re st
mat mul
EM B
3 1
C oder
D OT
M in
l st
co ord
(" -
pri ce
re po
'] [
G ENER
in stall
ON G
Ġra di
pat tern
num el
Ġ] ),<
at tern
to pk
ĠI s
ST AT
Ġse c
lob al
L EN
() ))<
opt s
Ġback ward
ĠĠĠĠĠĠĠĠĠĠĠĠĠĠĠĠĠĠĠĠĠĠĠĠ ĠĠĠĠĠĠ
Ġaut h
3 8
C ES
V ersion
} :
( ?
sh ort
Ġpk g
=' ',
tol ist
c ell
un umeric
run ning
ĠKey Error
n amed
y b
Ġex it
iss ing
ĠLO SSES
N EL
et hod
OR Y
Ġdi visor
Ġ'../ ../../
pat ial
Ġprec ision
3 00
in valid
ĠD ET
Ġdi stributed
Data Loader
Ġmat rix
Ġpack age
W indow
\ \
co st
art ial
Ġch at
cor rect
TRANS FORM
T Y
ok up
FI EL
ISS ING
AVAIL ABLE
B Y
S cheduler
se conds
ul ation
ĠTo ken
embers hip
ro ll
Ġc lean
un it
IN IT
10 3
RES H
: .
n el
ĠD ESCRIPTOR
ĠG enerator
Ġmodule s
right ness
CHAN G
Ġc riterion
Ġex c
') ))<
ĠĠĠĠĠĠĠĠĠĠĠĠĠĠĠĠĠĠĠĠĠĠĠĠ ĠĠĠĠĠ
4 6
t te
Ġpre ds
Ġen gine
ĠPy thon
Str uct
x l
pu zzle
Ġpol y
i ant
Ġf older
0000 0000
wr iter
( ["
i con
annot ation
Normalize Tensor
ĠAl bert
Stage Detector
E C
c m
f ake
j np
m icro
di rection
Ġm u
Ġ12 3
Test s
Ad min
lo pe
di sp
ra st
pri vate
ĠTransform er
ay es
ale tte
hand lers
Ġd p
Model Output
feat s
time out
B LOCK
v ers
Pro gram
FEAT URE
] ['
Ġ+ <
pi pe
Ġmask s
P C
j ection
m ega
} '<
reg ion
76 8
str uction
Ġr ng
Ġcode cs
a e
h igh
to ol
end er
Ġsu ffix
B ATCH
Ġt r
Ġtime out
Ch art
m AP
m ote
le x
ĠAtt ribute
l anguage
Ġ3 20
Ġpass word
part ition
Ġdec ay
hrnet v
Ġo t
AT T
OUT PUT
p ublic
init ion
s afe
Ġin p
Ġunicode data
) ],<
L azy
c wd
re port
Ġn args
Ġstride s
Ġparameter ized
* .
A uth
O ps
h ance
t anh
ĠP I
Ġpl an
Ġg l
form ation
cor ator
help ers
", "
'] :<
ON E
app s
g re
l vis
s ing
res ources
"] :<
ch ors
it or
ma ch
Ġpol ygon
ĠCom mand
Ġst op
hist ory
Ġdisc ord
orig inal
BBox Coder
dle ware
T ABLE
up per
WOR D
A li
H AS
b r
o un
ad am
ent ic
len et
' s
6 9
L en
_ ()<
co cot
POS ITION
C allback
O M
S ingle
as cal
class ifier
PreTrain ing
4 5
G di
Ġt s
al k
() ):<
eg in
Cont rol
BBox Head
ĠPolygon Masks
cocot ools
den ce
lin en
table s
G HT
L INE
P ayload
bu iltin
ml ink
Multi Scale
Nt Gdi
ĠGener ic
s chem
re ward
Ġre size
Ġx ml
)) ))<
apt er
EMB ED
Ġl aunch
Ġser vice
Ġembed ding
NO DE
A I
M Y
c alled
m em
Ġfor ce
Ġpre v
={ '
k v
Ġp s
Ġc unumeric
py transform
sh uffle
() }<
Operator Converter
P LE
] ],<
ic ense
6 3
s mooth
Ġb ut
util ities
Ġwh ich
Ser ver
ent ries
St ore
ĠDec imal
ESET ARCHIVE
de eplab
Ġm ix
Ġde lete
act er
Bert Config
i ke
l ite
Ġ queue
ex ist
Ġbu ffer
read y
h ub
Ġn ames
ri e
ĠS e
Ġex ists
20 21
QU EST
Ġ #
ab ility
ast er
Ex ec
in ner
ifi ed
Ġpredict ion
Ġl inear
th eta
AT OR
Ġres ource
L AB
Ġ< <
C ESS
D o
ach er
mm cv
ĠAT en
A ll
~ ~
ann er
__( **
aim ing
O S
s os
trans action
Ġim plement
Ġqu ant
Ġcommand s
Ġthresh old
Multiple Choice
: ",
Ġt ar
CE LL
az on
orith m
D F
Ġt gt
Ġ' ,
Ġs in
CA CHE
> =
M apping
b ig
am azon
Ġb ayes
Ġcon stant
Con nection
Type dDict
LMHead Model
Ġ ray
st derr
pe x
Ġc p
Ġc ar
ce ived
itt or
\ .
] ["
g uild
u v
Ġm ango
ed ges
Ġa fter
MA IN
read er
Pl ugin
A C
P H
Ġin clude
ĠD ist
sem antic
B utton
C ell
t ick
ĠA sync
0 7
C UR
P ack
o led
Ġde que
Ġe in
xy xy
ian ce
ed u
ma c
ĠĠĠĠĠĠĠĠĠĠĠĠĠĠĠĠĠĠĠĠĠĠĠĠĠĠĠĠĠĠĠĠ ĠĠĠĠĠĠ
Ġzip file
ĠPY FUNCTYPE
0 8
Ġw e
Ġ{} '.
Up date
Result s
AU G
Coco Dataset
6 6
it ive
es is
Ġc ud
ex c
end s
Ġres idual
argument s
ition al
Ġorig inal
L ocal
W arning
s ur
Ġ rand
Ġp print
pro gress
Ġj ittor
Ġto pk
fix ed
block chain
For PreTraining
Token Classification
For TokenClassification
AP P
Basic Block
m strain
st ory
out s
Norm al
propos al
NOR M
t wo
ar x
Ġg enerator
Ġac count
Ġ19 2
O pen
Ġob s
rel ation
sy mlink
B l
ame m
Ġb est
Ġ- =
T ORCH
st ra
LO SS
WOR K
Ġbayes newton
J SON
or ed
or ical
com p
r al
de epcopy
it ter
Ġi p
lin space
2 7
A gent
S lot
f mt
s aved
se lection
Ġs low
Ġs ingle
Ġg pu
ac curacy
emp or
t iny
est im
ĠĠĠĠĠĠĠĠĠĠĠĠĠĠĠĠ ĠĠĠĠĠĠĠĠĠĠĠĠĠĠĠĠĠĠĠ
ĠE vent
TopDown Affine
b utton
r ule
Ġ items
pro c
map s
For MultipleChoice
TH RESH
egr ation
MultiScale Flip
a o
class ification
Ġres p
yd ra
9 8
M emory
Ġre st
lf unc
po wer
reg ex
A CE
S M
Ġd omain
Ġst ack
17 0
Ġinitial ize
Ġbet as
ĠPo int
x ception
Nt User
slot s
Ġm on
sec ret
f ra
} ".
val s
th is
ey e
By tes
b lob
de p
Ġs leep
Ġl imit
ĠD et
Ġcontext manager
f etch
p ing
s r
Ġd lfunc
ĠM SELoss
MultiScaleFlip Aug
predict ion
omet ry
basic Config
D Archives
Ġ dirname
ro u
ol low
Ġinter polation
amazon aws
P ES
v ol
Ġde lta
ĠH EAD
extract or
ĠNamed Tuple
9 4
_ .
s lope
Ġh yperparams
sc atter
I s
n py
Con ditional
d it
m igrations
s pell
x m
Ġf inal
co gn
pro d
sp at
Reg istry
ĠIn ter
G PT
i ate
or o
ĠS imple
per ature
Ġpath s
PRE FIX
ĠTrain er
/ %
inter mediate
Ex ample
Ġreg istry
VAL ID
VAL UE
} "
Ġf orm
om aly
mask ed
lic ate
ilt ins
Ġxy z
' \
Ġ ))<
Ġcom m
angle s
vert ices
B UT
Ġ }
se cond
Ġ2 10
hook s
sentence piece
N S
R PN
us al
Ġro und
Ġsent ence
x lm
en abled
miss ing
spat ial
X LM
b al
b efore
Rec ord
Long Tensor
V ideo
c ap
w iki
Ġ location
Ġ' {
Ġm emory
per iod
ock er
Ġch oices
unk nown
Ġsec ret
O rder
ces ses
overlap s
as array
PROPERTY CHANG
PROPERTYCHANG ESETARCHIVE
) }<
R out
t om
Ġ" {
ist ant
sh ip
erg ed
) /
in ed
Ġ2 5
if ar
Ġ/ =
EN ABLE
doc s
ve lo
prec ision
A ut
Ġdi rection
radi us
H params
v t
Ġre pr
res pon
Ġd raw
(" #
Ġ5 6
col s
lic ense
Se lf
vg Pool
Ġeps ilon
Cont ainer
C ur
I AL
m er
} _
Ġsh a
UR ATION
achine State
O I
R C
b lender
Ġ zero
id er
Com pose
Det ection
App lication
W eb
im pl
an y
trans lation
ĠOb servable
d cn
ap is
ĠA bstract
cont act
Ġsk image
Un ion
FIEL D
l an
Ġ empty
re ply
ens ure
atch er
t un
Ġ agent
Ġw in
ĠS ingle
if est
Ġco ord
SIZ ES
Ext ract
ĠDE FAULT
w arn
Ġin dent
() ]<
Ġco ords
iv en
C UDA
a ffine
c ss
PO ST
lat est
O LO
d raw
Ġ email
Ġs q
base name
att ributes
Ġch ex
ĠIn put
Ġsg lib
ho le
w t
ch ron
it es
il ar
Ġca ched
" },<
) ],
f rozen
n b
Ġp age
Ġs upported
ĠC ustom
sh a
AS SI
Ġpi xel
Le aky
Ġtask s
Ġseg ment
TOKEN IZER
categ ories
A p
g mail
Ġre port
ub e
ĠN orm
ark net
abs olute
Ġp h
dat es
ist ory
vi ous
__( *
Ġby te
Sc en
ĠQt Core
g radient
ct ime
Ġb efore
pi i
prec ated
P lease
s yn
ĠD ef
In valid
Se q
Bu ilder
ĠT ask
bind ings
C P
H andle
L ayout
S w
Ġ ur
Ġp c
pl ugins
point er
IT E
Ġter ra
a verage
ag ing
Ġnum ba
! ")<
Ġm ay
Ġl m
AR D
Ġv dk
Th read
( ['
L ine
m u
sc alar
Ġl ang
Ġcol lect
LE VEL
Ġfl atten
cur rency
call s
pat ter
PRO CESS
0 9
W h
con n
ĠD ump
conv s
ĠHEAD S
P ri
j ax
v en
ĠC UDA
ip her
Ġco st
FA IL
UN T
ĠFast API
al bert
transform ers
tr uth
vo id
4 00
F low
P r
W ID
de sc
Ġcon nect
Ġtensor s
split s
CT OR
={ <
Se arch
Cont ent
E P
L ike
Ġf lo
Ġg it
ĠT ime
ĠP er
inter polate
patter ns
f ul
Ġt rt
AS K
ĠH TT
Ġch ain
For Conditional
ffer ent
ForConditional Generation
Ġp lay
Ġf mt
ob i
Ġle arning
gener al
car di
TY PES
UR ES
P F
b ols
ar range
Ġi ss
is ual
async io
Ġ64 0
Ġma ze
ĠCO CO
O ption
r ins
Ġt emplate
Ġd cn
ĠE X
la ubert
multi ple
( \
X X
Ġ' %
ck oo
em antic
read lines
ress or
') [
ĠSt ate
Ġac curacy
P ort
rot ated
kit ti
inf os
G AN
V alueError
c riterion
y olo
sc all
Net V
typ ing
l ing
ran ges
Ġvis ual
pil er
deeplab v
h s
Ġ IN
ĠA r
Ġr v
FC BBoxHead
ĠDET ECTORS
: ])<
o id
em on
EMBED D
J ob
} ",
er c
le ar
arg max
Ġw riter
Ġpri or
nv ml
} {
de l
sert ion
ub ic
Ġpy cocotools
({ '
pri or
5 7
d uration
p ascal
Ġt rue
Ġc pu
val idate
ĠN um
ATE G
Ġerr no
R el
Ġm l
Ġ" #
Ġi aa
bu cket
Ġfl ag
ĠQ ue
f aces
Ġc k
sp aces
dent ials
vo ke
amem bert
obi lenet
et s
Ġg ot
pro vider
ĠM ock
not e
: \
g aussian
r u
Ġ ri
ob servation
"] ._
ĠX L
frame work
Ġuni que
M B
ul n
set s
Ġh ard
12 7
RA Y
AN G
la unch
G ET
S W
i or
Ġ ).
Ġ lower
fi dence
Ġc ore
AN CE
Ġreg ex
Ġpredict ions
Qu ant
M ULT
u dent
v ices
ass igner
Con f
Ġpy rogram
"] [
Leaky ReLU
< /
a int
am odule
ser ve
Ġ[ {
Ġ( -
ĠT X
is file
() ).
ĠB BOX
ide nt
iv ity
Co unt
squ are
+ =
b ones
p rompt
bo sity
rim ary
ear th
fin etun
M ark
di gest
Ġh params
sc an
Ġcon nection
per cent
Ġplan es
O ver
o v
RA W
Ġan chor
f ers
f ail
n ull
se qu
Ġs ampler
Ġarg ument
Ġvar iable
ĠDump ulator
earth stone
Ġn eed
__ ),
li fy
Ġa udio
det ails
SE LE
Inter face
Ġav ailable
C rossEntropyLoss
F ix
c x
s low
Ġm e
Ġh earthstone
Ġcol umn
ĠG roup
count s
length s
comple x
m ag
Ġ ),
in st
Ġi ds
Ġde pendencies
Ġse m
PE xception
CO D
Net work
fil led
Command Archive
Se lect
ĠPro cess
Ġrot ate
neg ative
h yperparams
m se
Ġp ip
ap shot
pro gram
ud o
Ġm id
pre sent
min imum
rel ative
Arg ument
ARG ET
Ali gn
T AB
it k
Ġd ot
ĠM ax
ĠM ISSING
T ENS
de s
lib rary
Ġtext wrap
Ġq iskit
Ġan s
Ġden se
ĠDAT ASET
(" _
th ing
AM E
level name
itmap Masks
B ottom
S ign
ro ker
Ġg ame
att ribute
row d
Ġwh en
ick er
CHAN NEL
POSITION AL
LAB EL
E valu
f b
ex clude
ĠCon t
Ġ20 48
Ġtim es
dev ices
b ic
m essages
in ary
ER Y
Ġ.. .<
UP PORT
Val idator
c ed
j s
n r
Ġt em
as ctime
Ġf rames
Ġl anguage
col lections
default s
trans fer
hash es
Ġcall back
Form er
Ġ ar
en g
Ġre d
Ġf req
ol ar
is y
Ġsh ort
Att ribute
lat ent
cy cle
2 80
S UB
S pellEntity
] *
c ifar
it ude
Ġp ower
Ġb ody
(" %
ĠS pellEntity
ac cess
Ġwor ker
sertion Error
f ocal
h ello
LI MIT
tra st
ĠPI PELINES
. )<
Ġm egatron
OR E
PT ION
CON F
fir dn
Ġcontain s
posit ory
Len gth
M AR
T EXT
} \
re verse
ers on
Ġw raps
ense mble
Ġlo sses
G aussian
ap er
ĠL abel
READ ME
rat ios
atern ion
W or
b ins
q a
Ġn ested
Ġh ome
ĠS ESSION
Ġ3 00
ra ys
pre v
ax es
checkpoint s
Ġtra cardi
DOC STRING
Py thon
4 9
batch norm
ENT RY
{} ".
Ġcre ated
D D
S imple
Ġd one
pro xy
ĠS ub
Reg ion
Im g
evalu ate
Ġper m
contain er
ĠPre trained
STYLE PROPERTYCHANGESETARCHIVE
Read er
difi ed
' }<
/ "<
o up
in a
se n
def orm
Ġ( {
Ġa pex
": "
pi ckle
Ġal ph
down sample
struct or
orig in
Ġtar file
C F
E W
h icle
te in
OL D
Ġnode s
spec ial
P en
con dition
cfg s
ET L
Ġ16 0
ĠRes ponse
CHECK POINT
ĠAuto Model
A IG
C RO
re vision
Ġover ride
ĠDep ends
L Y
en able
sub process
ach ines
bil inear
S Y
T k
Ġm edi
Ġs patial
per missions
DE VICE
) *
A IN
B uild
C RE
re qu
ul ated
ĠA dd
flo or
inter polation
Arg s
Enum Descriptor
Ġvar s
S QL
[ <
b art
al ity
ĠS QL
LO CAL
xy wh
empor ary
5 9
N ON
N ew
S UM
b le
m pty
Ġv ol
inter face
') ),<
rot ate
D raw
T EM
ur able
ĠT ra
env s
mb ic
cle ar
Ġbin ascii
D ep
o ot
r pc
x s
Ġt tk
ĠS w
LE D
Ġlib rary
EMBEDD INGS
ter m
Ġload er
Po se
En hance
ĠPro gram
Extract or
Bottom Up
c f
Ġt runc
an optic
Ġh elper
sh e
Ġst eps
pi p
ĠE nc
local host
Ġerror s
K e
v as
Ġp rompt
Ġc ap
Ġf ree
Ġe ach
Ġneg ative
free ze
T RA
cl uster
il ing
com ment
St orage
Ġsh ared
we en
regnet x
Aut hor
O ne
w allet
il y
ist ics
nt ax
CC ESS
Ġallow ed
B LE
v oxel
Ġm d
Ġh ex
ĠL ETL
Ġsc alar
Ġset attr
Po st
Ġdown sample
disc riminator
child ren
] (
p od
t re
20 48
vis ual
ĠV i
sw ap
ision Transformer
( ('
: `
T im
\ <
Ġ ;<
de ep
ĠP ost
ĠB ack
Ġpre pare
Ġcur r
Ġad min
D ate
Ġre ward
Ġin d
ĠC li
list s
A bstract
le ms
Ġp attern
Ġin ner
Ġst ar
PI PE
ĠSh ape
LAY ERS
AIG PT
b roadcast
h a
t p
as ure
Ġcon stants
OR DER
UL L
tmp dir
Pr imitive
3 7
b gr
n ative
p df
Ġ[ ],
Ġd nn
ĠL anguage
Ġtransform er
new axis
prop erties
ĠCh annel
H or
S mooth
U se
n i
r s
w i
se p
Ġ" )<
ĠB itmapMasks
Ġpre process
ca ched
bound ing
e lectra
m ember
Ġre arrange
AT ED
Ġex pan
Ġarg v
oo lean
Ġcalc ulate
j a
en ded
Ġp e
Ġ" {}
ue print
(' _
ĠG uild
cre ated
Bu ffer
ĠDi stributed
FAIL URE
A vgPool
R ep
h our
Ġ vi
Ġs chema
Ġin v
Ġa io
ĠA ct
ĠN amespace
Ch ange
Ġatt entions
Di rectory
track er
FIC ATION
ĠPretrained Config
_ %
ass istant
CH AR
EN C
ML P
Max IoUAssigner
operator s
R UN
=' ./
12 34
SE G
var iance
o peration
s ite
Ġ ET
Ġ' {}
Ġd ump
ri ver
ĠD ense
ĠE n
CO DER
ĠImage Ops
seg mentation
wrap pers
Inter action
Ġcam era
ĠParam eter
ĠDef ault
D K
Ġt ele
Ġre po
Ġparam wise
Ġadd ress
EXT RA
Ġbl ank
HR NET
d c
w ner
ra x
Ġf c
co ver
dis play
STYLE ARCHIVE
M y
b pe
le mbic
et her
el i
ver bose
Ġsh ell
Meta data
An chor
4 80
F ore
N amed
Ġcon current
Ġmm ocr
Ġexample s
Ġexec ute
Tra ck
On ly
L ight
b its
s li
qu ote
ĠA n
Pre diction
Adam W
P CK
et ree
un a
Ġdef orm
parser s
for ce
ĠĠĠĠĠĠĠĠĠĠĠĠĠĠĠĠĠĠĠĠĠĠĠĠĠĠĠĠĠĠĠĠ ĠĠ
var iant
Seg mentation
ĠTS DArchives
Ġradi us
b p
lo aded
fig ure
Ġ2 1
em achines
Ġcom ponent
tim es
LIC EN
ĠPl ugin
> >
e very
Ġt l
Ġt rim
Ġc ase
Res ource
Ġtim emachines
}/ {
variable s
Char Field
C lo
} '
in ception
Ġin stances
un et
ĠA s
ĠM obile
loc als
cat Dataset
Ġ7 68
names pace
dent ifier
bl ack
S U
ig moid
ĠL ayer
fer ences
Ġbot o
Ġinst alled
b c
Ġ' '
Ġa lembic
ĠF L
pu sh
hor izontal
ĠPy Qt
CA LE
dic ate
K NO
X Y
} '.
Ġn v
Ġs sl
Ġurl parse
Ġlo op
, '
A sync
S pace
v ing
an chors
Ġn e
Ġre al
un nel
RI GHT
SG BOT
Di stributed
Ġevalu ation
CM SGBOT
distil bert
WORLD STATE
HAS H
CMSGBOT WORLDSTATE
__ __
Ġc ategory
Ġ" %
Ġo perations
co ok
col late
40 96
UN D
stride s
ĠJ SON
ĠHTT PException
5 30
Ġs ystem
dat ed
Ġw andb
Ġh andler
Ġpar allel
Ġr cnn
tt k
fic ial
Ġpropos als
t ed
w idget
up lan
ĠG et
Ġpl ugin
") ]<
plot s
4 7
Ġm em
Ġg e
par ts
En gine
Ġein ops
f e
g y
g ray
at uration
Ġd y
ĠF eature
Ġdata base
Ġto ols
stribut ions
bin ed
shot s
f eed
t l
Ġ low
Ġo ption
Ġa verage
ĠB y
ver bosity
Ġex ception
Ġco co
Ġun it
fil er
Ex p
FEAT URES
f a
m ot
r st
Ġf name
up press
co very
RE D
Ġbu iltins
au x
De form
Enc oding
G rid
b et
g f
al ib
sh apes
Ġparse d
Util s
D CN
T emplate
f d
Ġc e
one ofs
io us
32 0
Ġdat aloader
PI PELINES
Ġobj ax
Py Torch
Ġsum mary
calc ulator
} }<
Ġ fill
Ġp rimary
ts v
man y
position s
f r
g z
s ion
t gt
Ġf etch
li k
ĠA CT
ĠCom pose
xm ert
W ITH
s upported
ĠD PR
ff t
St ep
rop Path
Ġcom ple
du cer
trans late
Ġclass ification
ĠIn dex
phet Net
G PU
R F
od ers
Con trast
Ġdim s
ĠW eb
exp r
OC R
AND LE
F ont
b t
t runc
an alysis
Ġs pace
base d
ĠM igration
=[ (
ces sed
fir m
sm pl
Ġdoc ument
micro soft
ĠAr ray
6 7
> "
j or
ut c
Ġp in
=' +
ĠB art
CON V
Ġ"" ",<
ĠCol or
I A
d path
d pr
im es
Ġo ps
ic orn
ĠP R
ure d
ject ory
iter ator
Ġ[' _
Ġstat s
esc ape
C LO
U ST
g s
n est
li dar
"" "
Ġglob als
Ġrot ation
MOD ULE
thread s
Ġsm all
Widget s
C re
T ag
f fic
r upt
er m
Ġre ason
Ġf h
Ġw s
ĠP os
Ġdi stance
cre ment
Ġover load
real path
- {
X ML
s lice
le s
PO OL
vect ors
dam age
Ac count
C allable
E val
T ARGET
el ine
Ġs ame
Ġg c
Ġg elu
add on
ST ER
ash board
PRO JECT
Ġclo se
Ġvert ices
ilar ity
re cv
Ġg o
Ġh ydra
ĠP artial
ug h
format ter
Ġuser name
allen ge
G P
M ESS
Ġre q
Ġo ks
sh ard
per ms
art icle
jo int
Ġpro file
ile stone
RI BUT
ĠPath Manager
80 80
ish ed
HO ME
S emantic
in voke
ar p
le v
al ized
Ġm isc
Ġg ain
PO CH
Ġfin ally
g res
p ct
ar ies
di ce
Ġr l
64 0
LO B
seg ments
Ġtx info
F ailed
Y ou
Ġ vec
import s
ro ke
Ġm apping
loss al
ho od
environ ment
Input s
Ġpack ages
Ġter m
diction ary
AUT H
" /
: ',
i pe
ch art
Ġb enchmark
Ġg s
Ġst andard
ĠB N
Ġcom poser
tt p
iss ue
Ġper iod
generator s
ĠXL Net
8 5
B art
dict s
ĠT he
qu ad
Ġcol late
Ġ* ,
HO ST
n ake
Ġs imple
ang ed
Ġdist utils
ĠABC Meta
Ġdec imal
O peration
h uman
t ile
Ġp en
Ġs izes
Pre pend
multi processing
SER IES
ar ds
an el
ĠC heck
Ġimage io
Ġhead er
const ra
ĠMeta data
M I
W H
W R
b egin
m obilenet
r it
im read
in c
as is
Ġf ollow
Ġin ds
EN V
det ail
initial ize
predict or
parent s
dri ve
Ġcud nn
vi e
ĠO ptimizer
OR D
Lo ck
ĠCon text
MODEL S
11 11
OB JECT
: ],
S p
f alse
k l
r as
Ġ ensure
in verse
Ġt ags
and mark
ss l
AT ORS
ĠR et
scri be
weight ed
DI S
Ġsu ccess
element s
5 2
Ġm aster
is dir
ĠL ong
tt y
SE Q
Ġ7 2
request s
gener ation
do uble
COL UM
Ro le
dri ver
LAY ER
asy Dict
h older
l ator
im show
Ġm pu
Module List
ĠH ero
DI CT
Ġext ensions
Arg uments
Ġhead s
Ġ". /
, -
C all
M AT
o ul
de terministic
Ġs ort
Ġw b
he e
Ġv oxel
detection s
Ġaio http
Ġt y
pro ps
AR RAY
Set tings
ADD R
lossal ai
C enter
D ES
z h
on al
len d
if f
ĠR el
Ġu v
ise ct
[:, :,
batch es
8 00
O ffset
p ub
ol ds
bo w
Log its
Col lection
Ke ys
S oft
Ġm ore
ge ometry
CO UNT
UT ION
UR CE
sym bols
CONFIG URATION
ocal Loss
emo ji
ĠQue ue
A nd
S u
c um
Ġf allback
ul k
.. .")<
DE X
parse d
Ġen able
ĠE fficient
CT RL
ft ime
40 4
Train ing
Ġhttp x
/ ",
B ar
E POCH
G ui
S V
us age
Ġth eta
cor ds
Ġjo ints
DO WN
Ġepoch s
ĠDist il
CUR R
t w
al t
ag ua
ent s
pre process
col lect
code s
attr s
DI M
Gener ate
Rout er
w atch
in ate
ĠI O
Ġdi ag
cur s
Iter ator
Ġsem antic
7 21
M igration
g ain
on ce
Ġn d
Ġm erged
Ġs ync
Ġs ources
Ġst ore
os ine
eat ures
char acter
Ġblock s
host name
> \
H elper
H ello
q t
ut ure
IN ST
ĠL e
proto col
Ġpo oled
h yp
y ear
Ġg i
Ġa ffine
ĠD is
EN G
cur sor
ĠType dDict
pr imitive
Pool ing
Ġhome assistant
+ )
. ):<
Ġ" ")<
Ġg aussian
eps ilon
ĠSt at
KEY POINT
Vi T
long former
posit ive
k ern
p alette
de lay
ve hicle
ĠD ummy
ĠG PU
Trans pose
ummary Writer
9 2
m ing
ar ian
ing est
Ġg uild
Ġg zip
Ġd x
og ram
Ġk aiming
Ġ: -
ac s
view s
ix el
]) ))<
Re peat
dis able
Ġfn match
ĠSc ale
Pol icy
A x
d w
r strip
Ġ fix
Ġre ference
Ġpro p
ĠN et
te acher
Ġstd out
SS Archives
Sc an
Ro ot
Ġre ct
res olution
nn x
[: :-
Ġco lossalai
Ġconfig s
send line
CHART SERIES
Ġ'../../../ _
e in
Ġ' "
Ġb ert
ĠT im
Ġh yp
Ġl ab
seg m
window s
medi a
C ATEG
b ottom
f ore
h p
n lp
le aky
ad apt
Ġw as
CH ED
Ġarg uments
Ġcom p
ĠĠĠĠĠĠĠĠĠĠĠĠĠĠĠĠĠĠĠĠĠĠĠĠĠĠĠĠĠĠĠĠ ĠĠĠĠ
doc uments
Ġq kv
evalu ator
Un known
Ġat ol
Ġps util
Ġdnn lib
eli hood
I f
al ty
po ses
ver ity
Ġmethod s
requ ency
ĠShape Spec
Ġ Error
di a
=" /
Ġdi stribution
ĠN ode
ms ra
LI P
mark down
row ser
Ġtim estamp
Adapt er
day s
. ),<
> {
S ent
Ġin f
od oc
IN S
ĠB lock
fo XL
method s
map per
0000 00
ME M
tim er
NUM B
Ġbin ary
Ca usal
Back end
Ġck pt
C R
O F
O r
re v
di fy
Ġw ait
Ġra ys
CO S
LO GGER
Po ints
Ġet na
f u
m el
Ġ ep
str ategy
Ġde sc
Ġimg aug
Ġpro bs
") ),<
Ġscale s
Ġreg ion
SS L
serv ices
Seg ment
Adapt ive
t z
re ference
as us
di stributions
con sole
sc reen
get attr
ron g
ĠĠĠĠĠĠĠĠĠĠĠĠĠĠĠĠĠĠĠĠĠĠĠĠĠĠĠĠĠĠĠĠ ĠĠĠĠĠĠĠĠĠĠĠĠĠĠĠĠ
oth esis
Element Tree
SAM PLE
WAR NING
BACKBON ES
Ġ amp
Ġs ide
Ġo mega
str ftime
back ground
mo ves
Ġun ion
") [
DAT E
wh en
IM G
ENABLE D
F ace
G lobal
n ested
} ]
Ġc ut
end or
eg o
col lection
20 20
ron t
non zero
Que ue
mid dleware
ĠBatch Norm
WID TH
F ine
S ystem
in o
Ġb isect
(' %
Ġde corator
Ġe asy
tensor board
scale d
Se lection
pan el
Dec imal
augment ers
Ca che
Ref er
) "<
C V
M eter
Ġx avier
Config uration
ĠG raph
det ect
Ġrun ning
Register EnumDescriptor
DET ECTORS
ĠXLM Roberta
' /
9 7
I V
` `
or ient
Ġf used
Ġr at
Ġch ange
FF FF
serial ize
rie ve
C l
g ate
h m
p d
s dk
ĠM ask
Ġth an
Ġval idation
Ġch oice
Ġdim ension
, ))<
G uild
L ONG
M ethod
S CALE
p x
r ation
s z
s ink
de mo
Ġse cond
sw ers
isc ale
TH ON
Auto Model
5 1
F ull
I dentity
Ġ amount
from array
dat er
', )<
Ġb ottom
fut ures
Ġclass ifier
sy scall
ĠAttribute Error
b ad
c nt
m c
Ġcon n
Ġst orage
ĠR E
Po inter
BACKBON E
COD ERS
8 1
: {
a ubert
v q
x c
de pendencies
ra g
Ġb ar
Ġb asic
Ġw allet
co v
pro duct
OR AGE
oc us
RE MO
fl aubert
Type Error
cos ine
DO MAIN
M ain
i ver
Ġn uplan
Ġin to
ĠR un
Ġen n
unt il
back bones
Ġ4 2
ĠE asyDict
)) ]<
ott le
Ġver ify
OPT IM
pipe lines
edu ce
ĠPR ETRAINED
B BOX
T ASK
V ec
b g
al i
un its
Ġd m
ĠS H
oc ation
Ġe lem
In formation
sign ature
Ġsql model
Add ress
Ġrel ative
leg end
Ġaug ment
, )
d one
l im
o om
el ery
log ical
ext ernal
CE PTION
Ġcont rast
Ġob servation
ne e
case s
ĠLog ger
IF AR
D isc
S m
Ġcont rol
ach ment
INT EG
VI SI
P AN
S um
T emporary
se mble
re ci
ro y
di git
Ġs ampling
(" [
Ġcon cat
ĠB l
Ġpro c
cur ve
idx s
Pre dict
ATION S
IG H
ĠTh is
olar ize
_ )<
Ġ erc
ch o
Ġc ross
ce il
add Handler
ĠS ummaryWriter
len code
ĠO S
Ġv it
Ġdi sp
PE G
Ġor d
aut odoc
De ep
ĠOb ject
I R
Ġin ception
ht c
ĠM in
ric es
open ai
aug mentation
yn chron
Ġcheckpoint s
cre ts
ĠZ w
ĠCli Runner
" })<
B E
l sp
st rap
Ġs aved
Ġs uppress
ĠF airseq
qu at
ve cs
ĠE lectra
work space
ĠEx t
ĠIn valid
Ġcur sor
Rot ation
4 1
ĠD ropPath
Ġpy game
db script
prefix ed
be am
Ġrat ios
) ")<
N on
g orithm
re mote
ra se
arg in
Ġg radient
ase s
ine se
ĠP roperty
ĠR ec
Ġ4 8
are st
Ġsig moid
ĠDe ep
omet imes
ĠSQL Model
D ocument
x avier
at rix
if ts
Ġ5 00
Ġuser s
VI CES
anc el
orith ms
DOT A
mach ine
Ġfree ze
H elp
P RI
h ard
m peg
ro sa
Ġre c
Ġf s
ĠF laubert
ert s
ĠM sg
ĠE mbed
ĠU p
RO M
select ed
ĠFl ask
ĠMetadata Catalog
P ass
W IN
f cos
g u
v endor
ct r
ĠB e
sw ish
De lete
Ġtrans late
RAN K
C I
M sg
R ect
R AT
w mt
Ġ age
Ġl in
Ġj t
mo ji
transform ation
ifi ers
stra int
ĠLong former
M ON
R ange
S ec
U RI
Ġb itmap
int el
ĠT SSArchives
(' ./
ĠC TR
ip s
ps ample
For Causal
exp ans
EX EC
Im port
hot o
Ġscen e
WEIGHT S
Struct ure
n amedtuple
s age
ro id
Ġn ow
def ined
Ġf ailed
Con dition
MA N
AL LE
token ize
lic it
Ġcolor ed
ĠCTR L
expans ion
U CT
h w
i re
se ss
di stribution
dat amodule
ĠT emplate
ER ARCHIVE
Ġch ia
UL ES
Sh ape
select or
Ġrow s
dep loy
rou ped
L S
i rc
s nowflake
ort ion
cl u
ĠA P
ang es
IT EM
pol ys
Ġup grade
Ġqu ote
Ġimplement ation
ForCausal LM
M ean
N amespace
h avi
vi ded
ĠG ateway
Random Crop
ĠRes ult
ĠTF Roberta
rins ics
W eight
Ġp op
Ġs chedule
Ġ" [
res sed
ri er
end point
'] ))<
ĠM AX
Ġpro gram
ĠCon nection
Ex port
({ <
As sertionError
Ġtem perature
/ ',
F OL
l ations
z y
di sk
Ġf on
id ue
val idator
Con stant
ape x
bu st
DE VENT
Ġan swer
Ġfeat s
post s
Un i
track ing
Ġorig in
BUIL DEVENT
C ategory
D Y
h ing
Ġc pp
ab stract
Ġde terministic
Ġse p
PRO TO
mn li
fun ctools
l ace
de g
Ġp wn
he ar
end ing
context manager
Max Pool
DET AIL
ublish er
- >
O W
v ot
Ġ $
Ġb b
Ġd gl
ĠP ri
pre processing
com pose
Ġe qu
)) [
ĠĠĠĠĠĠĠĠĠĠĠĠĠĠĠĠĠĠĠĠĠĠĠĠĠĠĠĠĠĠĠĠ ĠĠĠĠĠĠĠĠĠĠĠĠĠ
UM MY
RAN GE
= ("
F eatures
R S
R ON
R ow
ch oices
Ġre call
ys ql
ĠO ut
wait able
find all
EXT ENS
ĠQu ant
#### ####
Bl ur
S igmoid
e led
Ġ ~
Ġ vector
de let
ar se
ab et
ir ds
sens us
9 3
D el
l ane
se e
ĠC OL
ter ra
ĠBert Config
job s
Ġnext cord
Per mission
aggreg ate
dll method
mer ges
> #
M D
b ird
f used
m ut
Ġb it
Ġde tection
ĠM achineState
AR E
det s
yb irds
Ġtrim esh
H ash
i er
Ġh p
ĠL icense
Ġmm seg
fl int
Ġopt s
ud it
Ġsql ite
agent s
Ġcar la
ĠDet ection
L F
N G
U D
n itude
v ae
Ġc allable
Ġb order
ER E
ĠN ew
mean s
Ġdet ails
US D
SH A
mn ist
ĠDATASET S
L ES
S plit
j peg
k ip
en o
Ġc ent
Ġc ard
pt r
set default
Ġx s
ign Key
LE FT
join path
Ġdis play
Ġdest ination
h at
m pii
Ġt ow
cl vm
ST RO
mat plotlib
TO P
Ġexp and
ĠInt eger
ĠBy tes
w raps
ch r
lo it
ad v
Ġb ranch
Ġ_ <
Ġde v
ĠG lobal
File Handler
assert True
Ġassign er
Ġscen ario
relation ship
" }
= %
D RAW
M ember
P ASS
Ġs ur
un ds
init e
ĠC or
ĠA p
ĠB ERT
Ġex pr
scale s
Ġweight ed
cat alog
PO SE
G l
w alk
Ġs parse
ĠImage Enhance
ĠQ iskit
hash cat
Ġmulti ple
stant iate
SER VICE
KNO WN
curs ive
Ġm issing
un ic
bu s
ĠI D
Ġres olution
ml m
arm er
SE ED
Ġper form
link s
font Tools
Ġ""" \<
ĠClass Var
cogn ition
D RO
F unc
F ocalLoss
P ACK
in fer
Ġcon dition
Ġ3 4
Ġpro duct
ide ntity
Ġconfig parser
min i
fl are
transform ed
normal ized
Ser ies
Ġlib rosa
release s
STAT US
C lip
E d
b undle
t pu
Ġt wo
ex og
ĠT EST
ri ve
ĠA ction
AT A
ĠR ot
text ure
iter ation
ĠDataset Catalog
SER VER
Ġsy ntax
B IC
F RA
O FF
in dent
ad j
Ġg round
Ġy olo
Ġtime zone
Ġ4 00
ĠV al
Ġq vec
Ġclass name
ak es
Sh ared
bit map
callback s
CLI P
M PL
p ast
p run
se par
an omaly
di fferent
Ġg iven
Ġ( [
ction ary
ĠS cheduler
get cwd
conv ersion
cent ers
dd p
Ġri ch
/ *
G T
M obile
S ide
S UPPORT
t cp
er ator
Ġs ome
Ġun pack
IT S
ĠUn i
SE C
SI GN
hor n
post er
sw in
aw n
Ġgener ated
Pos ition
lender bot
rig ger
Ġsym bol
Evalu ator
) **
B ig
G O
V AR
g i
g its
y ml
Ġ emb
al ph
Ġn x
split ext
Ġ12 7
Ġwor ds
PL Y
Sh ar
scen ario
Fix ed
R ATE
S ometimes
re nd
st uff
ing er
DE VICES
ĠB ACK
REG EX
PAR ALLE
Ġ>> >
RoI Head
ĠBasic Block
Ġomega conf
> "<
C D
I nc
V isual
d x
k pi
Ġt k
cl ar
Ġw here
ĠS ample
Ġsh ard
Ġapp s
bind ing
Ġsq rt
Named Tuple
G radient
f an
m oment
Ġm kdir
ĠT FA
ĠS ystem
ĠM M
Ġr t
12 0
Ġen vironment
vert ex
dot a
Di stribution
comple te
ĠEnc oder
Ġtow hee
> '
M embership
Ġm achine
Ġg ather
Ġim p
man ifest
vide os
ĠCom ponent
gl ue
Ret urn
A F
E MA
E VAL
H IGH
M SG
P art
m enu
o ard
Ġs n
=' /
ĠF ore
ĠM ethod
CH OR
ci rc
Ġman y
allen ai
F older
P aint
se nder
Ġre ader
pre pare
us ic
ĠW or
tri al
Fl ax
CLI ENT
C AM
N IST
g ym
am fer
Ġdict ion
ke yp
plan e
tim m
utor ial
sn apshot
Ġlat ent
R T
S RC
d y
f ee
g reen
lo okup
res p
po le
len s
Ġtext flint
of ficial
ud y
pool ing
Ġwindow s
ĠTS Dataset
pod s
7 1
A gg
L icense
e ig
n li
re te
de cor
ys on
Ġstr ict
Ġex periment
np z
Ġ4 80
([ ])<
cv t
script s
ĠĠĠĠĠĠĠĠĠĠĠĠĠĠĠĠĠĠĠĠĠĠĠĠĠĠĠĠĠĠĠĠ ĠĠĠĠĠĠĠ
ref resh
patch es
enum s
cy wh
schem as
sli de
D oc
e aling
u it
Ġn amespace
Ġre mote
ĠC enter
Ġpro vide
ib ility
with out
inter section
Ġmult iscale
CHANNEL S
F LO
y cb
ĠF used
ast ic
Ġ{} ,
CA Y
ram id
Lazy Module
VISI BLE
F ree
T C
h ass
se udo
ar row
Ġs r
Ġh and
10 2
Ġe Error
Ġse par
lin ux
Ġinter section
Ġatt ribute
Ġobject s
}) '<
ĠTrain ing
v c
Ġc lear
Ġs l
Ġ" ",
ĠC amembert
ps p
dis covery
domain s
Ġrel u
PY THON
. ",
M e
M od
i ation
Ġp r
Ġa ccess
ĠS ign
'] )
met as
Ġmm pose
Ġpi pe
sk ater
ĠOpen AIGPT
H Y
S CHED
p ag
or ator
im iter
up licate
pi x
Ġaction s
sg i
Ġlay out
Ġnormal ized
Ġevalu ator
war ds
Ġvisual ize
MESS AGE
' ))
B GR
s ol
Ġ2 7
key point
pr im
thr s
99 99
eff ect
" ))
s ock
res idual
to k
sh are
if ul
com piler
ind ing
cont rast
Ġfl ybirds
aut iful
Ġpl ugins
ins pect
tem on
ĠConfig uration
Ġat om
FIL L
gra ds
proj ection
Ġdisc riminator
Ġcu ckoo
BUIL D
entic ation
) +
. "
8 000
C annot
c rowd
al anced
Ġb utton
to ur
ĠS parse
config ure
() ])<
Ġex clude
AN T
ym bol
mode s
Ġcl uster
Ġpad ded
network s
quant ization
Dist il
ĠCON FIG
E VENT
f ed
w hole
st ories
Ġw ant
ĠP i
he at
ff n
Ġse arx
RE F
ac ing
Ġpo ster
Ġdist ar
sub set
ĠSt r
sign als
mt ree
Down load
way s
Ġfi d
ATT RIBUT
schem e
Exec utor
ĠBytes IO
) \
A K
b and
} ",<
ur ing
log y
Ġde precated
url lib
Ġco in
RE AM
Ġsc atter
SE QU
sk i
Command Archives
su ite
optim izers
Ġflip ped
ĠPro tocol
BERT A
war p
cx cywh
8 2
R ule
S chedule
c ert
u c
Ġs afe
Ġf g
IN DEX
ĠA dam
num bers
ĠM o
us ing
EN CODER
DI ST
DI RE
AG ES
cre dentials
vert ed
Ġap prox
cr it
Ġce il
Ġrl structures
/ <
] :
f path
p in
w andb
re pository
(' ../
ĠA d
Ġpre vious
Ġcopy file
ateg orical
optim ize
Check pointer
(? :
keyp atch
D at
E B
H yper
P IL
V GG
er ial
Ġp a
__ ":
fi d
Ġ' ..
ul a
Con catDataset
Ġpy lsp
Ġpro to
cor r
Ġdepth s
squeeze bert
inal ity
Ġserial izers
Ġqu at
Ġsign ature
Aug mentation
SA CTION
Ġden om
FAILURE DETAIL
sendline after
Refer ence
T ST
T ypes
g ot
Ġs itk
un used
sc raper
sh ell
20 19
Ġro le
tra de
func s
De code
Ġstat ic
rid ge
linen o
THRESH OLD
ĠBACK BON
8 9
B oolean
_ ):<
Ġp id
Ġg old
ĠT op
Ġst derr
fl ush
Com mon
Bert Tokenizer
Un it
gener ic
sl ug
GE LU
Ġview s
ĠAPI Router
Ġtri al
CURR ENT
RAT IO
* (
R ate
s ix
from file
Ġs qu
ĠF or
Ġcon st
Ġfl ush
Ġlog s
Le arn
36 0
Ġevent s
align ed
Aug ment
Act ivation
asset s
SAMPL ER
D PR
F P
r nn
t d
x path
de corator
an swers
ad ow
Ġg ra
ist ent
ann ing
ĠO perator
ĠM LP
() ),
Ġdi rect
ac ity
sub ject
ĠRes ource
../../ ../../
View Set
ĠLO G
ĠAuto Tokenizer
Ġshift ed
NtGdi D
k ind
en denc
Ġd ynamic
ĠP O
ĠM etric
Ġ. _
Ġpro tein
Ġmask rcnn
copy right
Ġscale d
mm det
CLO SE
6 1
a isy
p ot
r f
or er
it on
arg parse
py sc
ĠT orch
Ġh alf
ĠL ayout
he el
out ine
MA LL
RE E
RE EN
ug gest
20 15
Pro vider
') [-
ĠĠĠĠĠĠĠĠĠĠĠĠĠĠĠĠĠĠĠĠĠĠĠĠĠĠĠĠĠĠĠĠ ĠĠĠĠĠĠĠĠ
IES ARCHIVE
prox MaxIoUAssigner
FOL DER
O WN
S L
T ri
U ns
d ocker
p ages
at en
an p
Ġf actory
Ġ1 20
set ting
ap s
Ġh ass
co ef
Ġde p
ĠA verage
Ġpar ts
ET E
ject or
ĠU RL
Ġle g
Encoder Decoder
}. {
MET HO
fra ction
ĠNum ber
Ġ'' '<
LOB AL
Ġfon temon
4 3
9 1
D P
D im
l b
t b
ro ugh
Ġm n
un icode
ann o
ĠV OC
CL ASSI
Optimizer Hook
Do uble
LICEN SE
STRO KE
Ġdiction ary
psp net
L ET
M id
S N
ch s
Ġp anoptic
el ist
ma jor
pre train
DE CAY
AR Y
att ed
iter ations
Ġbase name
Ġlr u
calc ulate
A t
I ME
M atch
O pt
l g
on ic
ab ase
Ġh ist
ĠF unnel
=" ",
Ġ. /
CK S
cal ib
ĠBert Tokenizer
Ġspec ific
Ġpropos al
tom ic
+ +
F airseq
] ])
h d
se ct
ar i
Ġs chem
Ġstr ategy
Ġget Logger
iter able
mo ved
gt Fine
Ġdown grade
igh b
MET A
DEN TI
finetun ed
+ ]
6 2
> `
P air
Y OLO
at ic
di date
ener gy
ph rase
Ġset ting
") (
Ġopt una
trans fers
Ġact ive
Ġkeep dims
Att ributes
ĠLO GGER
By te
GENER ATOR
Hor izontal
= ='
H as
j ava
Ġm x
el if
Ġb rightness
IN CEPTION
get ter
ub er
com e
ac ross
Ġcom pare
Ġval idator
DI O
post gres
kernel s
Enum Value
IC AL
bl ur
SA VE
Ġselect ed
Ġbet ween
rule s
bic ubic
= ""
N ER
n f
o ptional
ex pi
ul um
par able
.. .')<
ph ase
av ing
Ġal ready
Var iable
exec utable
medi um
Ġposition al
rat ic
Generate Target
Ġp p
Ġm ember
un pack
ul i
att entions
Ġco unter
Ġpro cesses
mark et
af old
Map per
Dist ortion
' (
) -
= ('
C osine
D R
st udent
as ing
am era
Ġre direct
Ġl g
ĠA N
act ual
Ġse conds
ean ie
Ġwith out
te am
rt d
Ġ40 96
Pos itional
ĠModule NotFoundError
Ġwrap ped
TIME OUT
override s
~~ ~~
SELE CTION
S ocket
S oup
v uln
Ġ ^
at ers
ch ans
up sample
Ġy acs
filter ed
Ġconvert ed
Ġpack aging
Val ues
SO URCE
PARALLE L
( ",
E mpty
P EN
P hoto
U sage
d la
m embers
w sgi
al ias
is o
ĠP RO
Ġdi v
mo st
Ġpro tocol
([ -
Ġthe se
ĠDict Config
mon go
Ġlo aded
Wh ether
autiful Soup
/ '
M atrix
P age
P artial
c ro
u ses
Ġ edit
st roke
Ġp ast
ab il
00 5
Ġ3 3
Ġnot e
eg asus
PT H
Ġser vices
bl ank
alg orithm
ĠApp lication
W ord
a py
Ġ episode
re name
Ġ' )<
ad just
str ict
DE D
ST ORAGE
eg acy
Ġmax imum
ec a
Ġq id
red un
TEST ING
Ġdis nake
experiment al
================ ================
AUT O
Ġpart ition
Ġred un
Sent ence
D UMMY
F n
R emo
m obile
Ġ' ')<
Ġf old
ĠC a
Ġpro j
ĠV ideo
{} '.
AA AA
Ġlat est
Ġgl yph
F X
L AT
P P
P rop
ch inese
Ġre ceived
Ġc dll
Ġo wner
co g
ri ption
Ġe fficient
idat ors
User Factory
be v
Ġup firdn
SK AT
ĠQt Widgets
Fl ags
control ler
ĠSe lect
OI CE
yolo v
CRE ATE
L imit
] ))
Ġre lease
Ġ" $
ĠL ocal
ĠDict Action
AN ET
Ġmask ed
uto ff
plement ation
sign ed
Str ategy
RES NET
Start Object
C ascade
F S
L ocation
R educe
um b
Ġb g
Ġb roadcast
=' ../../../../
up load
ĠN UM
ĠG aussian
AD ER
]) [
Ġad j
QU ERY
Ġur lencode
ĠBe autifulSoup
B ird
D ir
L ink
d types
f ns
i j
Ġm ag
Ġo ff
un ct
id a
ĠD C
reg ression
tensor flow
Ġload s
ts ch
Head er
lt k
ĠTF Bert
ĠPy torch
optim ization
vid ers
OP EN
INPUT S
MET RI
export er
ĠQu ery
End Object
ident ifier
EXTENS IONS
U G
p et
in ates
er ies
Ġg in
Ġh istory
Ġd pi
ĠR OI
Ġtensor board
LO SSES
ne arest
exp ression
LU E
Ġpol ys
serv ations
Param eters
Ġsplit s
Ġad just
cy thon
pend s
ĠLo ader
ITH UB
vol ume
present ation
Predict or
SKAT ERS
B IL
L ANG
b all
e lf
o perations
am ily
Ġp ush
Ġs ock
ow ski
ĠI dentity
Ġe od
ĠN e
Ġfile path
"] )
Ġbatch ed
pk g
tim eline
200 7
QU I
Ġinitial izer
scen es
contain s
Program ming
5 000
: ")<
] {
b rowser
f ocus
t or
w ide
lo ut
Ġc map
Ġc annot
Ġs phinx
em ote
IN ANET
bo ot
ĠS eg
ĠS oft
Ġst ages
pen alty
eps peed
Ġat exit
CONT EXT
Ġli k
ific ate
RET INANET
Pi peline
UST OM
reci pe
cvt Color
. '<
I dentifier
P lot
S im
_ |
b old
g p
l v
l andmark
y e
Ġ light
st andard
ct ypes
Ġ< /
Ġe dict
ĠE mail
(( -
Ġq t
Ġpos itive
enc rypt
Le arning
Ġup sample
full y
decor ators
> -
C G
R ed
U rl
o od
v a
re cords
ut ter
data frame
Ġw ay
init orch
ff ect
() ),<
dim ension
St ory
Ġconfig urable
ĠH ANDLE
gt s
Ġbe en
iss ues
Ġ] ))<
Sc aler
bl ue
ĠPre Train
pendenc y
extend able
LEN G
Window s
ĠMax IoUAssigner
Soft max
EnumValue Descriptor
X EL
s d
} ',
} _{
Ġm c
Ġc ell
Ġf a
', )),<
ul ner
set Formatter
em pt
ĠC allback
Ġr ule
ĠB ot
ĠG ym
Ġup per
RES ET
Ġone ofs
Ġnv flare
NtGdiD d
B I
C ENT
G ITHUB
M on
N T
\ '
h om
Ġ ag
def inition
__ ,<
Ġ" ".
Ġb its
ss im
=[ ],
Ġ.. ..
Pro xy
EST YLE
Sc ript
disc ord
Ġclo ud
Init ial
ĠLayer Norm
LENG TH
L AR
e os
re ason
an im
ce iver
con fidence
ig ger
Ġh e
Ġx m
Ġl xml
Ġ{ {
ĠL i
Ġget pass
Ġsc raper
ĠN OT
Ġ% .
ĠH ttp
tx info
ink owski
Co py
UB IC
Ġencode d
MAR K
S uper
V ID
r w
Ġ em
int egr
Ġd uration
pl ayer
Ġcv pods
mon th
Ġpo ses
Field Descriptor
idation Error
yb rid
tre es
WIN DO
U I
c ard
p ic
p itch
t rt
Ġs aturation
Ġi dentity
data dir
Ġ1 80
od b
ĠN ested
split lines
ual ity
Reg ressor
ak er
wo StageDetector
Ġlength s
Ġarch itecture
Ġpk l
******** ********
cum sum
NUMB ER
Membership Factory
> ',
C LU
G L
t ion
ro tt
ct est
Ġc alled
con structor
ĠC FUNCTYPE
Ġx x
ĠB uild
mo use
Ġun its
DAT AB
mb art
Key board
lm db
ĠCo in
Ġquery set
acc um
Ġwe ak
tsch chart
D river
h u
in planes
de precated
ur u
ck s
ĠA c
Ġ3 1
EN AME
fil t
Re qui
no st
Ġan p
Ġsp aces
diag ram
distil led
Ġbucket s
Ġ'../../../ ../
mega Conf
tool kit
Repeat Dataset
havi or
A E
B IN
M edi
S l
W P
] "
s ources
Ġt w
Ġf it
one of
ma ze
ma ker
Ġl am
bo unds
ĠS queeze
ER O
ĠM E
DE PTH
Ġco ok
Ġsc an
fl ash
LI B
ĠData Frame
normal ization
Co uld
wrap ped
ARG S
Back bone
aggreg ation
Metric Distortion
8 7
A pi
C an
V isionTransformer
] /
a ive
h q
m embership
Ġn amed
ut ation
ut down
ĠC oro
ip es
Ġse e
Ġ7 0
Ġdet ect
{} .
tim est
Def inition
HT ML
sur face
Ġiss ub
( "<
) [:,
C or
O PER
v ite
y es
Ġ am
de it
cl ic
form ers
ĠL azy
ĠM utable
hor se
PRO B
sk aters
Sc alar
gener ated
ĠDe form
ĠQt Gui
ĠRoberta Config
Ġpair s
sequ ences
B ad
F COS
L ab
b mp
c ale
f ront
re dis
Ġre ply
=' .
train val
Ġl p
per f
ms a
char s
KEY S
alg orithms
ĠDE VICE
categ orical
Ġsw ish
mot or
. ,<
C B
H ard
J itter
o h
s py
x la
Ġ like
in crement
Ġb i
ens ity
sc aling
Ġde lay
ash ion
ric ulum
ĠW ord
Ġwork space
left Img
bar rier
bound ary
render er
OPT IONS
oun ds
Ġcomponent s
ĠRel ated
Ġeasy dict
Ed ge
ycb v
Photo MetricDistortion
( ',
F LIP
S core
V O
an aly
__ [
om ial
Ġg r
ĠF S
Ġde eplab
ĠS im
ĠS eq
() :
CH OICE
ĠB u
Ġsh lex
RE QUEST
RA ND
Pro b
** *
ĠĠĠĠĠĠĠĠĠĠĠĠĠĠĠĠĠĠĠĠĠĠĠĠĠĠĠĠĠĠĠĠ ĠĠĠĠĠ
Ġim pl
SI G
Ġad apt
encode d
stream able
ee k
gl yph
Ġinst ead
OK S
disp atcher
ĠVi T
Temporary File
A WS
W I
s olver
s peed
Ġ annotation
Ġt e
al loc
orm ap
Ġload ing
ne ed
Path s
Det ect
qual ity
BERT a
Ġmo ve
SPLIT S
ĠSer vice
ĠEX TENS
='+ ',
ĠEXTENS ION
1 80
F in
st ar
Ġf aces
py lib
Ġ* ,<
file names
ĠI t
Ġv gg
ip File
ĠV ersion
Ġth ing
lr u
COMMAND SET
SK Archives
Iter able
Check point
Ġaug mentation
ffff ffff
Stream Handler
ĠDocument ation
ĠFL AGS
udit Log
Ġcard inality
prim ary
aisy X
STROKE ARCHIVE
! ')<
D yn
E lectra
H ost
I ds
J it
T IM
\ "
r m
Ġf ace
Ġ1 0000
ĠF ake
ĠB inary
Ġcol umns
scri ber
time zone
Ġax es
EX AM
close d
De pth
soft plus
IZ E
hex lify
allow ed
ĠCUDA Extension
CF G
Ġissub class
E moji
a os
s peech
u op
di visible
il la
res ized
pro ved
ss ible
ST REAM
Ġbase d
BO OL
Ġpredict ed
Ġformat ter
Ġdate util
rou ge
Application Command
SEC RET
. ],
C PU
E Y
J PEG
S CRIPT
g a
g c
h f
k p
t ail
u ro
in i
in ja
el low
iz on
pro cesses
ise d
process ors
ib ili
AL O
ĠG tk
Par se
Ġbatch generators
sent ences
Ġper cent
Ob servable
content s
Ġad v
Ġover lap
ele m
syn th
note book
TAB L
Smooth L
Sm all
M ED
y aw
if act
ST EM
ale s
reg ressor
pn ess
user story
cor pus
UN KNOWN
En vironment
CONT ENT
Ġpkg util
Ġfollow ing
ADDR ESS
A udio
S parse
f ew
Ġs o
Ġin valid
ĠD B
sh ould
ĠO R
ith er
Ġse nder
ile s
version s
Pro to
ca pt
Ex pression
ĠIn it
Ġapp lication
ĠY OLO
Trans late
lab eled
Qt Core
TENS OR
ĠBack bone
Del ta
L AN
[ (
i am
s ome
y u
port s
se l
de pends
et ic
Ġm pre
Ġs d
ic ies
Ġ2 01
). <
ĠC H
ĠA waitable
Ġen abled
St icker
max size
Reg ression
yn th
skip if
mesh grid
sim ilarity
/ _
A verage
H istory
N ext
P anel
d art
p vt
Ġ ()<
pro phet
vi sed
ĠI S
IT CH
ĠH T
ĠH yperparams
ESCRIPT ION
Options Add
SAMPL ERS
Ap proxMaxIoUAssigner
Scen ario
Region Assigner
inger print
A ccess
B AS
K ernel
P open
S ave
V er
W e
b eat
t v
Ġs olve
Ġf ocal
il u
ĠD o
ph i
ĠU UID
Ġval s
new s
Ġinter polate
filter warnings
CTION S
cre te
RES ULT
Ġ14 4
ech o
STD API
Ġtmp dir
Iter BasedRunner
Pi pe
short cut
="" ):<
L anguage
g dbscript
im m
en ame
ct l
>< /
ĠS equential
IT ER
index es
ĠBase Module
Sh ot
Top ic
bil ibili
bal ance
ites pace
1234 56
CATEG OR
endenc y
METHO D
2 10
Q uality
] }
ut ions
Ġde ts
Ġmodel ing
com press
net es
ph ere
SE ARCH
Ġlog uru
Ġiter ation
la zy
serv ed
BO ARD
Ġtrans action
FORM UL
Ġmatch es
Ann ealing
INTER VAL
Gl yph
uber netes
B e
M achineState
R aw
S peech
con s
ST M
Ġk p
MA STER
000 5
sp awn
Ġmask Utils
VI EW
enc oders
me asure
RES OL
exec utor
Options Start
jit ter
Stat s
let te
ĠPar allel
arx iv
abil ities
b ulk
g in
p w
p aper
Ġ question
un e
un g
ĠP lease
ĠP ublic
base line
av es
UT E
ĠBase Dataset
Ġtoken ize
pad ded
Ġgrad check
angu ages
expand user
quant ize
assign ment
Style Archive
struction s
ĠAttribute Dict
smooth ing
past e
6 00
> ..
F IN
G LOBAL
V T
i i
Ġ ys
at s
di gits
age ment
rain ed
Ġde ep
bo o
ĠA L
ĠA ug
-- -
com pression
Ġy y
back up
Ġtime it
Ġdet ail
author ized
Ġcrop ped
Ġfactor ies
PROPERT IESARCHIVE
UNet Trainer
Ġpython api
k u
t au
Ġ license
Ġp ublic
ĠF loat
ss d
Ġx formers
ĠP atch
ĠB O
fo und
av ail
ĠEx ample
TEM PL
MI X
Ġhyp othesis
C y
I t
c df
n q
n u
t od
Ġ estim
st arknet
am a
ot a
con struct
ĠO megaConf
ĠM od
ver ify
Ġ[" _
Pro phetNet
Re ply
mon itor
Ġdist rax
red dit
Ġan aly
icy cle
exec ution
Ġspec ified
Rot ate
dest ination
Ġtele gram
SCHED UL
C al
P G
[ _
b ine
n gram
t ex
v an
st ones
Ġre main
io f
io dic
ĠN ame
20 12
json l
000 2
Ġro is
Com ple
cam eras
serial izers
Ġsoft max
ĠLo ad
ble u
Ġexpan sion
different iable
ĠPi peline
8 3
D ESCRIPTION
P h
S cor
f x
k aiming
ort h
lo o
Ġp run
Ġin verse
Ġin stantiate
Ġb ins
com put
Im ages
Co ord
match ing
Int egration
Ġstruct ure
tern al
Fl ag
SELE CT
mag ma
COLUM N
ĠBACKBON ES
ĠAverage Meter
) ",
c ancel
n ature
s vg
as m
__ )
__ }
ap as
ap sed
ĠE valu
ĠU LONG
Ġpro xy
arch ive
dev kit
Desc ription
Ġexport er
constra int
DOWN LOAD
Adaptive AvgPool
BUILDEVENT ID
SEQU ENCE
B inary
M enu
f inite
m k
Ġ[ ])<
ĠT O
Ġw av
Ġ2 6
Ġl st
lib c
Ġres olve
emb d
tra jectory
ffer ence
Set s
normal izer
Ġutil ities
quant um
}: {
she et
erm Tk
PASS WORD
/ .
O SC
s oc
re load
Ġc nt
Ġf ps
ad apter
Ġ[ ("
Ġh ere
sc aler
ĠO nnx
ĠM lp
oc ast
ĠB ASE
RO W
Pro file
AD ATA
UM ENT
Gener ic
Ġpri vate
sec ure
rep licate
XL Net
ĠString IO
Anchor Generator
' },<
A CCESS
S MALL
m v
r r
ol ation
up firdn
ĠF il
Ġl ava
ĠL ine
pre dicate
SE M
Reg Net
MAP ARCHIVE
En ter
Ġembed dings
vert s
Options End
Ġcy cle
Ġalph afold
bt n
ĠOS Error
1 30
B i
l n
v oice
re id
Ġt q
ex act
ĠM emory
FA CTOR
VI DE
match ed
Int Enum
ill ing
CONT AIN
chunk s
tun ing
ASSI GN
ĠDense Pose
Center Crop
Mid dleware
f ar
as net
un ion
ap lace
(" {}
ĠO ption
Ġstr ings
og raph
Ġres idue
ĠB ig
St ack
Ġcom put
Le ft
Ġdo ctr
comm unic
Num eric
itt i
Ġrel ated
Fil ters
Ġjob lib
Ġfig size
Buffer Has
REMO TE
HY PER
nost ic
BufferHas Identifier
G rad
I DENTI
J O
Ġt ab
ct rl
Ġm essages
ab out
up grade
Ġg ray
ens peech
ĠC L
pi ck
Ġpro vided
read line
Conv Transpose
ambda LR
ĠSt yle
Ġaut ograd
Ġhash es
Di rect
Group Norm
Ġsw ap
Ġpair wise
Single StageDetector
Bytes IO
Ġmedi a
TRA CK
XY WH
. ))<
u ation
Ġ append
Ġf oo
ol ved
=' ',<
(" ./
ĠC PU
qu aternion
sh oul
out ube
=" [
ĠI d
Ġ5 8
ĠĠĠĠĠĠĠĠĠĠĠĠĠĠĠĠĠĠĠĠĠĠĠĠĠĠĠĠĠĠĠĠ ĠĠĠĠĠĠĠĠĠĠĠĠĠĠĠĠĠ
CON D
PL ACE
match es
wh ile
top ic
Ġmap s
TopDown M
na pole
>'' '
Ġfi re
Ġlm db
ĠSw ish
napole on
N ote
s uggest
re ed
Ġs cope
Ġf f
ĠT ermTk
pro cessed
oc c
ĠR aw
fo ot
Data Module
MO MENT
Ġset Up
Ġkey points
Ġinter face
sl vs
ĠInt Enum
Dis patch
ĠLo ss
ĠInter action
Ġpixel s
Ġiss ue
PACK AGE
Uns upported
. )
R ight
U Offset
c map
Ġm s
Ġs peed
il er
ul ary
li ance
con sum
log o
00 2
pro of
ĠD aisyX
len t
Ġres ume
Ġy min
ĠB roker
Ġdi fferent
Ġint eger
Ġpy cuda
In ception
ail ure
') ]<
Ġlog in
call able
lt as
ĠTensor Flow
IP LE
Stream able
VIS ION
hero es
bust a
( ([
) (<
S ENT
T INGS
g nn
x label
de ps
an ization
Ġre dis
Ġp il
Ġp ub
Ġm se
res nest
pro filer
all ery
ject ories
ĠV isionTransformer
cor ner
cur ity
pose d
Random Scale
Mask Head
US ERS
aw are
Ġvis it
An alysis
Ġpri ce
FLO AT
K C
T otal
] (<
f requency
or ing
ro c
Ġre lation
es net
Ġp lease
Ġ" ",<
res ses
art ifact
Ġ: ],
Ġal so
Ġcont ract
Ġan chors
sg d
LR Scheduler
compat ible
ĠTo Tensor
('. ')[
ĠHTTP Error
Date Time
ĠBl ueprint
UNetTrainer V
shoul der
TopDownM pii
MOMENT UM
. ',
: ])
D T
N LP
R ank
W A
d ashboard
f w
f use
l it
o ple
o RS
t qdm
on d
de str
ck pts
Ġ[ ]
ve loc
if old
iv ar
CT ORS
ĠV GG
det r
Ġro ut
Ġ{} )<
gress ive
IO U
GRA M
fail ure
destr ian
: ].
> ])<
V DK
Z Z
k i
o in
v acy
in ux
re a
Ġw idget
ĠP ort
th ree
mask ing
Lo okup
Com ment
Ġim plemented
Command Set
Ġtrans fers
ĠJ AX
style gan
fun nel
ĠMODEL S
SUPPORT ED
S nowflake
[ {
c rypt
g I
q id
Ġ eta
Ġt ake
Ġp ers
Ġs s
Ġs ol
is instance
ri ven
ĠD own
ĠD isc
AT TR
ĠM ark
com bined
() ['
stat istics
ĠV isual
Ġkey point
For ward
ĠEx periment
spec s
Ġtrans lation
Get RandomScale
single ton
Ġsmooth ing
Ret ina
Ġmay be
ĠLayout LM
Ġfa iss
GetRandomScale Rotation
> ",
D ynamic
E LE
P AD
P ART
c ing
Ġc s
Ġf w
dat ion
cl usion
set uptools
pl anning
pro viders
reg ular
RE QUI
vis it
)) )),<
ĠH ard
RI X
ID DEN
ĠĠĠĠĠĠĠĠĠĠĠĠĠĠĠĠĠĠĠĠĠĠĠĠĠĠĠĠĠĠĠĠ ĠĠĠĠĠĠĠĠĠĠ
Load ing
HE IGHT
not es
hex digest
const rained
mach ines
Ġcud art
finetun e
iling ual
Prediction Head
ĠEmbed ding
. {
/ (
J son
_ [
b d
u zzle
or ation
st im
um bn
Ġ1 50
ĠR O
Ġe very
Data class
Data Class
St one
AM P
save fig
Ġ9 0
ABC Meta
ĠTrans foXL
exist ing
Local Block
velo p
ĠExt ension
DIRE CT
d om
f ps
al ert
Ġs sort
dat ad
IN VALID
ĠA x
us oid
ph one
Ġfile names
Co unter
Ġca ffe
Ġbl ack
IoU Loss
Ġsm pl
QUEST ION
Sw ish
Disc riminator
Ġsur vae
DATAB ASE
B roker
R ender
S D
h yper
r mtree
w ave
le c
ch ia
Ġc x
=' '):<
ĠT Tk
Ġw i
com pare
Ġr untime
Ġse ction
Ġ4 5
Ġdat ef
db l
api e
wr ist
row th
Ġ20 21
graph s
position al
CONT RO
ĠDec oder
Ġflo ps
Deform Conv
Semantic s
BIC UBIC
Ġdatef mt
E IGHT
H igh
N eg
N AL
N MS
] ",<
b reak
k nee
u ch
y y
Ġ' '.
ot o
po oled
log it
00 000
Ġ{ :.
ĠD yson
Ġget env
ip ublic
Ġsub set
oo se
}/ ',<
Al ter
---------------- ----------------
polygon s
mac ro
SM PL
Sw ap
Ġposter ior
Remo ve
5 0000
C IFAR
K ER
M NIST
U INT
g ateway
m ilestone
set attr
Ġ- (
ma y
(' [
ĠO ne
=" .
AL P
LO C
ĠImage Net
={ }
Im portError
Random Sampler
ĠSt ream
ĠTF F
Pool Executor
Ġmap per
WAR M
CLASSI FICATION
ivar iate
( ("
B rightness
T ON
V OT
_ '
i ence
u di
Ġo h
Ġ[ _
ke le
Ġ: ].
CK ET
Ġmin os
ĠEx p
lic as
PAT CH
linear ity
ASS ET
gl u
TopDown GenerateTarget
segment or
assign ers
episode s
Cur sor
ĠSingle StageDetector
Ġweak ref
CATEGOR IES
ALP INE
B IT
b icycle
ar ded
Ġt eam
Ġp rom
Ġf use
data classes
Ġd l
ext ras
ĠS pec
ĠI P
Ġy ear
ST EPS
code c
PE CT
20 22
ib c
Ġ10 1
LI GHT
prob lem
ĠTF XLM
HEAD ER
ĠSh ared
ĠFile NotFoundError
Ġet ree
sens or
00000000 00000000
MULT I
Author ization
ĠTim er
OPTIM IZER
Pass word
Ġequ ip
riven discovery
datad rivendiscovery
C ERT
C USTOM
p ay
y label
st it
ch an
Ġn ltk
it al
Ġp yp
Ġm rec
Ġm initorch
um bs
ab b
Ġa i
line Keyboard
Ġse qu
ĠU N
Ġsub mit
tem perature
TopDown RandomFlip
ĠSet tings
dr ug
Control Parameter
Scen e
ĠPos ition
Ġterm color
Help Formatter
ĠCOL OR
" >
. ".
4 000
A cc
M issing
e v
f m
p m
re store
Ġm AP
ab n
li ck
ig rate
Ġh o
ĠC ore
Ġde mo
ob b
text s
mo unt
ĠV oice
inter active
pan y
Context Block
Ġdis able
itt ed
layout lm
xl net
Ġph ase
ĠCamembert Config
Distil Bert
EB PF
Ġlik elihood
boo lean
" ')<
C ross
S R
^ \
or oro
de berta
__ ):<
ur ity
Ġb eanie
pre vious
Con straint
ĠI f
LE G
proto s
15 00
table name
Ġtoken izers
initial izers
wh at
ĠJ ob
TopDown GetRandomScaleRotation
align ment
No ise
Ġchild ren
entic ated
Ġlaunch er
tick s
ĠXLMRoberta Config
, "
F LA
R ew
e u
re lev
Ġn f
Ġn at
ra ise
Ġs lice
Ġi con
iz ing
ĠT able
ss h
ĠS MPL
Ġ: =
ile stones
fl y
Res idual
Ġcom ment
INE AR
IG NOR
Ġtx t
Ġter min
FEATURE LIST
Prepend Int
fore cast
ynchron ized
A FF
D iff
N C
P rint
W armup
h id
l bert
x t
ch anged
Ġs z
ag a
ag ed
ĠF I
are as
RO BERTA
Ġtensor rt
") [-
resnet v
Ġbox list
Ġon ce
UN K
ĠPro phetNet
PER IO
let ter
cook ie
crit ic
N V
i us
l int
x large
er ical
Ġn ll
Ġf eed
Ġin planes
Ġnum s
co verage
ss ue
Ġto ol
Ġcol s
Ġun hexlify
=( -
time delta
trans ducer
Token ization
Ġan alysis
Ġmulti class
Sh ow
ĠRe former
'' '<
lat ex
Ġdoc s
With Logits
Iter ation
MOD ULES
experiment s
pid er
Ax is
ĠOut put
ĠPreTrain ed
ASSIGN ERS
C apt
U psample
d ark
h am
h stack
v ote
Ġ entries
Ġn pt
ol i
om etric
id name
Ġh f
ĠS ymbol
Ġse ss
Pro pos
ĠĠĠĠĠĠĠĠĠĠĠĠĠĠĠĠĠĠĠĠĠĠĠĠĠĠĠĠĠĠĠĠ ĠĠĠĠĠĠĠĠĠĠĠ
ized Crop
DAT ALO
[- ]
Ġatt ributes
oo st
Ġup dated
TH READ
Ġcode s
cre ator
Ġcall s
QU E
Ġnormal izer
ĠArg ument
Ġexist ing
Ġcal ib
TS CH
squ ad
GR P
WR ITE
poster ior
integr ations
WARM UP
) ',
F used
G REEN
I MAGENET
I FIC
L V
W D
W idth
h y
st ds
Ġ" +
li ed
ĠD at
ep ic
Ġdefault s
Ġe cho
qui ck
DEL ETE
Conv Module
tt Lib
ĠĠĠĠĠĠĠĠĠĠĠĠĠĠĠĠĠĠĠĠĠĠĠĠĠĠĠĠĠĠĠĠ ĠĠĠĠĠĠĠĠĠĠĠĠ
Ġopen fl
ick ness
lat er
ĠTest Case
dest roy
Ġcomple x
MAT RIX
Ġlab graph
ĠTFA lbert
veloc ity
! "<
N ature
f ine
n av
t ics
t utorial
Ġn one
Ġo up
Ġo ptional
ce ive
ĠT eam
Ġw arp
Ġ0 0
Ġh k
ĠA ss
ĠL ight
ĠL xmert
Ġ3 5
Ġr d
MA L
Res izedCrop
Ġ8 4
ID S
Ġsub ject
Image Sets
mat erial
HE ET
ĠTensor Type
Ġtrans fer
HR FPN
PARAM S
Track er
ĠAs set
Ġnd array
deg ree
/ ",<
C AS
D omain
G D
S end
S ESSION
` .<
m q
s up
u k
u u
er ef
re search
Ġt run
ch i
el come
Ġas pect
un flatten
cl r
int egration
con ditional
ĠT ag
he et
=" ",<
ET A
mo dified
([ (
state ment
ĠW e
sub plot
ong o
cs r
Se ed
Ġann o
predict ed
Ġcor respon
Pl us
ĠCh ar
AU C
Label s
ĠDAT A
Ġmon keypatch
cook ies
ĠDetection Checkpointer
EMA IL
skater tools
WINDO W
kele ton
DATALO ADER
L ite
d og
Ġp ull
Ġo wn
is digit
Ġstr ip
Con structor
ight man
load ing
ĠI Job
Ġv oc
Ġse crets
uper net
RE Q
run s
IL L
AN CHOR
arm or
object ive
block ing
ust ers
Ġ) ),<
dis abled
DEF IN
Ġseg mentation
Add Field
Ġbl spy
web socket
ific ations
LIC Y
Ġmult iplier
PF X
ĠDistributed DataParallel
ĠMask ed
INTEG ER
irc uit
see k
ĠVOC AB
Horizontal Flip
123456 78
TopDownMpii Dataset
WithLogits Loss
C ar
D DI
P atch
S AR
] -
h old
l u
Ġp at
Ġp ublish
ĠT RI
ĠA ll
config urable
Ġst udent
ĠM esh
ew Shot
ĠN OR
ac cept
sub plots
ret ri
ateg ies
ĠIn stance
SET TINGS
FL AG
Ġsp acy
rep licas
Sync BatchNorm
squ ared
GRA Y
Ġconf usion
clar ative
ĠDeform Conv
ĠIJob Input
C lear
H e
b ottleneck
p rom
s pe
x f
Ġ fixed
on line
ch air
ra ft
ex change
ĠA R
ĠM ULT
Ġy max
Ġk ind
pect ive
Ġinter p
wh ite
vert ical
Trans fer
Ġtop ic
Ġexec ution
AU DIO
trace back
ane ous
Ġtrack er
rins ic
EXTRA CTORS
utc now
ein sum
ĠRec ipe
clu ded
Inc re
pot ions
ĠGym Env
ung arian
XYWH BBoxCoder
PERIO D
' %(
+ '
B ool
D C
H and
P ie
T RI
V IT
m IoU
t ures
Ġ ?
Ġ agg
er lock
at ype
Ġp alette
Ġm ail
Ġc wd
int o
ĠS m
Ġtest ing
ĠE LF
den sity
cont inue
Ex ist
') ):<
Re q
dot env
chat s
FIL ENAME
part y
Ġpoint net
Dist ance
ĠNo Op
Ġbs z
pixel s
ĠAlbert Config
Agg reg
Prop erties
P A
T rigger
U AL
V C
im p
im ize
ar c
Ġre p
Ġm pl
arg est
up dated
init y
ĠC u
Ġl s
IN F
ĠA gent
pre tty
act ers
Ġe lems
Ġsh erlock
Ġ5 13
Ġtf ds
CE Archives
doc string
ateg ories
28 8
Ġcount s
offset s
ĠFl ash
PRE C
Pl atform
Ġsu ite
ĠFlax Bert
syn chron
launch er
Ġstar lette
ĠFlaubert Config
lec ule
* ',
/ ')<
M ISSING
T X
c el
at ar
re direct
Ġt t
Ġn u
Ġp oc
Ġp uzzle
Ġd a
Ġd w
Ġa a
(" .")<
Ġx max
Ġ{ :
get text
DE V
Ġres ample
': '
Ġhelp ers
)) ),<
Ġcom pile
inter p
ull able
yn omial
char set
-------- ----
Py torch
Wor ld
ĠNet work
MEM ORY
orient ation
ĠCenter RegionAssigner
ĠBuild Extension
Requi red
5 13
C ls
K IT
a ze
p ets
r si
v f
v est
ch astic
Ġn lp
lo pen
Ġp aper
args ort
Ġ[ ],<
Ġw iki
ann ed
() ))
op us
mo e
Ġpro ps
Ġpro cessed
Ġact or
Ġpredict or
ĠCol lection
PRE DI
tri als
comple ted
Lib rary
Ġfi des
Cl uster
Ġyolo v
RESNET S
/ ")<
A DE
D ummy
M C
N d
a uli
f cs
h ref
st s
Ġa ws
ĠC AM
IN ullable
th at
Ġe ither
ps nr
Pro duct
Image Net
Ġal go
Re po
ĠRes NeXt
Ġle t
Ġper mission
SP ACE
RAN CH
Ġvar iant
Pl ace
CHAN GE
BACK END
ĠDi ag
leg ate
Time out
rest ype
Ġein sum
Ġvariable s
Ġhex lify
Ġtk inter
Ġgra ds
SCHEDUL ER
/ *.
F ake
L VIS
b asis
e er
as pect
Ġre cursive
=' %
Ġg ate
ĠC ut
che e
ĠB utton
Ġbe am
Ch ild
Flip Transform
COL ORS
egr al
Self Test
eng lish
Gaussian Process
condition s
Uni form
RESOL UTION
umbn ail
" [
D ST
G cp
H ub
b f
v r
Ġ zeros
re presentation
as sed
Ġp erson
di an
Ġm ac
el y
Ġas dict
up dates
con firm
ay s
th est
ob server
ĠB lenderbot
Ġpy tz
ress ors
Ġal gorithm
Ġact iv
multi ply
bl ueprint
Ġacc um
RoI Extractor
Ġprior ity
ru ption
oot strap
ĠAP INullable
ĠNested Tensor
. \
B RANCH
C AP
I I
Z E
_ :
a ff
f wd
g iven
t m
on ical
Ġre moved
Ġ" ../
ce ed
ĠT SKArchives
00 4
ĠF rozen
ri ch
ann et
Ġcon crete
Ġv id
ST Y
att ach
user stories
CON ST
tra j
]] ]<
lic file
Sh ifts
tr igger
PER M
fin ished
Act ivity
)} ))<
Ġmark er
Ġ[{ "
ĠCont ent
wi res
constra ints
Ġmag nitude
Ġtab ulate
P otion
P ublisher
S ING
p unct
u ck
Ġ lock
di vide
Ġm alib
ra ction
str ument
ig o
Ġh ow
Ġh uman
", )<
co b
], [
out er
Ġget Config
ĠM an
ĠM ix
ok u
Ġro ute
ĠW indow
Ġ7 69
Head s
ĠData Container
Ġext ernal
100 000
ĠBase BBoxCoder
ĠIn lineKeyboard
Ġtx id
LIN K
Ġdel imiter
Ġnetwork s
AX IS
Ġpose mb
ĠToken izer
H ERE
S ummary
Ġn y
lo ur
Ġ' #
Ġf ee
=' ')<
par k
pl ut
(" ../
add Widget
Ġl t
ff hq
ĠI tem
Ġe ig
ĠV ector
Ġ[" -
PAT TER
{} )
PI XEL
De bug
Color Jitter
mix er
pil ation
DET E
ĠSc ript
hour s
Ġblank ly
bp plut
F Net
F ashion
L ATION
Q A
f usion
i hi
p asses
s olve
re vert
ro om
Ġf d
Ġf an
un bind
om an
to y
ann os
Ġl d
ĠD WORD
ĠA tomic
ĠM Bart
Ġe q
:// {
ĠEx ec
Se parable
wh ich
glob als
structure d
Pack age
adapt ive
VO ID
) ?
. ',<
/ "
> --
B in
C Y
M esh
P AL
_ )
h ar
s ilu
w eek
di alog
ĠE mpty
In stall
iv ers
Ġor ient
AN NOT
ho use
ne ar
istr ation
Run ning
flip ped
)), "<
Ġloc als
ĠSer ver
ta iga
ĠBox es
recall s
Min imum
GENER ATORS
Dep endency
bet ween
alph abet
Ġhand lers
METRI CS
) ",<
> ',<
V M
b ut
l ax
l cd
m int
p ids
w heel
y ellow
z or
Ġ dirs
in el
re play
Ġre load
Ġp od
Ġb egin
is nan
Ġd la
ĠF ROM
Ġl b
ĠA ES
ĠA uth
ĠS ec
os ummary
ĠI nc
Ġun der
In ference
"] ]<
ĠEx pression
STR UCT
Up dater
Ġinitial ized
ĠDe pth
ĠBert TokenizerFast
org anization
Opt im
cro ps
NtGdiDd DDI
LAR GE
Ġte acher
N ULL
O wner
W M
g file
or ph
st ake
ro is
Ġc m
ad ratic
Ġd r
co eff
ĠC reate
ĠA udio
ĠS UPPORT
ĠI M
() }
Ġth em
ĠH ash
Ġal b
Ġreg ular
Random ResizedCrop
Ġle arn
Ġcolor ama
TOKEN S
POS AL
hi er
Instance Norm
Web hook
DCN v
EPOCH S
ĠVal idationError
ĠFil ter
PFX MATRIX
C ipher
G en
M SELoss
S top
_ "
l mo
st and
Ġf ut
Ġin formation
ot onic
res olver
ĠL R
Ġout file
AT URE
Ġex act
qui et
sp end
Ġal igo
ĠRes ize
Ġad ded
Dec ay
Ġjo int
MET ADATA
loy ment
Ġlink s
Integer Field
tun e
ĠNorm alize
Ġneed s
Clo ud
INS ERT
Ġprovide s
heat map
boot strap
JO INT
Pie ce
hier arch
) [:
> (
M em
S CHE
X s
k g
n ft
q p
t ran
x p
re main
ra bic
Ġ" :
Ġo peration
con sensus
Ġh w
co ur
pro g
Ġx min
th ic
ĠS top
ĠS peech
pi ps
key word
met ry
Ġint rinsics
Ġe lf
CO ORD
format s
Ġpl ace
cat ter
no op
0000 000
PR ESET
ord ers
ai ses
TRAIN ING
ĠKey board
POS IT
termin al
Ġhost name
Ġelement s
WORK ERS
ĠPoint Assigner
Tim er
Ġtele thon
rit ic
ĠEfficient NetV
INST ANCE
Root As
Delta XYWHBBoxCoder
DEFIN ED
2 50
= <
C og
P ix
S ampling
_ (-
ion na
Ġre ci
Ġi r
Ġdef ined
po logy
Ġcon sole
ĠO n
Ġr tol
20 14
MO T
Ġab ort
Pro gress
Ġch r
CE L
UP DATE
spec ific
Co st
over load
BU FF
Ġqu aternion
Ġus age
ĠAuto Config
Ġexec utor
Point F
Ġradi x
cm ds
disp atch
Ġsentence piece
blender bot
ĠCheck point
FRA ME
LANG U
tor rent
) [-
B G
B CE
C amera
F actor
M ult
b ri
e uler
k y
m otion
n l
r aries
se verity
di stances
Ġc f
Ġi dentifier
om atic
ap prox
Ġw ave
ic ip
ĠA ut
ĠL ock
Ġst ones
Ġun known
Ġdat amodule
RO T
Ġal g
Ch ain
ins ide
Ġ| =
Enum Type
Di ctionary
Ġdoc uments
Ġover write
TRAN SACTION
indic ators
ACT IV
ĠAct ivity
ĠOpenAIGPT Config
Ġefficient net
Ġtensorboard X
) '<
) })<
> [
B L
H A
R PC
e ded
f airseq
r d
t ake
im write
ro bot
Ġt re
en hance
an a
ur ations
Ġf x
Ġo cc
Ġb gr
Ġdef ine
po co
em ent
Ġh op
ĠA dapt
ĠS um
pre ter
() ]
ĠB ad
min utes
Ġback ground
ĠĠĠĠĠĠĠĠĠĠĠĠĠĠĠĠĠĠĠĠĠĠĠĠĠĠĠĠĠĠĠĠ ĠĠĠĠĠĠĠĠĠ
Ġob server
trans fo
Ġ{" $
Ġline cache
Ġ| <
Ġend point
FORM ATION
alo ad
mod aler
medi an
Trans foXL
let ed
No Of
Project Factory
Pri or
sequ ential
black list
ENG INE
ĠSH A
ĠStr uct
ighb ors
need s
Ġpub key
) ;<
D b
J IT
b mm
f ailed
h sv
l anguages
m erged
m ysql
n at
u o
Ġ edges
de pendency
ro former
ut ors
ĠT RAN
ĠF ix
able s
ĠS ize
kw arg
ject ors
12 5
Ġor gan
ĠH as
ĠH ook
RI D
File s
UN I
query set
Sh uffle
multi set
Ġread me
VAL U
Ġregister ed
Ġlo okup
Ġbl ur
ĠAtt ention
Ġli chee
Ġplot s
Ġman ifest
Ġsg ui
TRANSFORM ER
respon ses
Ġme asure
Ġshort cut
TEM P
Fore ignKey
DRO P
BIL INEAR
' %
0 25
D rop
E mail
P K
Q PointF
b rightness
d ag
d up
f ba
h ue
i B
i rror
Ġt b
Ġs pan
Ġg re
ert ificate
vi le
ĠA rabic
out h
AT SS
Ġsh apes
reg ressors
Ġpro jection
Ġbu iltin
ĠV alue
Ex it
place holder
dist s
Ġinter action
ĠSt andard
Ġline width
dense pose
Ass ign
go od
An imal
Ġmo dified
Interaction Data
Ġne ural
Ġdenom inator
A rea
F eed
H AND
R aises
S kip
T HE
b agua
g ed
g loo
k in
l ated
o se
x or
} }
se ll
le tt
__ )))<
Ġs lot
Ġ" ")
Ġb t
od ings
pl ain
Ġde vices
ĠM on
Ġen viron
Ġen erg
Ġmm human
AL LOW
"] ),<
pen dent
ĠH O
open api
exp ert
40 1
ret rieve
ĠSt orage
std in
PI C
LA CK
Dec orator
Ġsp m
Mix er
Per m
rec ipes
PY TORCH
ĠCO M
ĠClass ification
pub key
ĠPri vate
ograph y
NV ML
$ {
' })<
P ON
T ERS
W ait
b ank
x net
se crets
st ock
__ )),
pe ated
Ġtorch drug
fig size
and a
sc ipy
ĠP ack
Ġnn unet
Ġr ig
ĠV ERSION
ĠCon sole
no vel
seq io
Ġq s
PL AY
Ġser ies
]] ]
sw itch
Ġtim er
36 5
Ġrot ated
Ġprocess or
ank le
BLOCK S
prior ity
MAR Y
Wor k
lik elihood
EnumType Wrapper
A ES
L ast
P run
U V
W ER
b ed
k d
p es
s olution
or a
Ġn gram
Ġc ategories
um per
Ġ" *
ad a
ad ded
is m
Ġd er
(" __
Ġdata frame
IN FORMATION
ĠD er
Ġcon s
base s
ĠB CE
ĠR ed
Ġe Start
den om
ead er
for est
Ġ6 00
Ġal ias
Ġz oom
Ġredu ced
Command s
Ġca pt
BU Y
Ġutil ity
Ġ:: -
ĠTransform ation
ĠMulti ple
ĠRo le
Ġsupport s
Exec ution
ĠTra ck
ĠAct ivation
ĠMobile Bert
Distributed DataParallel
kern win
ĠQiskit Nature
ĠFore ignKey
Detect oRS
C OR
F ON
G it
M achine
N A
N EST
R a
e ach
h k
re ps
ro ts
Ġc ipher
dat as
Ġin crement
Ġtorch x
li ao
log dir
Ġx t
ĠS uper
'] ).
pre fetch
ĠM issing
20 18
20 200
register ed
sub mit
Ġtext s
std dev
Set Archive
Ġ20 20
convert or
match er
Ġspec ial
WE B
Feature Extractor
role s
gradient s
ĠChannel Type
ĠCTRL Config
VIDE O
Ġsherlock liao
H I
H ANDLE
P ixel
i T
er f
def ine
Ġin fer
is close
pro tein
ĠF PN
ĠD el
per mission
box list
Ġe qual
ĠN E
Ġconfig ure
tf record
Pro ber
Com m
rt ual
pack et
not ify
Ġconvert er
crop ped
Ġserial izer
ĠTest Client
Ġcontent s
SER E
fin der
ĠSe arch
ĠVi ew
cover ed
ĠDistil BertConfig
ĠStat us
Ġbasic sr
ĠElectra Config
ĠMutable Mapping
Alter Field
B alanced
F ailure
G F
H W
O rig
S upport
r split
v d
x b
z A
re wards
rom e
pe dia
pe ople
Ġs pe
Ġs pect
ag raph
MA C
Ġpro vider
ac ed
Conv FCBBoxHead
ner f
]) ]<
LI SH
sub scribe
Ġadd r
PO LICY
ĠIn stances
CL S
Un able
Ġcor ner
Ġ15 2
Di rection
SH OT
Ġfast reid
Ġauto video
An aly
ĠMO D
Ġbound ing
can didate
ĠSer ial
ĠCommand Handler
estim ator
Ġtl br
bet as
ali ases
ĠFused LeakyReLU
ATTRIBUT ES
Ġthese us
mobile bert
ynchronized BatchNorm
Ġcorrespon ding
C ool
C UL
C rossEntropy
I LED
P ublic
a res
c ript
e qui
f amily
m egatron
x ff
Ġ uri
Ġ ema
Ġ ego
on s
se curity
ch allenge
Ġp itch
Ġc um
ul ong
=' \
Ġg p
Ġ( %
IN ET
ĠO peration
'] ]<
ĠM inkowski
ĠI RF
12 1
qui re
20 1
"] ))<
ĠData Keys
uto Model
plement s
CA DE
Ġproject s
ĠDe berta
ACTION S
rie ver
CRO P
CRO SS
Ġoverride s
Ġmedi an
PCK h
ĠBart Config
xc it
: ]:<
L at
L STM
O nnx
P M
P LO
P AGE
e ast
h ydra
l ags
o ct
p ublish
Ġ ort
Ġn dim
et h
Ġf u
Ġb oth
(' .')<
ĠC l
ĠS O
AT H
Ġres ources
net s
eg ers
Ġcol lection
ph ys
ern oul
Ġch em
start s
Ġdim ensions
ĠW EIGHT
Ġwh ite
convert ers
Default s
Ġspec ify
sses bo
car la
Ġtable s
serial ization
Dis k
bi jectors
Ġchunk s
Ġsy scall
roll ing
='+ ',<
ffic ult
Dat abase
ĠPreTrained Tokenizer
ernoul li
B B
F ewShot
H ero
I i
f ea
w est
} -{
ch anges
fi ed
Ġm ish
Ġm ilestone
Ġs olver
Ġh our
Ġ2 000
ĠC R
form s
ĠF rame
Ġ** __):<
Ġres pon
Ġr hs
und o
Ġkey word
Ġinter mediate
US AL
Ġle x
riter ia
wh itespace
CA USAL
Object s
Ġfilter ed
omet hing
Distributed Sampler
velop ment
ipublic files
may be
Ġsequ ences
fba ipublicfiles
Ġenerg y
. )}))<
1 10
B n
F G
F old
H alf
I E
L ow
M usic
P ush
g fl
k ill
m ango
r ates
w al
Ġ ],
ch dir
el t
data Size
put s
(' {}
ĠC IFAR
Ġx modaler
add resses
th ird
'] ):<
kw are
Con nect
oc ore
Ġex pi
Data Type
LE CT
In vite
fix tures
Res olution
sum mar
ca ption
FI ER
vent ory
PRO POSAL
Gener alized
IM PORT
gen ius
Ġlevel s
mix ed
Long former
pa che
cap s
Su ite
OWN ER
IDENTI FICATION
SENT ENCE
D URATION
H IST
S ARCHIVE
T r
f h
Ġ emoji
at z
ro ids
Ġs hear
Ġs ionna
Ġf ine
Ġf uture
Ġin sert
Ġb agua
Ġw x
pro files
ĠA ns
config lib
=" ./
() (
Ġun icorn
RA PH
arm an
Ġ6 3
ĠConv ert
En able
Ser ial
Att achment
Ġidx s
dense net
Di ag
ster ize
VOC devkit
Ġet ag
ĠMeta Data
Metric s
NE AR
oun ce
emon ic
Clo se
delet ion
rw ightman
TEMPL ATE
E fficient
P attern
R ST
R elu
S ort
S qu
U sing
W rite
Z W
s pl
Ġp bar
Ġp hi
di dates
Ġc elery
Ġ" '
cl ide
is ation
ic dar
ĠC ur
ĠF uture
add Item
Ġto k
ET YPE
min max
Ġ% #
UT F
Ġurl s
ne ural
ĠImage Draw
Ġcl vm
meta class
BN ReLU
Ġmatch ed
ĠCo co
learn er
itt en
mix up
activ ity
Ġoperator s
ĠXLM Config
UNet Base
Mo ve
Ġweb socket
Ap ply
ĠAs sertionError
widget s
Positional Encoding
ĠCL ASS
clide an
- \
: :<
L egacy
P anoptic
en e
Ġm el
Ġb oard
ĠF inal
Ġl l
Ġl arge
vi dia
sh ards
ĠA LL
'] ._
ĠM ember
ob servations
ĠB ee
ĠU SE
ĠU psample
rad ing
LE AR
LE AN
Ġ6 72
Ġlist dir
Ġlog it
OC AL
Ġclass ifiers
imit ives
quant ity
ĠDi stribution
Ġloc ale
Ġexpan ded
Eval Hook
CONTAIN ER
AFF INE
synchron ize
cob ian
Ġorgan ization
C ORE
E stim
H IDDEN
K ind
N ONE
T AG
l amb
m ol
s intel
ch apter
Ġm ysql
Ġ' ':<
Ġtorch quantum
Ġb ad
res ample
ĠT ri
Ġd ns
Ġd ocker
Ġd uring
Ġl n
ĠD O
ack er
ĠM ap
Ġr bbox
ĠR ep
Ġk nown
PT Y
ĠCon stant
cur r
CON DS
Ġmake dirs
PN G
ĠY ou
web hook
ĠDi ctionary
ĠPol icy
ĠNamed TemporaryFile
Ġangle s
Ac curacy
tw itter
ĠJAX Array
+ '/
= (<
M ES
M ATCH
W in
q s
s ma
Ġn ix
fi des
Ġm ul
ing yu
Ġreturn s
ĠT RAIN
ff mpeg
Data Source
mo vie
Ġ5 5
Ġsc reen
In stances
pos ite
batch ed
cept ual
ĠCon catDataset
open mmlab
FA ILED
assert Raises
Sh ader
Ġserial ize
Ġauto shape
Ġseg ments
Ġdis copy
agg ed
connect ed
ren gth
Normal ization
Rout e
Cur rent
NON STYLEPROPERTYCHANGESETARCHIVE
LAYER PARAMETER
ARRAY ARCHIVE
ĠDis cord
Cal c
Ġfut ures
4 48
C UB
G e
H ttp
I CON
S pider
a wait
p andas
t fl
on om
al ance
Ġn ear
ĠC hoice
ĠP egasus
ĠD ate
sh utdown
Ġj it
Ġ3 8
rand perm
Data Dict
ĠU se
Ġjson ify
IT ICAL
ĠUn icode
Ex tra
AB IL
ret ry
Ġwh at
ĠPro ject
msg s
play list
Inter rupt
win Transformer
hist ogram
CONT RA
war c
wiki data
Cre ated
TABL ESTYLE
prophet net
ĠTO KEN
) ;
B ody
C AR
G ame
M isc
P US
S ql
S hear
T ES
c lf
v map
Ġ ed
ro utes
Ġ' [
Ġ' ',
Ġf ar
Ġ" ":<
Ġdef inition
Ġg pus
val idators
Ġh or
co arse
qu alize
ĠS AM
ĠM edi
met er
ver g
LE ARCHIVE
Config Dict
te le
fl ask
ĠV AL
Ġtext ure
SS D
context lib
Ġcheck sec
Ġqu ality
Ġreverse d
TS WP
HR Net
rep points
Ġcmd class
Tra ce
off line
Ġpolygon s
Control ler
SEG MENT
trunc ated
article s
Decode Error
BAS IC
c ub
f armer
Ġ aggregate
Ġn an
Ġ' :
Ġs ac
Ġf cos
Ġb ounds
ul ers
str ategies
od m
Ġw d
", ),<
Ġ2 9
(" {
ĠF ID
ĠF ull
Ġl it
Ġcon d
ĠS l
RE LU
Ġpro g
Ġ: ])<
call er
wr it
tra ces
ENT ION
client s
sync bn
Ġmsg info
DO UB
}) "<
Ġprob lem
we et
direct ories
Ġvert s
fra g
LABEL S
Ġfreq trade
Step LR
Ġuv icorn
NG Key
ĠNew Type
ĠCor outine
ĠAc curacy
communic ate
CAS CADE
verg ence
E dit
F etch
M atern
V ision
i ed
k a
p aces
t ain
x z
re ferences
re cog
Ġt au
as r
__ ",
Ġc df
Ġi i
Ġo w
iz able
li ers
ser act
set ter
(" ")<
yp ass
IN D
ĠM P
ore gressive
bu iltins
ET H
Ġsc aling
ĠN u
ĠN ULL
Ġch o
pol icies
Ġcur riculum
ĠNot e
Ġpad y
CA ST
top ics
Not Exist
Ġcommon s
With LMHeadModel
IZ ERS
Action s
HR T
Rec ipe
DEN SE
Rot ated
flat buffers
fold ers
Ġflo p
inst alled
Ġpreprocess ors
sink horn
mc do
P ers
R EST
S ensor
S olver
T ool
T ags
] ")<
] ].
a id
b on
de pendent
al most
di fference
Ġc r
ot or
po c
sc orer
Ġl iteral
DE TR
CH O
ĠR ES
EN UM
12 80
Ġco v
Ġu gettext
ĠN on
20 16
Config s
min imal
Ġch anged
FI D
iel ds
Ġbatch es
33 3
exp ress
Test Model
ak ed
ound ing
Ġle ast
Ġcall er
DOC UMENT
sql alchemy
Ġbin ance
Ġframe work
ĠGener al
sens itive
ĠST ATE
TRANSFORM S
Ġcallback s
CATEG ORY
Ġschem e
ĠName Error
> })<
B ear
O rderedDict
s ac
Ġ ERROR
le af
al th
an ces
Ġin side
Ġb r
ĠT r
Ġh yper
ĠF LA
Ġl ut
Ġcon version
oc s
min or
fix er
flow net
Ġpl y
File Descriptor
Ġz lib
seq s
Ch allenge
ref s
PL UG
COM PL
ĠRes Layer
now led
User s
Ġobject ive
perm utation
Ġoptim izers
assign ed
ater ial
dr n
MM CV
ĠEn vironment
ĠIndex Error
ĠXLNet Config
ĠGateway Dispatch
KIT TI
" ^
' ^
1 12
E PE
F ROM
P CT
R N
Z ero
] }<
c utoff
d set
p rices
r mi
s st
} &
Ġ randint
im plementation
er ation
Ġs ure
Ġ" (
Ġ" ..
ĠT ree
Ġh ue
Ġd c
co ins
num eric
ĠI Python
Ġdi lations
Ġk configlib
Ġse en
ĠN O
conv entions
In f
Ġth ere
sp acing
Ex pected
ĠĠĠĠĠĠĠĠĠĠĠĠĠĠĠĠĠĠĠĠĠĠĠĠĠĠĠĠĠĠĠĠ ĠĠĠĠĠĠĠĠĠĠĠĠĠĠ
ĠW av
Ġpo co
exp erts
mark ers
tx s
Ġext ras
factor ies
prob ability
Co in
SH AD
Qt Widgets
super vised
Ġuni form
Project Admin
Ġparent s
coord inates
Ġtr iton
gre es
Ġme v
visual ize
LICEN SERE
COLUM NS
Boolean Field
landmark s
Ġ{{ _
tschchart series
LICENSERE QUEST
A uditLog
B TC
B inding
M ER
R emote
S ur
e h
n op
o chastic
r Dict
t ract
} .")<
Ġ es
im ap
re cursive
st ft
ch id
Ġp join
Ġp layer
um ps
Ġa z
pro du
ĠS U
Ġst udy
Con version
ON LY
Ġv s
ĠB LOCK
Ġcom pat
ĠH AS
Base AutoModel
pb r
Ġmean s
PL ES
rot mat
Ġpad x
Ġstat es
Box es
tr iton
Ġspec s
prec ate
augment ations
ĠXLM ProphetNet
LIC ATION
GROUP S
OPT IC
ocr net
coord inate
comp act
bal anced
Self Attention
Rel ative
Ġvol ume
BottomUp CocoDataset
ENG LISH
FILL ARCHIVE
Medi a
RAND OM
CONTRO L
ĠTRAN S
SHAD OW
BaseAutoModel Class
) "
: %(
E LU
N eck
O D
V PN
b ridge
c elery
n ll
s b
v ox
w g
Ġ iters
en n
am il
Ġm k
Ġs f
is ing
Ġd z
util ity
ĠD CN
nt uple
EN U
que ues
St eps
reg s
)) )))<
loc ated
ition s
nd image
layer norm
AB S
Re ason
EX P
ak ing
sk in
INFO ARCHIVE
over write
Pool er
title s
ityscapes Dataset
dump ulator
Ġbound ary
can vas
Ġcos ine
Ġmix ed
BUT TON
Ġur lopen
ĠDistributed Sampler
ĠGet RootAs
ĠRet ri
circ le
ĠMod ulated
Ġpyp lot
. %
= >
F ET
H ot
S lice
S olarize
` ,
u ally
} [
Ġ er
Ġt alib
Ġn a
Ġn s
Ġf requency
ag ination
int ers
Ġw arn
ĠF P
ĠS A
num ba
ument ations
() [:
mo ving
RE C
Ġpro x
AN N
Com position
Att n
Ġgener ation
ĠModel Output
Trans action
Ġoptim ization
CHART AXIS
ENS OR
super user
OPT ION
NE W
Lazy Tensor
Ġ'{} '
PAN OPTIC
sess ions
ĠSign al
ĠTop ic
gI CA
ĠNOR M
! \
. '
L ESS
N AS
S i
S ink
S HEET
T W
V OL
c lock
f ds
m ish
s ine
y outube
st mt
Ġt sv
from hex
__ =='
Ġ" |
Ġret rieve
Ġ0 000
ĠS plit
ĠS ource
Con cat
ET TE
ST RI
us r
Ġdi ce
ale ct
Ġpy tracking
ĠN ON
ac ency
Ġth en
arm v
AP PLY
Ġdist s
ĠRes idual
Sh ort
ĠPro gress
Ġter ms
}) ")<
ane se
Ġtri angles
ĠRo I
Auth enticated
Self Output
Sign al
Ġstar kware
Ġnv ml
feed forward
EXEC UTION
Ġag ain
Direct ive
oin er
Pytorch Model
ĠWEIGHT S
, :,
E lems
M R
O G
R est
T er
a che
f ollow
g auss
m x
z illa
re cognition
de epspeed
ch amfer
an cy
Ġp w
ra vel
Ġs runner
un er
un ity
Ġb ook
Ġ_ ("
Ġnum Elems
qu eries
train able
Ġde ltas
ĠP auli
get value
Ġout s
Ġres ized
key words
Ġpre dicate
Ġun ifold
Ġtrain ed
24 0
Image Ops
sub parsers
Ġon es
ĠData Parallel
Ġinter sect
her it
Se ction
wh ether
content types
REG ION
Ġlib raries
Ġ` `
ik o
serial izer
account s
difi er
document ation
ĠBasic Conv
ĠPer mission
ĠSw ap
OFF SET
crowd pose
VID IA
rott le
ĠTransfoXL Config
Ġlex icon
D est
F LOW
G A
N ull
P adding
T ok
T MP
V ol
f info
g ap
r le
s ch
y t
Ġs sim
con ll
ap anese
Ġl amb
vi a
ĠS ampler
ER A
att rib
da emon
16 9
IL D
pos able
000 4
ĠCon cat
AP ES
AG RAPH
Ġcur rency
ponent ial
Ġblock chain
ĠJ son
light s
PAR AGRAPH
PRE DEFINED
Num py
Feature List
diag onal
ĠInput Example
Ġcomp ressed
delet ed
ĠPO INTER
NEAR EST
express ions
__==' __
> :
b ul
f ri
l am
x e
Ġ entropy
im lane
re m
Ġp g
ce eded
one hot
Ġd rive
test case
form atted
Ġx manager
ĠP ixel
ĠL AY
ge ometric
AR ED
Ġk pi
In sert
quest ions
Ġch aos
OT H
man agement
obj s
sys u
11 1
inal g
Ġcor r
az ure
Ġlib s
App Config
mix ture
Al low
Ġstream lit
Ġcre dentials
OB B
mi rror
Ġbyte array
XX X
Mark up
calculator s
PEN DEN
Ġalb umentations
C ut
C ategorical
N ames
P od
v dk
x min
{ <
st eam
lo sed
Ġre store
Ġp ct
Ġp ow
Ġs olution
Ġf b
int ypes
ot Net
Ġw r
Ġnp ro
Ġh mac
Ġ2 40
co pes
.. '))<
sh ader
ĠA TT
len dar
ĠM T
St andard
Ġu ses
RA P
ny u
Ġor i
ron in
sum er
Ġch apter
") ):<
") ))<
Ġ6 5
Ġal i
Ġstd dev
PR NGKey
Ġiter ations
Pre processor
order ed
ĠTF XLNet
color ed
CONFIG S
Ġtim ers
Ġmeta class
Process ing
Ġaut ocast
BU CKET
SK IP
dar win
ĠRandom Sampler
sn r
Ġref resh
Mark ov
Wor ker
PROTO COL
Ġleg acy
LET ON
ida api
ulner ability
icip ant
ĠNE CKS
) }")<
A bs
B enchmark
F FIX
J OR
L UT
M ac
S heet
T ech
T anh
V ote
V oice
j un
n ix
o ise
r atch
Ġ 99
at ures
Ġt i
Ġt ol
Ġret ry
Ġtorch audio
cl us
Ġg a
(' {
ĠF low
Ġx c
ĠS C
ĠS TR
Ġ3 60
DE PENDEN
ĠR ender
ĠG oogle
state less
rel ated
Test Suite
Pre set
Ġtemp or
User Story
EM BERT
pass phrase
Ġdoc utils
Embed dings
rec ated
gre ater
conn ector
WID ER
Over lap
Over ride
AUTH OR
ĠWor ld
eca use
MED IA
ĠPort Doc
={} ):<
DETE CTION
B lenderbot
I ts
L aplace
M ID
M ish
m nt
m argin
t g
ar ios
Ġin line
Ġb ig
ul ative
Ġ2 60
Ġj wt
AT US
=" ")<
ment ion
Ġk itti
ED IT
') ],<
UL AR
open pose
Ġdist il
Ġio us
Ġan omaly
ĠDe vice
ĠBert Model
Ġenc rypt
Ġposition s
Al bert
Ġmo dify
FUN CTION
Ġpri ors
web site
Ġbot ocore
Ġpool ing
Ġnon linearity
ĠApp Config
Init ializer
ĠBox List
stra ints
NtUser Get
Ġagent s
POOL ER
fu sc
SIGN ED
ĠMM DataParallel
ĠAdam W
Mon itor
ĠMULT IPLE
attach ments
ĠMinkowski Engine
Its Me
' d
C r
M aster
O VER
a ic
b ra
b py
i loc
m ilestones
p f
w rong
Ġt v
Ġre play
Ġp cd
Ġs x
Ġf armer
il inear
li sion
ĠT arget
init ions
Ġcon fidence
nt s
ĠM ean
com par
=" #
ĠR ef
Ġpre tty
Ġe ItsMe
Ġ4 4
Ġcom bine
view code
Ġmin imum
dec ision
amp up
Ġ{} \
sk learn
ĠTF DistilBert
PI VOT
Batch Sampler
Ġtim est
Ġprocess ing
Ġdecode d
Sub scriber
("/ ",
serial ized
leg acy
lang s
edit or
Device Get
Ġsin c
APP LICATION
every thing
nlp d
separ ator
ĠApplication Command
umb el
vest er
punct uation
ĠQiskitNature TestCase
( ...
) ',<
= __
J OB
P ower
c dn
d uplicate
h ide
p li
v l
x ffffffff
Ġt ran
Ġn t
lo s
Ġ' +
Ġb ind
od ome
is k
Ġh at
ĠF ace
Ġl on
Ġde g
ĠD DP
ĠA ND
DE CODER
ĠB i
Ġex pect
da ily
Ġtrain able
loc ations
AM L
Conv olution
Arch itecture
PR ETRAIN
Ġrequest er
Ġatt empt
not ifications
Process Model
decode d
FORM ER
Ġoffset s
return s
lab orator
Fl ask
temp dir
USER NAME
Ġquant ity
Ġcar l
blob s
ĠAn chor
TASK S
######## ########
anim ation
EXAM PLES
ĠHT ML
SCHE MA
NEST ED
B S
B oost
I SH
P ReLU
r v
t rim
v df
z oom
Ġ INT
Ġ vehicle
st udy
ar rays
Ġt ick
an om
Ġg u
ĠT woStageDetector
Ġ_ ):<
Ġh r
(" ",
Ġis file
sh adow
ĠL ambdaLR
Ġr x
Ġse verity
reg istration
Ġtf m
ĠG B
AN SW
sp loit
chem e
FA ST
Ġ7 36
Ġdet ector
Ġ"" ).
Ġstart ing
Ġatt ach
Ob j
mm cls
NO VEL
Classification Data
wise Separable
Ġmatch ing
return code
Ġap if
ele ms
Item s
Op code
Qt Gui
Ġassign ed
BY TE
BY TES
Ġquant ize
vas z
Incre asing
Defaults HelpFormatter
' [
M agicMock
R pc
T woStageDetector
c ipher
o y
o auth
r sp
Ġ escape
as contiguous
Ġre comm
Ġf t
Ġo c
ed Dataset
ol ations
Ġb ottleneck
Ġb lend
il li
=' ../
Ġg ts
Ġ2 50
sc annet
ĠS cal
ER AL
ĠL at
Ġtyp er
ĠM S
St em
([ ^
VE D
Ġbu y
Ġopen prompt
OT AL
AG UE
au c
ĠTF Electra
BN ET
mult ilingual
Group Sampler
fin ish
(". ")[
Ġfin ish
Ġfmt str
mag nitude
Primitive Base
ĠMobile BertConfig
hyp ers
SHA PE
Activation Function
timest eps
CERT IFIC
Ġorient ation
ANSW ER
ascontiguous array
8 75
B it
F USE
S to
b log
m ore
v iz
Ġt ile
ut put
am ps
ur b
um ble
Ġs io
Ġs ns
Ġ1 12
Ġ1 15
.. ")<
(' <
ĠC ode
ĠC rop
logg ers
all reduce
sh uff
ĠO rder
pre processor
ĠM IN
() )[
}< /
Ġpy armor
([ ],
20 210
IL ON
DEL AY
rank s
UM E
Ch em
Ġreg net
Output s
Ġgener al
radi x
UB ERT
itect ures
Ġnetwork x
WAR D
("_ ")]<
Track ing
ĠGPU s
Mobile Bert
Shar pness
Ġdep loy
shortcut s
Capt ure
aload ers
HIST ORY
/ {}
B oard
D ice
Z ipFile
d df
g le
m chid
ar ity
Ġt ot
Ġt rg
Ġn est
et ype
Ġp assed
ur thest
Ġm ar
cl usters
il ds
est rel
ĠP lot
ĠP VOID
ĠL E
DE MO
av or
cu dart
db g
pon d
ĠW eight
Ġiter ator
PL AT
ĠEx it
ĠSt arknet
ud p
COMMAND RE
Ġstat istics
Ġthread s
sl ash
Man y
Ġselect or
ĠResNet V
Util ities
IMAG ES
TTk Log
TTk Button
Ġonnx runtime
Graph ics
ĠOpen AI
Ġform s
Quant ize
Sign ature
PIPE LINE
ni i
CHARTSERIES STYLEARCHIVE
Augmentation PrimitiveBase
CENT ER
ĠBig Bird
THREAD S
Ġpoc suite
A KE
F ind
P ACE
T es
V ert
W av
b ottle
i um
j k
j u
p db
p ull
q r
r er
s keleton
v stack
ar s
Ġre ferences
Ġp list
Ġm argin
Ġf ail
Ġi bc
Ġb lob
=' %(
Ġd river
Ġl ane
Ġde ps
ĠP ATH
ĠD es
pre p
Ġv uln
ST OP
ĠE val
ĠE nd
16 00
Ġmax k
lect ron
Ġtransform ed
ĠĠĠĠĠĠĠĠĠĠĠĠĠĠĠĠĠĠĠĠĠĠĠĠĠĠĠĠĠĠĠĠ ĠĠĠĠĠĠĠĠĠĠĠĠĠĠĠ
ts ds
embed s
Ġuse ful
strib ute
dec imal
LM PredictionHead
ĠIn Memory
Se e
lower case
EL D
Ob servation
Ġare as
Ġvar iance
Ġad apter
Py Type
Event s
go al
ĠBert Generation
acc ard
Ġpytorch video
Ġscript s
ĠDE BUG
rig id
Ġcy clic
truth s
ĠGroup Norm
ĠCont rol
Ġalph abet
Su ccess
ĠMethod Field
ĠAL BERT
PECT ED
Ġai ogram
ĠNoOp Transform
ĠCu ckoo
pli fied
Ġhat sploit
" "<
. '.
> ]
A W
B ook
F REE
G S
H eight
N EG
S PE
V P
d g
s udo
v in
x nli
or ie
ct c
Ġs i
Ġi ce
Ġb are
up orie
con j
par dir
Ġd h
Ġde epspeed
sh m
CH AT
Data Keys
max k
mo dify
Lo op
vis ibility
ĠG CL
ac a
Ġ7 04
Ġle ss
Sh ift
Ġ100 000
Default Dataset
Spec Set
ĠUser Dict
DET ECT
Ġsym bols
CAL CUL
Do es
ĠNorm Type
Ġdense pose
('_ ',
SU CCESS
1111 1111
BOOL ARCHIVE
gc net
TENSOR BOARD
Ġrout er
Ġlet ter
caps ule
lectron ic
+ ",
. +
A FL
C amembert
G AM
N U
R untime
T B
V is
d conv
g if
l ut
s sent
de sign
al ong
et able
Ġp wd
di fficult
li ca
Ġ[ %(
res cale
Ġh a
.. ')<
ĠC all
ĠC LI
Ġv oice
Ġr c
ĠB oolean
RE PLY
fil ing
user content
inter action
Ġch anges
Ġback up
ĠK EY
ĠSt icker
plan s
Gener al
SP AR
Ġup load
Ne ed
diff usion
rout ine
ĠPar ser
extra ction
SAM E
ĠAtt rDict
ls x
ĠInt egration
repeat s
ava PyType
Ac cept
Ġvert ex
RoI Align
ĠIs ProjectAdmin
Ġmix up
empor al
fra c
ĠTime Limit
SY STEM
ĠIO Error
Ġdisp atch
ĠAN CHOR
Reduce Op
membership s
ales ce
Scor ing
Ġpublish ed
ĠKeyboard Interrupt
ssent ropy
) }')<
: /
> |
G ather
I ssue
N ested
O HE
T eam
Z X
f act
l ask
u ge
in vert
in uous
in structions
er ials
Ġn cols
Ġre cords
Ġp ages
Ġc ert
Ġf y
Ġf alse
Ġf rag
cl aim
Ġg ithub
Ġg ateway
po ssible
path lib
ist ence
ĠC pp
ay ers
ĠD ropout
ĠA gg
ĠA MP
ĠS GD
ĠO ffset
Ġto o
ĠR emote
input H
Ġu id
Ġab out
"] ):<
To Float
ĠV an
start up
Ġ8 5
DI ENT
Ġopt apy
sub command
PR ESSION
Ġreg ression
Ġ... ')<
pp m
Var iation
not ification
Ġle af
Sh ard
Det ail
github usercontent
Not ification
FIL TER
Ġjoin er
Ġli dar
>'' '.
Ġfin ished
Ġ"_ "
INTER NAL
End point
Pol y
Ġdoes n
direction al
tick ers
DK MT
SU FFIX
ĠConnection State
Visual izer
Next Sentence
fly ing
IGNOR E
Ġtermin al
Propos al
Ġlit ex
Bear er
Ġnpro cs
) ['
C riterion
E U
F ields
G DB
H ex
P ITCH
Y E
] [:,
a iga
b anner
f akes
h h
m igrate
re cogn
al ive
al go
et he
Ġp ut
Ġm t
Ġm ut
Ġm otion
Ġc rypt
Ġf e
Ġb pe
Ġg db
Ġg auss
ĠT ASK
ĠT emporary
Ġw rong
file obj
pl aint
init ed
ĠF OR
Ġl andmark
ĠP AR
ĠP erson
ĠS igner
ĠL egacy
out dir
Ġv iz
ial og
oc i
ET ED
point cloud
Ġe ven
Ġen semble
ĠE lement
In ternal
Ġparam iko
plot ting
ampl ers
ĠW AR
Random HorizontalFlip
ĠSt ep
Ġpatch es
spect rogram
'' ''
lat in
long est
Ġsign als
IZ ED
ĠZ ipFile
Ġ40 4
SPEC SET
SPEC BOOLARCHIVE
Question Encoder
prox ies
ĠToken ization
Cur ve
percent age
percent ile
Tim estamp
Ġqt pylib
ĠBO OL
. ],<
= "<
N ESS
N ECT
P egasus
T erm
T OTAL
V A
W atch
g id
g ui
h ave
l xmert
s ized
Ġ END
ct an
pe destrian
Ġ' *
ra ce
cl ist
int rinsics
ult aneous
ation al
Ġh om
Ġh ello
pl at
ĠC an
ri ct
Ġ{ },<
Ġy aw
ĠR EAD
norm als
Ġcol l
Ġk v
Ġco eff
Ġsh are
Ġ5 1
Lo ihi
ir t
sp ans
Re port
DI FF
Ġrun s
Ġadd itional
amp us
dent ial
Ġby ref
FO UND
BO P
BO DY
Ġtrans pose
SP P
Det ails
last ic
Ġlib c
TF lags
ResNet V
style s
car afe
STYLE PROPERTIESARCHIVE
('/ ')<
Ġ36 00
atter ns
ITION AL
CM D
AST NODE
rest oration
Selection Transformer
CD Client
UOffset TFlags
ĠTFF laubert
ĠBCE WithLogitsLoss
CUB E
SHADOW ARCHIVE
ĠAgg reg
ethe us
9 80
C art
D M
D one
D if
F REQ
L C
` <
b oth
f all
g h
l relu
n ob
s olarize
t ect
re w
re con
ar ly
le ave
le aves
un der
ent ed
ab orn
om b
Ġg dbscript
ĠT TF
class ifiers
Ġl azy
th umbnail
ĠS ync
ĠO pt
Ġcol ormap
Ġ5 000
code d
CO UN
Ġth ird
loc ale
grad fix
open cv
FA CT
mark er
prefix es
Ġext end
pytest mark
ATE ARCHIVE
Text Field
Ġenv s
ĠJ oiner
do or
SET ARCHIVE
flatten ed
ĠArg s
Mix ed
ĠSer ies
si red
ĠForm Field
bal izer
yolo x
WITH DRAW
ĠPartial Emoji
mobilenet v
ynchron ize
TST Archives
Ġcook ie
comput ed
ĠDat abase
ANNOT ATION
Ġapif lask
I AN
L T
M UT
W T
] "<
b ag
g w
o ve
p ens
r ink
v v
Ġ videos
re ceived
int ensity
Ġg pc
Ġg rowth
(' #
ay ment
add itional
bo ost
ĠA pi
ĠS emantic
'] ),
Ġel apsed
Ġget text
() ["
flo p
att achment
[: ]
ind ll
To Fixed
ĠV AR
") ],<
ix Path
Ġkey words
rect angle
ĠW armup
Ġ7 4
tra ffic
EX PORT
TO OL
ĠIn ception
Po le
EL LOW
Ġper missions
API View
az el
Ġaut omatic
Ġgener alized
pass ages
Annot ation
ĠAl low
END ING
Ġnon ce
ating FileHandler
ĠDocument TestModel
xl im
report s
INTEG ERARCHIVE
EXEC UTE
clar ation
ĠTFA utoModel
ĠRelated To
Ġsubmit it
Ġprox ies
ANSWER ING
, :]
> ")<
B AD
C ALL
F ea
F BNET
R ULE
a arch
b rain
l x
m ime
p per
Ġ( ((
ĠC D
ĠS ent
ĠS patial
ple t
Ġv map
key board
Ġr nn
Data Store
Ġ4 9
ang ent
ang ular
ĠU SER
Lo aded
sample d
ger man
UL ONG
cur ry
UN DOT
Th eme
spect ral
RAN SACTION
pc d
Ġseg m
car ds
SC ORE
Ġexec utable
AND ARD
Auto Mapping
ĠTS CH
Ġida api
loy ee
SAMPL ING
ĠForm Component
Lazy AutoMapping
LINE AR
ĠTime out
Ġvi a
qt pylib
Ġbutton s
ĠRelated From
TIM EST
ĠPublic Key
DIRECT ORY
abb rev
ĠFrozen BatchNorm
FON T
ĠTTF ont
) },<
N P
O UR
Q Rect
R NN
S in
Y Y
[ __
a h
h ow
l bow
o ss
Ġ ENGLISH
in ventory
st able
arg ate
ad ing
Ġtorch testcase
ag ers
ĠT R
Ġw atch
to h
Ġh y
co pt
ri ck
IN O
ĠA li
ĠS ET
ĠL avaPyType
Ġst uff
ĠM ult
=[ .
ip pets
Ġdi stances
Ġpy mongo
np a
tf d
Ġcom mit
Ġ'. '
Re place
Ġmin imal
ne o
Ġim read
PO WER
PR ESS
Ġ... ]<
sw e
MAG E
Bert Model
Bert TokenizerFast
acc el
Ġcan vas
na ive
("/ ")<
[[ ],
Ġlocal config
IS O
ĠMulti ply
ĠForm Group
lex icon
entic ate
tick er
Ġcoord inator
Seq LM
CP P
Select ed
Sign ed
CHAR ACT
va lent
ĠFlash Registry
Estim ator
ĠSTR ING
QRect F
C ho
F ir
F rozen
L xmert
L ayers
P ress
Q P
Q LA
U A
W Dataset
X M
] \
e o
h df
h flip
l hs
m rec
r limit
t ight
Ġ filt
ar pness
Ġm apie
Ġc oder
el bow
Ġas pp
py ter
ex pect
Ġ__ _
IN K
ĠP ad
ĠS ER
ĠO SI
Con stants
load ers
com bin
com pany
Ġr m
EN SE
fo ve
Ġsh ader
Ġun register
Ġpro files
Ġthe ir
read me
Ġmax val
Ġcom pose
index ed
core file
For NextSentence
Ġim packet
tx id
={ },
TO PIC
ĠSt age
pack er
sk etch
Set ting
Th umbs
State ment
sin usoid
Ġsu ch
Ġfrozen set
require ment
Al gorithm
SPEC INTEGERARCHIVE
GRA DIENT
partition s
AC COUNT
ĠCustom Dataset
ĠNorm al
Ġpin out
rit ing
hyp othesis
ĠAp proved
prun ed
ighb or
Red uction
EXAM PLE
synth etic
crypt odome
PATTER N
LANGU AGE
ĠTemporary Directory
ForNextSentence Prediction
( .*
A CH
D ot
c py
j apanese
m es
u f
Ġ its
er ance
at al
re cor
st ub
it a
pe er
Ġc utoff
Ġo ur
iz ations
Ġb ic
Ġb np
ap l
is on
ĠC y
ĠF unc
Ġde leted
ĠP rop
ĠD LA
Ġcon tour
th re
ĠA RA
ĠA cc
get her
ĠO p
Ġr fp
ĠR ect
art s
check er
max pool
Ġ5 4
Ġconfig ured
Ġor g
ĠV I
ĠV ision
IT LE
sp ider
Ġval idators
inter faces
SE CONDS
ized Program
block ed
Ġabs path
For Seq
33 33
Ġim agenet
ĠTF T
STR ATEG
De berta
Ġstate ment
Ġ". "
Context Encoder
ee ded
Ġcan onical
Ġorder ed
Ġ"/ "
Ġalign ed
cut mix
mid dle
Pi ckle
ONG O
STAT IC
Ġclean up
comp ressed
:` ~
ni que
ĠLe arning
ĠLongformer Config
ĠUni form
ramid VisionTransformer
Ġsqu are
PERM ISS
ĠStop Iteration
bul let
ĠARA BIC
" '
> '<
? ?
B box
G IT
H el
H yperparams
K X
L eg
M ut
S ame
S ynth
` ."""<
b wd
g cp
g rouped
k ps
m ass
p ron
q n
s aturation
in ing
Ġn point
Ġre present
Ġf al
ĠT ORCH
ĠC osine
ple x
Ġr le
Ġex change
Ġk l
Ġe uporie
LE AGUE
read able
Ġtransform ation
Ġ12 2
pr imitives
Ġdo ctest
IM READ
Ġsession maker
Ro BERTa
Function s
TF PreTrainedModel
lap lace
non local
Ġpost process
Lib Error
Ġalign ment
OB J
ĠSc raper
Ġscen ic
GRA PH
ĠClass ifier
ĠThread PoolExecutor
mi di
Ali as
Bl ack
multiple s
Rel ation
Ġck pts
CHARTSERIES STYLEPROPERTYCHANGESETARCHIVE
ĠMin os
Ġsl ug
ĠCallback Query
Ġremain ing
Coord inate
Ġblack list
nav ig
ĠAss ign
ĠNON LocalBlock
Does NotExist
" .<
" },
: ')<
> ================================
C AT
D G
E K
I dent
K it
M Q
R untimeError
V ERT
c net
c annot
c ision
e ager
g ly
s df
t tf
u offset
v net
w ik
w ider
| \
se mb
Ġt rigger
Ġin vert
un ary
up s
00 15
nn UNetTrainerV
ĠA D
ĠM enu
key ring
text Tools
loss ary
Ġe os
ĠU P
Ġtf p
ml t
Ġmax es
ĠV ocab
Ġ10 2
Ġpl s
Image Enhance
embed der
Re cognition
UM P
SI M
ĠBase Sampler
pool er
Key Error
Ġclient s
DA Y
Element s
Per missions
Wrapper Dataset
('/ ')[-
ĠDi rect
Form ula
Act or
Custom Attribute
ĠST Res
ĠTrans lation
TRANSFORM ERARCHIVE
\. \
ĠAsync Iterator
velo per
Scen es
Pri vate
ĠIN VALID
Select or
Ġdot env
Ġprop erty
Guild Channel
/* /
ĠWor k
pag eno
LOC ATION
PREDI CTOR
Ġeq x
Pix map
lett ers
Ġcapt ure
FewShot VOC
Ġrespon ses
frag ment
ounding Box
inters phinx
shm allow
B AT
E Q
E p
H TT
I gn
M ost
P in
S UP
Z IP
b id
b float
h ints
m pi
x FF
} %
Ġ kw
port ion
ar ctan
Ġt iny
en ix
Ġn c
ut etable
Ġ' *.
Ġ" ,<
data root
Ġb w
ran t
Ġh sv
co o
ĠC ar
ĠF eed
ĠS Y
ĠO K
ĠO N
ep ics
AT ES
ge o
[: ],
RE LATION
Ġ5 2
Model Admin
Ġfile list
16 8
Ġab stract
ĠV ec
ĠH R
ĠH igh
ant ages
Ġch i
") ]
Image Classification
cat es
mark s
wr ites
tra cer
Ġ... ],
Block Base
build ing
Ġop enspeech
mm pose
ill ary
rol lout
Options BufferHasIdentifier
ĠCo py
go v
Map Archive
OP C
Bu cket
Ġprob ability
Dist OptimizerHook
ĠBox Mode
Ġlaunch pad
AI R
RPN Head
EP D
Rep r
ĠFL Context
ĠEfficient Det
ĠFS MT
ĠBu ffer
HYPER CUBE
prom pts
ĠPrivate Key
jun nyu
Cart Pole
! !
$ ",
, )):<
C ard
N EXT
P e
P lay
R atio
T em
T LS
c ity
d Event
k its
n ans
p addle
Ġ entities
Ġ vectors
in line
de serialize
Ġt utorial
an on
an other
di d
Ġc ityscapes
Ġs aving
Ġ" )
cl ones
par a
ĠD omain
out e
dir path
com ments
=" %
() )]<
Ġres next
ĠR T
Ġdi gest
Ġk size
Ġse aborn
fo v
ĠE MA
ĠN umeric
ac le
Ġth eme
ĠH ungarian
ho u
AB N
Ġlog ic
Ch unk
Ġcl amp
PAT IAL
ĠConv Type
common mark
Register FileDescriptor
mm detection
ai red
cre ase
cre ds
53 7
Pl an
Ġseq io
vo vnet
SC AL
pie ces
Ca ption
Pos itive
Mo zilla
SO CK
clean up
RY PT
parameter ized
Project Perm
tool kits
Ġgl ue
adam w
Ġdense net
Evalu ation
SQL Model
Rep VGG
ENC Y
KNO B
ĠRet urn
Main Layer
Mobile NetV
Big Bird
Ġadv anced
Ġrelation ship
KER NEL
aze Env
Ġfides ctl
BRANCH ES
JOINT S
ĠHas ProjectPerm
Ġnix ui
clus ive
, :
C ertificate
N FT
P ure
S cheme
b an
f re
g em
h bp
p is
t run
u func
y mo
y aa
Ġt rading
Ġc sr
el apsed
py g
ap k
Ġl inalg
ĠA pex
ĠA vgPool
num erator
random ly
col lap
MO VE
CO ST
Module s
Ġth rough
tf m
Pro filer
Conv WS
Ex ists
count ry
For est
ĠImage Font
PR INT
ĠRes UNet
Ġca usal
96 0
Transformer Encoder
itt ing
FUN C
Util ity
Fl atten
Ġli ve
Mo dified
connection s
button s
Wh ich
Hor se
WH ITE
ARE A
Shar ded
ĠOperator Converter
motor cycle
Ġ201 9
hierarch y
ĠFix ed
ĠCpp Extension
FewShotVOC DefaultDataset
hbp f
ymo us
' }
1 99
G V
L arge
M ake
N LI
T OC
W rap
a N
b lend
p wn
p otion
q at
s phere
t ax
w arm
y uv
al ist
Ġ' ',<
Ġin file
py cryptodome
ĠT PU
test Tools
ĠL M
Ġst ock
ĠM A
Ġv m
Ġy et
ĠB lend
Ġex pression
MA JOR
AL PH
Res cale
Ġnorm als
batch size
') :
ĠW idget
Ġpo ssible
dec rypt
assert Is
EM PTY
ear ly
Nt D
ans i
Ġdis abled
Inter mediate
VOC Dataset
AV A
Ġjob s
Ġma ha
mn asnet
stop ping
Pol ygon
Sample s
etun ing
ĠPl ain
TRANSFORM ERS
Over write
("% #
Ġge ometry
rupt ed
Ġcontrol ler
ĠUp date
MON O
clu ding
CLU DE
Render er
Ġtrun k
PREC ATED
BUFF ER
ĠFID Inception
PLAT FORM
Ġcrypt ography
. ),
G oogle
K Dataset
V ocab
f lex
f elt
g ens
h op
k config
t q
in file
in clusion
ort oise
se en
st udio
Ġt m
al ter
Ġf ed
un ix
Ġb undle
Ġg rouped
Ġ_ ('
Ġos path
to wer
Ġh ref
Ġd d
Ġd on
pl r
ĠC lip
form ance
ĠF CN
bo s
Ġcon straint
ĠS olution
ĠM ish
ĠI o
CH AIN
att ack
Ġex ponent
Ġse cs
scri ptions
Data Pipe
Ġthe y
IT ES
Ex periment
arm ored
Log ging
MODEL ARCHIVE
Ġpi x
ĠĠĠĠĠĠĠĠĠĠĠĠĠĠĠĠĠĠĠĠĠĠĠĠĠĠĠĠĠĠĠĠ ĠĠĠĠĠĠĠĠĠĠĠĠĠĠĠĠĠĠ
Base Dataset
Base LazyModule
Ġ6 1
Re lease
Ġob servations
EX PECTED
Im plementation
TT X
Ġgrad grad
ai ku
conf test
LA ST
exec utors
Ġsign ed
Ġchar acter
Ġstream s
ĠRo BERTa
atom s
shift ed
fb net
she ep
Resource Permission
quad ratic
sink i
hard ware
UCT W
pag ination
ĠAd min
Ġ'.. ',
~~~~ ~~~~
Ġprun e
ĠPosition Embedding
FEATURELIST S
QUE UE
CEL ERY
THE ME
ĠHO OKS
ounce ment
$ ',
2 20
B MP
H LR
P ERS
S pan
_ [:,
f fi
j hu
m f
r x
r di
r sqrt
s f
ct or
Ġn eeded
Ġre scale
Ġ' (
Ġb ecause
res idue
ĠT FO
par agraph
em d
ic o
Ġ2 30
pro fit
(' >',
Ġx r
ĠP open
sh arded
ĠA uditLog
Ġnn UNetTrainerV
ĠO PT
list en
=[ [
pi vot
Ġr box
fo x
dim ensions
St d
Ġ4 7
ph oto
ign ored
stat uses
label map
ĠG rid
Res olver
pos ix
Ġcom bin
Ġch ainer
AD J
") :
CON NECT
Ġmin utes
Ġ[' ./
wr iters
man agers
Ġinter n
prob a
Random State
Ġcor pus
CA PE
auth entication
ĠY uk
GE O
activ ate
cr f
Dis play
can didates
IF Y
EPS ILON
INIT IAL
ĠSimple Namespace
Ġph one
ĠAdd ress
Smooth ing
Ġexception s
CR ITICAL
Temporary Directory
Sec ret
poster ize
Ġpipe lines
Ġschem as
ĠCa ffe
ulner able
BI AS
ĠDown load
ĠFI LE
STY LES
ĠContent Type
ĠAtomic DataDict
DETECT RON
SelectionTransformer Archive
CHARACT ER
PERMISS IONS
HLR Sampler
C ampus
D J
D L
G uid
R LIMIT
S ome
S catter
V ATE
b ench
p q
s at
s pi
ort ions
Ġt d
Ġt ail
it ation
Ġre fer
fi sh
Ġ" %(
Ġas set
Ġb ootstrap
li plr
Ġnum Shifts
Ġd set
Ġd ay
co w
Ġl mb
ĠA DE
ĠS aga
Ġj itter
Ġ3 7
torch script
() [-
op ener
EN DER
Ġco alesce
Ġ5 3
col lator
Ġpro d
In struction
Ġtf lite
fl uid
Ġ% <
pen AIGPT
)) ),
Ġcom press
') ])<
SE COND
AD MIN
Base BBoxCoder
cur riculum
Re pository
mon keypatch
Ġbase line
FA CE
row n
{} \
Po sterize
Ġop code
IC ES
NO FILE
Ne St
avg pool
Ġnormal ization
SC AN
Al ert
handle s
ĠPY TORCH
osp ital
vers al
Auth entication
ĠQue stion
Ġ[{ <
Ġws url
Semantic Head
Ġhe ap
rott ling
reed y
ĠAx es
FLA X
ĠLight ning
ĠSUPPORT ED
ĠLAY ERS
GAM MA
' "
) //
= ="
A ng
C u
C ityscapesDataset
O ri
P seudo
R cmd
S ender
V v
c art
f ingerprint
g lish
l chemy
y lim
im ate
er ated
ch a
Ġs ite
Ġf ft
Ġas m
Ġb ord
om l
ap der
nn er
pl aces
ĠC amera
ĠP ororo
ert urb
th ickness
ĠO ptions
ES CAPE
per ating
com poser
ĠI MAGE
col ormap
Ġun quote
conv ex
CK PT
FI RST
Ġro ll
Ġopen api
Ġlog x
sub mission
mark up
copy file
Ġid c
UN E
Ġbe havior
Ch at
abs l
Ġtra jectories
sk y
PI SAR
IG N
Node Archive
Ġ15 3
ĠRe LU
Ġsum mar
Trans piler
ĠReg Net
gb m
SC Net
Style Property
Ġrender er
Ġsim ultaneous
lst m
Ġmon itor
tom l
ĠState SE
uln Scan
DD P
Ġge om
tl br
INST ALL
Deep Fashion
Learn ed
Positional Embedding
vf net
ALLOW ED
oct ave
arman r
Ġaz ure
aiga ResourcePermission
QLA lchemy
pwn dbg
Ġsimultaneous ly
= .
B F
D H
D uration
D ONE
T Model
V Q
Z ERO
a es
c atch
l c
l and
p wd
s id
in ct
Ġt urn
Ġt range
le u
Ġp atterns
__ ))))<
pe ar
Ġm icro
Ġm enu
Ġc c
um i
Ġ' ').
Ġf pn
li ps
ig er
to e
ist ency
sc ratch
IN Y
ĠP rom
ĠP RI
pre ferences
Con st
Con fidence
der iv
Ġr limit
point net
check s
check able
St roke
ĠE moji
float ing
Ġdat as
db t
Res ID
with draw
Ġsub class
Ġsub list
]) ),
trans port
Ad dition
eck o
MAP ENTRY
{} ,
Mask Scoring
sent iment
enc net
sm iles
Ġmock er
search sorted
36 8
ĠPro file
API Object
ĠDataset Dict
ĠY eh
Ġ'/ '
Id x
neg ate
comple tion
ĠBasic Tokenizer
bi jection
ĠTransformer Encoder
gre y
Ġdomain s
NtUser Set
Quant ized
Light ning
DES C
watch ers
fu zz
ĠQuant um
Ġperform ance
circ uit
Ġsepar ate
Cosine Annealing
iso format
ĠSoft ware
Ġrule s
BIN ARY
JPEG Images
Ġestim ate
ĠRO OT
relev ant
Ġld ap
Optim ization
Ġlearn er
cour se
Animal Horse
Ġchem ical
DOUB LEARCHIVE
ĠMP Net
toh oku
$ ")<
4 0000
C Z
E E
G Y
G u
I con
P erson
Q SM
S peed
T itle
U sed
Y our
[ \
b ernoulli
d ns
g x
g iou
k o
m os
n P
n bytes
n vidia
s av
t le
w p
Ġ ,<
ar a
Ġre ceive
Ġm embership
Ġf o
un signed
Ġtorch arrow
ag ate
Ġ[ %
ĠT ele
par ity
Ġd ashboard
pro ve
ĠP ass
ĠP art
ĠP ly
ĠD on
ĠL CDClient
bu y
ST AKE
op code
by t
ĠN AME
head Attention
iv ot
IT K
ED A
Conv AWS
Ġro busta
Ġbuild ing
gr p
ĠW HERE
UN IT
Set up
ĠTF Conv
fast api
Sh adow
Ġdo uble
ĠRe port
../../ ../
git lab
tr uck
Ġproject ed
URL S
Ġ"\ \
Trans lation
ĠFl atten
instances only
Ġevent let
Pl anner
Al pha
:] ])<
Op Code
Ġ'_ '
ĠNamed Entity
Ġtrack ing
GENER IC
Ġstack ed
ĠSimple ITK
Ġcoord inates
Ġur is
Ġflo or
tre nd
Ġpe er
____ ____
Exp and
trunc ate
Ġsuccess fully
NUMB ERS
Disc rete
Ġsn apshot
Prob ability
ApplicationCommand InteractionData
MIX UP
Ġff mpeg
VALU ES
ĠDiscord Exception
ASTNODE ARRAYARCHIVE
UNDOT RANSACTION
1 40
C fg
K L
M aterial
R ENT
S y
S ho
W r
d ynam
d anet
e hicle
m pre
m ute
p ype
p list
p nts
t span
z d
z zer
im s
re ens
am ing
et ter
Ġm im
Ġm ong
Ġi g
data pipe
Ġg rpc
ĠT CP
Ġw ould
Ġd dt
form ula
Ġl hs
ĠS p
ĠS chedule
ĠO UT
Ġst mt
ĠM NIST
ment al
ST EP
ĠR est
norm path
Ġk s
Ġk ubernetes
Ġpy doc
opt una
Ġ5 9
ĠN aive
Ġtf imm
MO UNT
[:, :
AL Y
equ ip
no isy
OT A
AG ENT
Ġkernel s
Ġdet ach
ĠSt art
ĠTF MobileBert
Sh are
erta int
pass age
Ġsum s
scen ari
Ġac cept
Ġcan didate
ĠCh at
Ġport s
MET RY
GN N
ĠLog ging
ĠInt egral
Ġmark et
bi ke
gre Sql
NODE ARCHIVE
Ġalph ast
wi re
>> >>
Ġmem s
DIS ABLE
DIS PATCH
Deep Lab
Sec urity
Ġsepar ator
DR IVE
encrypt ed
OPER ATION
ĠEvalu ation
retri bert
oman ager
ĠExec ution
ĠIM G
Tes seract
scenari omanager
$ ')<
2 64
> ",<
A tomic
B M
B AR
C BC
D ead
K V
L inux
M LMHead
S n
S queeze
T here
a ched
c rt
c pus
h z
w c
{ "
} -
Ġ EN
im ation
Ġp q
__ ),<
__ ",<
__ ']<
el ative
Ġb chr
ig her
00 3
Ġnum erator
is finite
to w
Ġd g
pl m
ĠC lo
ĠC UR
qu ota
Ġl az
Ġ{ _
IN AL
ĠD ynamic
AT IVE
og onal
torch x
pi led
ob ert
Ġ4 6
RE DIS
ide code
20 4
CT C
)) ).
ĠH FlipTransform
ĠCon dition
DI F
ĠW allet
Col lator
Ġ7 5
so fa
EX PAN
ott ed
Ob server
Enc ode
Ġread y
Not ImplementedError
TR elative
Ġchar s
cut out
ENER GY
ĠRoberta Tokenizer
cell s
Pri vile
Build ing
SUM MARY
Prepend UOffset
ĠEncoder Decoder
cert ificate
capt ure
Language Model
tod ay
relev ance
ĠLxmert Config
Ġda emon
ĠSerial izedProgram
Vol ume
Ġmar shmallow
Hel sinki
PrependUOffset TRelative
' },
= \
? ",
E ye
F ULL
G U
G RES
M erge
P op
T ab
d pi
q iskit
s Base
s copes
Ġ rop
er al
st ein
al one
def s
Ġtorch rec
ag ne
li ve
ap ple
Ġw ar
Ġfor ec
to bytes
to uch
Ġ2 20
ĠC up
ĠF in
Ġl a
=[ ])<
text ures
Ġint ensity
Ġco verage
mo v
RE PO
VE C
script able
ĠH alo
Base Sampler
Ġ6 6
Ġal t
AB EL
cat s
---- -
Ġconv olution
tra jectories
Ġcur ses
Ġ| |
DIR S
Ġmock ed
yg p
host s
ĠCom mon
Ġlo ok
chain s
cent ral
Al go
READ ER
gg ed
Ġthresh olds
facebook research
sn ake
route Decorator
peg asus
ADD ING
mar ian
fixed Tools
Ġform atted
ANG O
bined Sampler
ĠMo vie
Hyper parameter
TST CommandArchives
ĠFunnel Config
Ġem it
increment al
Ġho use
later al
Ġnu scenes
ĠDiag ram
nowled ge
VPN t
ĠTFO penAIGPT
Ġlaz agne
PrependUOffsetTRelative Slot
Ġforec ast
" +
. ).
> ')<
A v
A CC
B LACK
G tk
H P
L ER
T x
[ @
f ac
k le
m is
m igration
m orph
u ss
Ġ ;
Ġ enter
im uth
in formation
in ygp
de grees
Ġp df
Ġp ear
__ '):<
Ġs ink
Ġf oot
un ded
ass er
ot es
ser esnet
Ġw er
to gg
Ġh flip
Ġh ospital
co efficient
ĠC re
sc ode
ĠF oo
Ġde Hex
ĠD ES
ĠS pace
ER C
ĠL ast
base dir
pre set
ransform er
CH ead
ĠR ag
Ġpy what
MA LI
max len
head ing
te ch
ib n
map ped
pos ure
aut osummary
ĠCon sensus
(( (
Ġpi e
Ġload mat
Ġro les
Ġal ert
AB LES
Com pute
no se
tra cing
Ad just
Ġparse XML
ĠIn vite
ian ces
ĠTF GPT
build args
Sh ell
cc net
Att r
Cont ain
bit torrent
err no
SH ORT
enum erate
Get Function
REGI STER
With LMHead
itt le
AA A
END POINT
Style GAN
ĠGener alized
ĠTS CEArchives
Ġma jor
Ġman ager
Char acter
23 12
ĠFlax Roberta
Ġmark down
asset te
support s
ĠRo Former
Ġsim ilarity
yd x
Ġip address
eng ines
visual ization
ĠWeb Socket
inc ip
Ġlin eno
Learn er
DateTime Field
REQUI RED
ĠCAM EMBERT
fea Lib
Sur face
DEPENDEN C
ĠScal ar
fove a
Ġpear son
ĠdeHex Str
3 000
A FE
O ff
P ast
S ENSOR
T P
V AE
W Conv
_ ",<
a ox
c sp
i u
m ise
p ublisher
s ure
t ens
Ġ ul
Ġ queues
re start
st rength
ct ree
Ġn sample
Ġn emo
__ _
Ġc d
Ġc ategorical
Ġ' &
Ġs oup
Ġf ingerprint
ce le
est ing
Ġg ap
Ġ( {})
ĠT ST
Ġ_ (
pl orer
and s
Ġl pips
Ġde pendency
ĠD IST
vi rtual
ĠA nn
OR IG
ĠM ENU
Ġto bytes
Ġy t
ĠR educe
Ġpy sen
Ġse ll
MA CRO
Ġsh ifts
Pro jection
for k
mat rices
sub module
wr ight
Ġinter preter
Test er
]] ).
hor izon
Ġcur ve
pat ience
enc ies
QU AL
bit m
OUT H
ĠFile s
TS D
ĠMO DE
04 47
Ġreplace ment
TER M
Ġsw itch
77 7
ĠDecimal Adapter
estim ate
ĠCustom Filters
Ġdiag onal
Selection Archive
detect ors
REMO VE
gu ard
ĠGlobal Context
Part ition
Mod ulated
Ġ'.. '))<
Empty Tensor
front end
Rew rite
ĠInlineKeyboard Markup
PAL ETTE
ĠDepth wiseSeparable
ĠHash able
forest s
cript s
gICA gICA
Overlap s
ĠYeh ao
ertaint y
aox ingyu
B one
D rive
F AL
F oo
G H
G o
L MO
M atcher
M inkowski
N X
R M
c ubic
g m
p aging
r ms
er RCNN
re cent
de legate
Ġt n
ut ed
di lations
Ġm pi
Ġm agic
Ġ' )[
ra pe
Ġf map
arg types
un yaa
set Up
res id
par sity
ĠC AR
ĠA da
config er
AT OM
ĠB ar
ĠB it
url patterns
opt apy
Ġu i
ang er
ĠE nt
Ġpro du
RA DI
CO PY
iv ely
=( ),
our ier
join er
To e
ir is
ifi es
') ),
") ).
Ġob b
ne ighbors
0000 1
0000 5
prob lems
Ġfeat map
ĠBase Exception
ĠSt ar
Ġtra jectory
Param Scheduler
mt p
Output With
Ġdown loaded
bs z
Trans port
orig ins
ĠUser Story
Ġlength scale
Ġoptim ize
termin ate
rep lication
MP Net
Ġav atar
FIEL DS
Plugin Field
Pri ce
COD ING
Ġstar lite
Ġgo od
Ġprop erties
VAR I
expi ration
--- <
Acc um
TSCH Archives
Ġrd kit
uu unyaa
bri cks
Ġplist lib
Curve To
irt ual
ĠAli gn
Pixmap Item
ĠYuk ki
DJ ANGO
Ġchemical x
reens hot
incip al
) '
F rames
F usion
G RID
M icro
S patial
X P
X y
] ",
c amembert
i ated
n m
s ions
u ed
u ids
u clidean
w v
} `
Ġ rad
im als
at ss
re ceiver
Ġt z
as pp
lo ok
Ġp ys
Ġm is
Ġm obilenet
Ġs win
int rinsic
ĠT ABLE
sc ed
ss pec
qu es
Ġde dent
ĠA UT
if e
Ġj pype
Ġst ored
nt l
pi ent
Ġr ampup
ĠB in
ĠB Box
ĠR EG
Ġe v
Data Container
St ar
ĠE lastic
min ute
ib atch
AS PP
)) }<
state ments
ĠH EX
ĠH eader
sp m
inter m
CK ER
cor outine
ĠĠĠĠĠĠĠĠĠĠĠĠĠĠĠĠĠĠĠĠĠĠĠĠĠĠĠĠĠĠĠĠ ĠĠĠĠĠĠĠĠĠĠĠĠĠĠĠĠĠĠĠĠĠĠĠĠĠĠĠĠĠĠĠĠ
sched ulers
---- --
sub sampling
40 3
FOR CE
au dit
List View
Ġ{} :
Ġindex es
Ġshape ly
radi ans
Ro Former
SH I
contain ers
sin ce
Ġhook impl
system s
SA F
aly tics
mix net
ĠPar se
sim ulation
GROUP BY
dri vers
---------------- ------------
sur faces
)/ (
nvml GetFunction
MB art
ĠTra ce
CHARTSERIES NONSTYLEPROPERTYCHANGESETARCHIVE
MAN AG
Ġshard ing
corr coef
ĠNe ural
Ġbi jector
ZZ LE
ĠCOM MENT
Ġincrement al
navig ation
ALPH A
togg le
EmptyTensor Op
nvmlGetFunction Pointer
? \
A b
B IG
C rowd
C ancel
D es
D BC
F ill
F CN
G ate
H ow
L ambdaLR
S ORT
S intel
Y AML
_ ()
b ash
b ott
c rypto
f arm
g ers
g lot
g lass
l on
t n
t an
in stantiate
al a
from string
Ġre m
et ics
Ġf out
ck t
con tour
ĠT apas
ap py
ap ess
Ġw In
Ġh In
Ġd om
Ġd uplicate
Ġd umps
co at
(" (
ĠC LIP
sc ii
ĠP RE
Ġnn former
ter ms
Ġj ava
Ġst and
Con sumer
son g
=" %(
() ],
Ġr mtree
ĠB ook
(). _
Ġun used
conv next
VE CTOR
ĠG dk
ĠG Lib
Ġth ree
Ġth ickness
Ġcom bined
coco eval
ca i
cuda Mem
Ġpi ck
Ġpl anet
Ġro om
Ġ12 34
Ġz one
UN C
ql ite
Ġiter able
Ġmat erial
Ġ9 2
lic ations
command line
Sc reen
build ers
redu cer
be eref
Ġup dates
Ġcor rupt
itysc apess
ill ar
do ctest
VER BO
Ġ& &
Trans ition
("/ ")[-
Start ing
ĠAl go
Check Return
TS CEArchives
NOR MALI
Back ward
Ġacc el
GRA D
orn ia
07 12
POST GRES
ĠCOCO eval
nvml CheckReturn
Ġ[{ '
Attribute Error
Ġtrunc ate
aux iliary
ĠDPR Config
Ġperiod s
Logits Processor
ĠEfficient Net
ĠScale d
Export er
Paint Format
Copy right
Neg ative
Uniform ConcatDataset
denom inator
Orig inal
ĠSAM PL
TSWP Archives
PLUG IN
plaint ext
Most ly
cudaMem cpy
ityscapess cripts
+ ')
> *
H uman
P AP
R ound
T A
Z I
f olds
g ro
g rowth
m gr
m agic
n ed
p ur
s an
t c
t weet
v b
v p
w y
w ish
in ery
de posit
le ast
Ġre cv
Ġre lev
et ry
__ :<
Ġc b
Ġc ityscapesscripts
Ġas cii
id oc
Ġ( .
em it
Ġh d
co sm
ĠP ayload
Ġcon straints
ĠS ee
Ġnn fs
'] ]
DE PRECATED
Ġr f
ĠR ED
ĠR OT
Ġe uler
np ack
:// "<
AL U
IT ECT
AN ALY
aut ocast
Ġro uge
Base line
Ġ6 7
Com p
resh old
0000 6
AG G
Ġinter pol
Ġ... ")<
ĠK e
raw l
COM MENT
Ġtra iling
ĠPy ramidVisionTransformer
En semble
Ġcor ruption
abc def
Ġenc odings
Qu AD
cent roids
Ġsent ences
assign ments
Ġdiff lib
temp or
Bot Commands
FN S
etun e
Layout LM
cycle s
NON STYLEARCHIVE
Ġadmin istr
ĠEn gine
recv until
TOP K
Ġapprox s
Ġpers istent
ĠTRI STATE
retri eval
ĠSm art
redirect s
Ġalg orithms
ĠCLASS ES
tfl ite
ABIL ITY
CHO ICES
Si LU
YE AR
TTX Converter
asser stein
' m
/ ?
2 0000
: (
= ",
B ounds
C lean
D Q
D en
D ialog
E F
H V
S ynchronizedBatchNorm
U IST
c ers
g drn
i red
n z
r us
s Archive
w intypes
Ġ eg
re sent
ar ial
et c
__ ',
Ġo cr
ent y
Ġb one
py lab
ab i
om ega
par ray
pl anner
logg ed
ĠP in
th an
ĠL ow
ĠL ook
per ception
per ly
Ġget XML
list ener
Ġv ision
Ġr s
Ġdi c
ps anet
ĠE pic
reg exp
ĠU til
Ġun wrap
In dices
cu ckoo
Res NeSt
AN TI
sp ine
work ing
du ck
for d
Ġsub scribe
Ġcfg s
CE Loss
For ImageClassification
Ġopt ax
ĠImage Dataset
dec oding
Ġcl one
]] ):<
COM MON
Ġtoken ization
ĠTF DPR
sent inel
vocab ulary
Ġare n
SG I
ĠConfig Dict
LIST ARCHIVE
pair wise
======== ====
Ass istant
ĠReg ion
ĠPre dict
Ġap ache
Ġmo use
SPEC STROKEARCHIVE
Ġdiff rax
pend ing
Dis cord
Custom Dataset
ti er
Ġfig ure
ĠTrans action
ĠDET R
vers arial
high light
Single RoIExtractor
ĠAsync Client
94 65
del imiter
Quant um
Gaussian Blur
voxel s
RUN NING
ĠPos ixPath
GP US
Ġdiag ram
PRI OR
DY N
ĠQuant ized
separ ated
band s
>` _
expi red
METRI C
OPER ATOR
ĠBinary IO
FORMUL A
tod o
Cluster Role
Ġtre ex
CONTRA CT
Ġintern al
ĠTST Archives
0447 15
ĠSAMPL ER
cosm os
" (?
B ag
D r
D TYPE
G ALL
G AME
S ID
T Scalar
s piece
t iff
w all
Ġ aggregation
re fer
Ġt anh
as dict
al ready
lo ve
ur lencode
Ġs df
Ġ" @
il abel
Ġw get
Ġw ide
to ks
Ġd dp
size of
qu it
qu et
Ġdata dir
ĠA S
ĠS IG
[' _
base lines
Ġj ust
Ġ3 9
nt ht
ub y
ĠM ake
ĠB Y
ĠR ew
Ġint egers
ĠE PS
ĠN ONE
Ġwith in
In line
Ġbu ilt
read th
ĠV ulnScan
** (
inter sect
Ex c
SE LL
cor es
cor ruption
ID X
print options
Ġmin or
Random Affine
ĠSt ore
ND Array
Ġjax opt
ĠTF Camembert
src path
Ġitem getter
Mask RCNN
KEY CONTAINER
IM M
Py Objects
ero v
mod ality
auto init
PU ZZLE
Ġcan cel
google apis
ĠZ ERO
Ġtmp str
FUN CTIONS
Ġcam eras
MOD AL
Request Warning
Ġnon zero
freq s
77 17
xx large
Bot World
ĠCON V
NtGdi Get
amem BERT
LOSS PARAMETER
complex ity
Ġperm ute
Named TemporaryFile
fr PyObjects
Ġnd image
Sum Op
Delete Event
RON T
ĠRot ation
AAAA AAAA
Ver ify
RESULT S
nu scenes
Ġanaly ze
orth ogonal
secure RequestWarning
ĠDisc riminator
Ġsmpl x
ĠSm all
Ġactiv ate
Ġaccum ulate
ceed ings
onom y
fri end
recogn ized
980 1
swe ep
Ġbic losed
GALL ERY
BotWorld State
/ __
4 20
> /
C am
C lick
H N
K R
L ang
M argin
P IN
P UB
V B
Z ONE
[ ^
_ -
a atype
b ur
e al
e ip
e ha
h ull
n os
v cr
w m
{ :
im ag
in str
re pl
de que
Ġt akes
Ġt une
al di
al ization
ch n
Ġp x
Ġp ot
Ġp ng
Ġc In
Ġs ched
ad get
ol l
Ġ1 10
00 10
Ġh i
ess ian
ens olver
(" :
sh al
ĠA rt
ĠA otNet
ĠS core
ĠS ear
Ġj inja
Con tour
load txt
ĠM arian
AR M
() ],<
Ġr lt
Ġy eha
ip h
ĠR a
Ġdi gits
Ġpre serve
Ġun map
PE D
rc a
AS Y
ĠG rad
AN Y
Ġsub model
seed s
Re action
Reg ex
ENT ITY
factor s
post processor
Convert or
non ce
HO OKS
ĠCh em
Ġap k
tri angles
Ġarch ive
Auto Field
ĠClient Error
Act ive
Ġplot ly
Ġrequire ments
mi um
Ġimplement s
APP LI
Ġslow fast
respon d
Ġconnect ed
Argument DefaultsHelpFormatter
latent s
Build Extension
pip es
ja cobian
Change SetArchive
Grid Layout
Split ter
Match ing
postgres ql
ĠGaussian Blur
ĠSeg mentation
ĠSequential Sampler
HYPER CROSS
12345678 90
coeff s
ĠDO MAIN
ĠDate Time
ISH ED
pyg ments
StyleProperty ChangeSetArchive
ApplicationCommandInteractionData Option
Ġyeha oli
! ",
A pache
B RO
D LA
F B
F OCAL
K P
N F
R P
T IC
T AGS
c id
h mean
h dr
k ze
m plot
m utable
n In
n chor
n proc
q as
r n
y z
Ġ INTEGER
re view
de al
st ark
Ġn r
Ġp ids
ur tle
Ġm embers
Ġs phere
Ġf amily
Ġin c
Ġin dice
ag nostic
Ġb alance
py pi
Ġg uid
Ġ_ :
(' "
Ġde sired
ĠP h
Ġcon firm
ĠA ccess
ĠS kip
ĠL P
ĠL ib
ĠL ocation
og gle
=[ -
=[ ]),<
ĠB ody
fix ers
IL BERT
ĠV DF
ĠV oid
Dataset Mapper
equ als
Ġabs x
Re set
Ġbase size
ĠImage Filter
rel ations
ĠData Class
SS DA
Ġsample d
ĠIn ference
pack ed
ĠTF TransfoXL
PI E
convert ed
Ġtim eline
ome Assistant
cre ation
Box Transform
ĠRe peat
mod al
cy clic
book s
Ġvis ible
App Info
Roberta Config
mesh es
admin s
bound aries
SPEC IAL
ĠGener ate
ater al
LIC ATE
Ġxy xy
strain ed
ATT ENTION
Argument TypeError
fu el
Global Logger
Ġcut mix
prun e
Ġsymbol ic
ĠFor ward
ĠLazy Tensor
motor bike
Ġadapt ive
Fin ished
Translate X
Translate Y
ĠTFF unnel
ĠIP v
ĠMBart Config
ĠAdapt ive
equi valent
ĠAns i
ĠCuckoo GlobalLogger
ĠVI EW
APPLI ANCE
kze ug
nchor Generator
SSDA nchorGenerator
' ")<
B A
C rypto
F ire
G IoULoss
I W
M ONGO
P AY
R em
S MO
T ED
] ',
c mp
g allery
h int
n ell
n ift
w ell
y j
y o
} ',<
Ġ emp
im bo
re write
Ġn py
__ ("
ur m
fi re
Ġ' |
Ġf ault
Ġi dent
ed ocs
Ġb o
py ramid
li fe
ĠT IME
put er
to ple
Ġh ub
Ġd am
Ġa ir
Ġl ax
Ġde it
bo at
ĠA U
ĠA nd
ĠS mooth
he alth
out file
lib ra
ĠB ART
ip v
Ġpre sent
Ġco uld
50 9
Model Factory
ĠV Q
IT IES
Dataset s
sp ot
ĠCon f
Image Draw
Ġmin max
mp net
ret riever
UN CH
wait Key
MAP PER
UP LOAD
tuple s
Process Error
Ġread ing
conf usion
rypt ed
pc pvt
go State
Qu adratic
Ġac ross
35 7
ĠSh uffle
Ġmo vie
Ġpost s
Check Failure
efficientnet v
Mo lecule
tab ular
ĠST ART
Ġcolors ys
atern ions
MULT IPLE
New ton
ĠWeb hook
ĠBart ForConditionalGeneration
addon s
KEYPOINT S
DRAW ABLE
Download ing
AK ING
verted Residual
LET TERS
ĠPRO CESS
ĠLi u
Comple tion
ĠReformer Config
ĠSec urity
Public Key
CALCUL ATORS
ĠSent ence
ĠBlend Transform
cele ba
LMO utput
readth edocs
) ["
A mp
B PE
B ETA
C lock
C UT
E qualize
J PG
L G
R end
S em
X DG
b ce
c ceeded
d ry
h ape
r ss
r mse
s ns
s bn
t apas
x ticks
y a
{ '
} .')<
Ġ ke
de clarative
le aked
en dation
from buffer
Ġn equip
Ġp snr
__ ))
Ġs ound
Ġin structions
un set
Ġb ones
Ġb ottle
set Selected
ĠT warc
Ġw ell
em u
Ġis r
ĠP ower
ĠD raw
>_ ,
Ġdi sk
Ġse ns
Ġco ors
iter tools
RE AL
RE CT
Ġun k
LE ASE
ail abel
ĠG radient
Res net
Res Layer
ĠUn supported
SE LF
Ġpl at
LO OK
Ġsub parsers
DI V
Ġurl join
ĠImage Ch
EST ATUS
(* [
rel path
UR N
PL AN
ĠX ML
Im plements
ĠBase Command
COM M
lic ated
Ġatt ack
Bert PreTrainedModel
multi part
Up load
VER Y
thresh olds
PRE D
Val idationError
ĠTh ree
IP V
TS DArchives
ren ch
runc ated
difi ce
ĠPool ing
pa int
Ġrepeat s
NOT I
ĠLinear Regression
Ġdirection s
fa iss
ĠPos itional
Ġgo al
"/ >',<
Sp loit
nee ded
Weight ed
SELECTION ARCHIVE
ĠAc count
few shot
ĠDo uble
Ph ase
()[' __
Retina Net
REQUI RE
hold ers
Progress Bar
Ġspect ral
Lat ent
Ġhour s
COMPL ETED
ĠModulated DeformConv
Dot Product
STRATEG Y
ĠPlain Net
Ġheap q
ĠImageCh ops
+ "
2 75
6 000
A tom
D UP
D ump
G EN
J o
P ascal
T N
V S
W O
b m
c flags
d ue
h ua
h ybrid
i w
m ed
m app
t en
~ /.
Ġ annot
re cation
re peated
Ġre name
Ġ' ')
el ines
Ġf raction
Ġ" `
ul der
to c
(' (
ĠF B
ht x
Ġx p
add er
Ġl argest
ĠP OS
th res
len ium
ĠL VIS
ĠL inux
Ġj accard
Ġout er
list er
com et
Ġr b
Ġpre p
Data Set
da w
col l
ĠN VIDIA
ide s
Model Serializer
ARCH ITECT
Res Block
)) ):<
)) ])<
To String
Dataset Hparams
Ġch oose
CE PT
]) ),<
wr t
names paces
PRO FILE
post process
ĠConv NeXt
Ġversion s
US ED
tim ers
Ġtrans port
Ġop set
be ar
multi class
RES ER
stream s
SET UP
Frame work
Sub stit
26 9
App liance
Val idation
MENT S
sim clr
Ġet htx
ARG IN
Mo dify
TRANS FER
Ġref ine
Ġconstruct or
period s
Align ed
Dep loyment
Light ing
Segmentation Class
Ġcomple ted
Ġlin en
ATTRIBUT E
DIST RIBUT
SN I
Fairseq Dataclass
MARK ET
accum ulate
Sl vs
EY E
ĠCH AN
ĠParallel Mode
PredictionHead Transform
ĠTFXLM Roberta
oli age
TIMEST AMP
Scheme MPL
ADJ UST
GEO METRY
tier ed
" ><
+ \
, :]<
7 02
: "
B ottle
F uture
G allery
R ATION
S ch
S id
S ymbol
S PATIAL
T ar
T ry
T INY
W rong
Y ELLOW
a ero
c z
e ven
g k
g uid
h it
l q
p ap
p otted
q CurveTo
r ator
s amplers
y min
} >"<
or rect
ro ken
from timestamp
it u
Ġre v
pe ak
Ġm b
Ġm int
Ġc ool
Ġs igner
Ġin k
ag rad
ul ating
Ġg reen
Ġh aiku
Ġd ydx
pl ant
ĠC I
ĠP attern
ĠP anel
ĠS ink
ĠS winTransformer
ple ase
Ġout dir
ĠM atch
lib s
() }"<
ment ions
Ġr les
ĠB oundingBox
ST ORE
ĠR ig
EN CODING
St ates
ĠE qual
In st
ĠG ot
map illary
arch s
') ).
") ])<
level no
Ġkey board
Ġext ended
18 8
Ġ... ]
Ġby t
Ġstart ed
{} :
ĠTF Lxmert
depth s
ĠNot Implemented
riter ions
BO UND
Un icode
Ġdo copt
PAR E
Ġdis connect
Ġac q
View Model
alled ProcessError
aa aa
Ġmo ving
Ġet c
Ġchar acters
ĠQu aternion
click ed
Ġmark s
less on
ĠNo ise
10000 00000
Ġauthor ized
ĠParam s
Ġquant ized
wiki pedia
velo pers
PROCESS OR
SW IN
reverse d
ĠDense Net
recv line
Full Loader
deploy ment
mut ator
UD NN
CAM ERA
calib ration
cro ssentropy
ĠPytorch Model
Ġcook ies
MED I
artifact s
ĠWindow s
NoOf Steps
Feed Forward
ĠPack age
Ġhor izon
mention ed
ĠVec s
RADI US
' re
, .
. ]))<
: '
B PF
B asis
H D
H ET
M otion
Q Image
S aving
X T
] [:
m usic
n as
o per
v ul
w u
x a
x max
y our
Ġ est
Ġ velocity
at Sploit
de compress
de precate
as semble
ch w
Ġre shape
__ ',<
di stribute
Ġm ime
Ġs bn
Ġs olarize
Ġf ea
Ġin correct
py dantic
log x
ĠT H
Ġw t
Ġw ere
Ġd ct
test er
test client
ĠF ree
ĠP LAT
ĠD ashboard
ĠS chema
Ġst ochastic
ĠM ode
=[ ]):<
=" \
ĠI I
Ġv v
Ġr code
Ġy a
10 4
met ers
Ġdi fference
art ist
Ġlen s
den o
Ġtf l
== <
ED GE
ave Pipe
Ġfl uid
') (
MODEL PROTO
tt x
SE CUR
Ġ6 2
Ġrun x
rel at
DAT ARE
Ġ{} ).
EX IST
order ing
ĠConv Transpose
next cord
dis nake
mock er
oth ers
redu ced
be h
Ġsql glot
Ġca lendar
cam ids
Encoder Model
part icle
String IO
SA C
Form ulation
ĠClient Exception
('. ',
difi ers
RoI Pooling
ĠAlbert ForPreTraining
Update Event
Normal izer
FIELD ARCHIVE
Rel ated
Pose Dataset
}' ")<
MESS AGES
Ġpen alty
ĠRot atingFileHandler
ĠMM DistributedDataParallel
crit ical
SELECTION TRANSFORMERARCHIVE
lv l
Broker Subscriber
Cog T
Analy zer
ĠBee PixmapItem
ĠMedi a
shuff lenet
Variation al
Ġautomatic ally
ĠCopy right
NtD Composition
dynam odb
Dead pond
ĠSmart Pointer
! =
! ".
+ ',
J b
O US
R ig
S ION
T om
Z ip
] **
] [-
_ {}
g host
j inja
k id
l bl
m as
m om
m ips
q kv
u on
w ild
x d
Ġ },
or acle
de ltas
as gi
Ġn db
ut ing
am ped
Ġp ay
fi ce
Ġc ss
Ġc ircuit
ra ds
Ġs al
Ġ" ))<
Ġ" *.
un link
Ġb asis
Ġb ulk
Ġb leu
py tree
Ġ1 40
Ġ1 30
orm er
li ct
con struction
00 6
Ġh id
pro vided
sc net
ĠS quest
ĠS PL
ER LESS
config urations
ĠM ETA
DE POSIT
=[ ]<
AR K
Ġv cs
Ġr mse
ST AKING
10 6
Ġpre act
Ġk estrel
Ġk ornia
Ġ4 1
16 1
:// "
MO CK
ĠG it
ĠG cp
loc ate
Image Dataset
Col umns
Ġ7 1
Ġ7 6
(* ,
SI S
dec oders
Ġbe v
={ }".
Ġ... ,<
ĠTF CTRL
ĠConv Bn
VI RON
color space
De velopment
ĠPro xy
Ġgener ic
hook impl
Object ive
Ġ", ".
SH OW
play ing
limit ed
Fast RCNN
Ġscen arios
As set
Custom Attributes
FORMAT S
FORMAT ARCHIVE
Web Socket
Ġri val
ĠCont ainer
SY NC
New EmptyTensorOp
ĠOptimizer Hook
SV C
ĠStat ic
ration al
Ġposter ize
ĠCa che
(', ')<
Prob lem
Ġremain der
comput er
ĠDisc rete
hy po
ADE Challenge
Ġmac ro
Ge ometry
ĠUnicode Text
Extra ction
REC ORD
ĠPauli SumOp
Ġfrag ment
Ġmong odb
ĠConsensus Constants
ired Access
ĠVoid Pointer
Ġfault handler
ADEChallenge Data
) `.<
B est
B LUE
C ITY
E V
F W
G CN
M otor
P ick
R NG
S upported
U RA
W AY
W elcome
Z O
] '<
b illing
p aca
r z
t rg
in struction
Ġt ex
Ġt oml
it rs
am d
Ġre served
es next
def initions
di visibility
Ġm ol
Ġf act
Ġi segm
un s
ul us
ul ates
int ro
Ġ[ ]))<
ĠT ARGET
Ġw alk
Ġnp roc
Ġdict s
pro filing
yp ing
Ġl ap
Ġde ns
Ġde clarative
ĠA CCESS
ĠL ab
out liers
pre view
ON NX
ĠM IT
com pilation
ĠI ns
Ġv ote
Ġpre processing
Ġe ff
Ġe difice
scri bed
Ġ4 3
ĠE V
jo co
float s
AL I
"] ),
AS ES
ĠG ecko
)) (
ĠV er
Ġ[" --
Ġch allenge
Ġ8 8
tt s
") ],
Ġ6 55
Com poser
Ġbase s
ne au
sub class
rel ax
so und
]] ]:<
Ġdepth wise
Ġtra de
Ġ20 4
En routeDecorator
FF F
Ġtrans lator
Ġwork ing
session id
tr l
debug ging
HO UR
track s
ĠCh amfer
quant izer
Ġprogress bar
NET WORK
Ġflow torch
database s
ĠOb servation
MP LE
thread ing
Ġbound aries
Embedding Loss
WAR N
edit ed
CM sg
MM MM
ĠPo inter
Ġsim clr
SAMPL ES
Auth ors
tun ed
Ġml trace
sen ce
ĠPost greSql
ingest er
Ax ie
FRA CTION
Ġyolo x
moment s
LAT EST
ffect ed
ĠHttp Response
ĠBu cket
ĠCore f
SING LETON
remain der
Ġreci pe
NoOf Paths
ĠPegasus Config
Tok ens
Ġdeg ree
ĠOpt im
ĠDepthwiseSeparable ConvModule
DUP LICATE
CustomAttributes Values
" --
0 75
1 17
? ")<
C AN
L ambda
L aunch
M ul
M Sampler
N R
S ine
S OT
U X
Y itu
a W
b lp
d ining
e asy
i ations
j t
m al
p po
u ds
w atcher
in Val
se ason
de sl
al b
Ġre factor
Ġre presentation
Ġm oto
ra ck
Ġf r
Ġf path
ol ated
Ġ1 70
po etry
ap point
Ġw arning
Ġd ash
Ġd ays
and roid
(" [-]
Ġl vis
Ġdata Size
ĠD oc
vi olation
ĠA I
ĠS igmoid
ER IAL
ĠL en
ĠL ink
ĠO PEN
num Shifts
ĠM egatron
ĠB io
ĠR and
att ing
main loop
[" _
:// /{
read cr
ĠDict Tensor
"] ).
"] }<
ĠG ENER
default Test
ĠV IS
ĠH atSploit
lr s
start ed
Ġkey size
place ment
pose mb
Ġ7 3
(_ ):<
pr er
Ġan swers
amp ing
PRO GRAM
cc g
ipy nb
Ġwork s
Multi StepLR
Ġaut osummary
ĠRe po
LA UNCH
pri key
bs d
Ne o
ĠCo unt
cy an
ĠCN N
GG ING
Stat ic
TR UE
Converter Result
Ġfi desl
Ġplot ting
EG IN
WAR E
sn ippets
Ġacc image
answer ing
Custom Filters
ĠPo se
PROPERTY MAPARCHIVE
NE CKS
HTTP Server
Ġcy thon
Ġhigh light
ĠState ment
Draw able
term ine
she ared
Ġexpan sions
Rep Points
CLO UD
ards wish
ĠRel ation
ĠIO U
("[ +]
irc le
Mean s
Ġcondition s
CLIENT IDENTIFICATION
EncoderDecoder Model
Dim ension
Ġpanoptic api
ĠEmail Sender
**************** ****************
ĠPatch Embed
WA IT
pay ments
Ġnat sorted
Ġtrun cation
Ġgrads flow
remain ing
ĠStruct ure
TEMP OR
ĠOperation ConverterResult
tg calls
ĠWeight ed
ĠDon ckt
ĠHalo Net
ĠYukki Music
Micro soft
cai ro
relat age
Yitu Tech
readcr umbs
Ġfidesl ang
* \
+ -
. "}<
0 80
: ",<
? ',
B RE
C LEAN
M dl
M azeEnv
W iki
W RAP
] [:-
h n
i di
k size
k conf
p seudo
s ax
y x
in strument
re xnet
ch y
ch es
it ask
it ivity
ut ch
def ines
ra gged
Ġs li
Ġs queeze
Ġi v
un ivariate
py six
Ġ1 000000
il son
up ling
log out
log level
ap idoc
Ġd ri
(" ^
ann on
Ġde veloper
ĠP LAN
ĠS i
config ured
he ast
Ġst able
ĠM PI
ax ie
() )))<
ds k
ob el
Ġr g
ST Res
ale sced
back test
ph p
Ġsc aler
Ġun idecode
ĠN T
([ [[
ib rational
000 3
inter actions
Ġpl ans
Re al
CON NE
mon otonic
pb ar
trans actions
seq name
prob as
List ener
aug s
HE LP
Ġtra verse
eb a
PATH SOURCE
Ġop al
gener ics
Ġca ption
Multi Head
pair ing
pri ors
Ġmatch er
Ġspec ifies
ĠZ ero
Ġli aoxingyu
(". ",
Char String
rl lib
aggreg ators
pa use
simple filter
platform s
Ġauth x
Ġmon th
Ġmon ailabel
scalar s
Wh at
ĠProcess PoolExecutor
ENC ER
sli ces
ĠAn alysis
Ġdeform able
ĠJSON DecodeError
Ġcomple te
Ġdocument ation
ĠArray Like
FFFF FFFF
ĠMLP Mixer
Score HLRSampler
ĠAug mentation
ĠAug SchemeMPL
Bi jection
consum er
Updater Hook
Prior ity
Ġgre ater
wal rus
ĠFLA UBERT
WIDER Face
ĠCrop Transform
ĠHR Net
Crowd PoseDataset
Mdl Dyn
pysix d
A m
A MOUNT
B T
B ER
C ircuit
C ritic
D N
D ive
D RI
G IN
G ray
G rouped
I SE
I Head
J IS
O LEAN
O perating
P ENC
Q o
R and
S ol
T urn
T aigaResourcePermission
U FF
U CTION
_ ")<
b az
c riterions
f ab
m vc
p md
p unk
x lsx
Ġ ent
re commonmark
st h
ar bit
Ġt g
lo od
Ġp anel
__ :
Ġs vox
Ġf relatage
Ġin verted
Ġw p
em itted
Ġd ue
ĠF ont
qu is
Ġx l
Ġx range
ĠD WConv
sh rink
ĠS upport
ĠS QLAlchemy
ĠM ut
og m
() })<
CH W
ĠR GB
eg g
que en
check sum
Ġimg ui
ĠE goState
RE FER
are t
min f
AL F
AL CHE
ms w
checkpoint ing
AN DB
ant s
Ex change
ho enix
Ġbatch norm
Image Folder
ĠW ilson
File Name
mat vec
ERS PEC
width s
Ġq b
Ġq k
ĠQ U
environ ments
ĠPy Tree
SP AN
Up grade
Ġdis count
learn able
Ġone hot
Mix ture
ĠSh arded
rout ing
tri via
Bottleneck Block
PROP HET
Ġpool er
Ġroi aware
leg al
ular ity
mn emonic
ĠSc ene
TER MIN
ĠRoberta Model
ĠSE P
Ġsim ilar
regnet y
Ġchat s
writer ow
icon s
oun dation
Ġsin ce
Bytes List
fetch er
Detection Config
Attribute Definition
BottomUp RandomFlip
BottomUp GenerateTarget
BottomUp RandomAffine
swap s
Ġadmin s
ĠDefault Dict
Uni que
Decode Head
Ġdirect ly
At Net
Ġadj acency
Cor ner
ĠSeq Like
WI SE
ĠEvalu ator
ĠArgument Group
Aggreg ate
COORD IN
Ġplace holder
COLUMNS ARCHIVE
STRI DE
Ġtempor ary
ĠControl ler
oci ative
trun k
PAP ERLESS
aero plane
ĠPLAT FORM
VIRON MENT
PENC IL
ALCHE MY
* ]
0 10
= ',
C ap
C UDNN
D Dataset
E pic
F oot
G UI
L oc
V oxel
d roid
h g
m ust
u fo
Ġ ub
re ce
re cur
de leg
en ous
Ġre calls
Ġre cover
Ġc atch
Ġ" &
ent ation
Ġb ug
Ġw ire
Ġd E
ĠC ascade
sc ented
ĠD ocker
ack up
ĠS in
ĠS af
"" ")<
ĠM AP
ĠM irror
ĠI ssue
() }")<
Ġr y
ST ANDARD
op codes
Ġe a
opt apl
Ġ4 32
ps r
ry ption
by e
ph erical
mo co
output H
Ġmm d
ide d
20 2
Model s
16 000
RO UT
"] ]
AS H
ĠUn ary
Ġ[" .
Pro vision
ĠH ost
Log in
arch itectures
Ġ8 3
') ;<
") ),
lin elist
Ġnew Table
Ġ[' .
sub sample
25 8
Ġbe low
(_ ,
pr ite
Ġ{} )
sw imlane
CL R
Th eta
Th reshold
FF N
over flow
RES PON
Ġvar ious
sl im
ĠDe lete
tern ative
Ġign ored
Ġsp ot
ĠSh ard
anc er
augment er
dp w
ĠModule Helper
dn l
bi ased
ĠAT SS
Ġelement wise
STAT S
ForPreTraining Output
Ġ} [
Sw itch
Mark et
ĠAutoModel ForSeq
Ġcap log
Ġdesc ending
lim its
Ġdetection s
USD T
(", ")<
hom o
Bad Argument
Be havior
ĠDyson Pure
Propos als
Ġfu zz
ĠATT R
ĠLat in
ju pyter
SPAR SE
ĠAggreg ation
Fir st
bott ers
ĠSear x
SMO OTH
ĠConf Z
CMsg BotWorldState
optapl anner
/ \
C fgNode
D Tree
D ropPath
F p
G File
I ELD
I nner
K eras
S B
S up
S ep
Y T
a un
a io
b w
d ash
g ps
h ang
n uplan
p ager
r nd
s un
s and
} ;
Ġ fil
Ġ article
Ġ quick
at an
de conv
ar di
al erts
ut ations
Ġre wards
et ypes
di alect
Ġm er
Ġm eg
Ġs mp
Ġo tt
ed M
Ġb c
Ġb minf
Ġg an
par quet
path name
rain er
Ġh it
Ġh uggingface
(' ',
(' ='
ĠC S
ri p
vi val
vi olations
ĠS ort
ĠS quad
ĠO NN
': (
Ġy c
ĠB ottle
ET ABLE
ST O
ĠR em
ĠR PN
ĠR ich
Ġdi visible
[: ]<
fo ur
Ġmath utils
ĠE dit
RE LEASE
Ġpro filer
Tensor Spec
Ġmm flow
ĠN ik
plit ude
AL G
ĠG ithub
Res ume
Ġof ficial
split ter
Ġch amfer
view er
Ġ6 8
Ġmin val
Ġq ml
prob abilities
ME GA
Ġuser bot
ĠSt ack
ian j
Ġindex ed
ĠTF Longformer
Ġall reduce
char acters
PATH S
Th ree
ĠTensor Dataset
spec ify
Ġup dater
cre asing
Ġ". ".
http server
agent a
Py Qt
mod ulated
FIL TERS
ĠDe bug
ĠTest ing
Ġover all
IZ ATION
way mo
Ġdest roy
Array Archive
quant ized
Max imum
pg m
we ak
Ġcre ating
hi jk
aggreg ator
ĠDep recated
ĠCON F
ĠBottleneck X
MASK ED
ATT ACK
oun ded
ĠAsync IO
Ġrest ored
Ġtem plates
ina Head
XY Z
Ġfused ActivationFunction
ĠTemplate Column
=% .
Inc orrect
ĠMethod View
Ġdelay ed
Ġgr p
ĠViT Config
ĠBroker Message
ĠMark ov
0000000000000000 0000000000000000
har vester
ĠSec ret
stand ing
ĠAut hor
UNI CODE
ĠDel ta
Comm as
PLO T
writ elines
tain ed
DENSE POSE
OHE MSampler
Ġterminal tables
nob ackup
recation Warning
dining table
ĠLen gth
ĠPLAN ES
ociative EmbeddingLoss
ĠONN X
" ")<
% %
' +
0 32
C md
C ubic
E ig
E ffect
F MT
H ip
I mp
I van
J S
M W
M at
M aker
S LO
U C
V irtual
X H
c P
i y
i kit
j p
j wt
l ion
m rpc
n rows
o ken
p print
Ġ arm
im its
er red
re moved
ar ing
Ġre pl
Ġre cogn
ur s
Ġm ost
Ġs omething
Ġf sspec
Ġas sum
Ġas soc
ad o
un register
pt ime
py cocotools
ot ed
ig om
Ġ_ )
Ġos mo
path y
Ġh BPF
nn Former
Ġd u
(" '
.. ..
(' ../../
ĠC ross
ĠC SV
Ġl aplace
), )<
ĠD esc
ĠD OTA
th ings
ĠA scii
ĠL ambda
ĠM ongo
ob igger
ob fusc
ĠB box
ĠB ool
ver b
op flow
Ġpy render
ĠE UCTW
Ġsh utdown
ern ite
Model Parallel
Norm Act
Ġmet er
Ġcom pression
ho ver
Ġsub files
Ġlabel map
Com pression
embed ded
use ful
ĠW in
File name
ols ky
ĠImage List
Ġim show
Test Runner
={ },<
au chy
Ġpol icies
PI O
Ġ| _|
Ġann os
ART S
-------- -
Box Layout
ĠCom ment
ORT ORDER
dic ator
pers istent
Info Archive
Ġdoc string
Channel Type
Action Data
Ġtx ts
Per iodic
SC APES
Al chemy
Ġprob as
Mo vie
Read Image
Target s
CHANG ED
oun g
VALUE ARCHIVE
ipher al
Ġconnection s
Deform able
Contrast ive
Ġgradient s
vot es
ier arch
separ ate
eig en
sock s
('../ ')<
ĠAN Y
ĠSeg ment
ĠSoft max
Sim ilarity
TEMPL ATES
Cy cle
ĠLayoutLM Config
Ġwi den
ivariate Normal
ĠWe ird
Place ABN
ĠInlineKeyboard Button
ivers al
Ġrig ify
Prun ing
HW C
Ter min
FeatureList s
Ġxc it
CERTIFIC ATE
Ġfe apder
ToFixed ToFloat
ĠMenu Node
ĠProm ise
yj ernite
Ġsound file
Ġink ex
ĠNik olsky
( ~
( (<
6 55
E OS
H H
H AR
L r
S k
S yn
T ITLE
W ay
] |
a emon
h og
i q
j b
l argest
t if
w x
} ),<
Ġ ranges
se net
re ar
Ġt inygp
es ian
Ġp m
Ġs up
Ġs ynth
Ġf ront
dat ing
Ġin ject
un icorn
ce an
ex ps
=' '),<
Ġ[ ]):<
od im
par sing
is ort
to ctree
Ġd ude
(' ')<
Ġl sp
Ġde sign
ĠD ir
sh ifts
ĠS ine
ĠS ynchronizedBatchNorm
ĠO Auth
__( )
per form
Ġget cwd
ĠM B
ds l
Ġr ho
ĠR ead
ĠR untime
ver balizer
op ens
EN CES
ĠN ull
In fer
:// /
fl d
fl w
ĠĠĠĠĠĠĠĠĠĠĠĠĠĠĠĠĠĠĠĠĠĠĠĠĠĠĠĠĠĠĠĠ ĠĠĠĠĠĠĠĠĠĠĠĠĠĠĠĠĠĠĠ
Ġ6 9
AB I
]) ).
cur ves
ne ur
ly ing
UN CT
ĠData Split
Pre view
Ġq bittorrent
filter ing
seg s
ref lect
quee zen
Ġ9 7
Transform ation
Var int
bin ance
ĠPy Side
Ġtrans posed
be havior
Un recognized
mm seg
Multi headAttention
13 1
13 5
go ing
cmd line
win Layout
Val id
mix ins
Per ceived
avi con
Ġmo di
Ġpost gres
ĠTransform List
SPEC S
element wise
FT ER
Ġav d
ĠTrans pose
mar shal
Min os
Ġtr n
Ġtr uth
Ġsin usoid
big bird
estim ators
cap acity
Ġ'{ :
Ġmemory view
Ġlower case
TAB LES
requ encies
Ġfc ntl
feed back
Ġreq s
CURR ENCY
ĠExt ended
ĠDeep V
Help ers
ĠUp load
ips is
ĠTFRoberta ForMaskedLM
YOLO F
ĠEmail Str
ĠSqueeze Bert
Could n
Iterable Dataset
ngram s
ĠDensePose Chart
foot er
Retina Head
imp licit
phys ical
phys ics
Generalized Attention
Calc ulator
ĠNu Scenes
ĠXLMProphetNet Config
Ġer ase
Ġwr itten
difficult y
ĠEncoderDecoder Config
Den ied
potted plant
ĠSPL IT
PATHSOURCE ARCHIVE
RESPON SE
ĠAscii Table
* ",
5 11
G FL
H eat
K A
O URCE
S LOW
T FA
W z
] ;<
b omb
d NormAct
l strip
n ight
p aa
p anda
s grad
y ol
y max
Ġ 9999
Ġ quiet
im plements
se us
re zor
Ġn z
Ġn jit
Ġn aive
__ "):<
Ġm client
Ġc lf
el ord
Ġs he
Ġin cluding
Ġreturn ed
un supported
Ġb old
ĠT wo
00 8
Ġa w
(' >
ĠC at
ĠC ase
ĠC ORS
ĠC MD
ĠF ound
ĠP OC
ĠD umper
ĠA V
ĠA pache
ĠS V
ĠS phinx
get pid
Ġnn det
ĠL oose
ĠI F
ool igom
10 5
ĠR ay
Ġpre train
ĠE p
Ġsh arpness
av atar
ĠN ET
head less
20 5
In vert
Ġinput H
Config Parser
RO P
ĠV oxel
Log ged
Ġ8 1
pect ral
Ġsize of
Re dis
sub scriber
Ġtext ual
DAT ET
Pre cision
Path Manager
PRO D
Transform ers
FO UR
VI E
prop agate
US ION
ell aneous
TEST S
Un conditional
ĠRe dis
do es
EXT ER
Nt Set
Nt Query
Object Id
PS Connection
Ġdrop Rate
DO UT
Ġgraph s
Ġsp awn
Channel s
tri dent
extract all
MIN OR
Check er
MP ixel
Rec all
ĠMulti Head
Ġextract ed
Ġcat alog
(". ")
direct or
ĠQu ota
TTk GridLayout
Ġclo sing
GR ESS
Dense Pose
POSITION S
Ġts flex
Ġmix er
WORK ER
Ġsingle ton
respon dent
rimary Key
Only MLMHead
Async Client
Ġge o
MAT ERIAL
ĠGraph Module
ĠBl ur
Ġord ers
EXTENS ION
exog enous
Part icipant
Ġconst s
Ġscan dir
Fin der
TABL EST
ĠOnnx Graph
Broker Publisher
Ġsection s
Ġprom ise
kin etics
likelihood s
Prun er
Ġll vm
Shear Y
ĠRoI Pool
ĠExit Stack
ĠAssign Result
gem m
assertIs Instance
Instruction Type
tow hee
ĠLook up
ntht iger
beh aved
ĠLoose Version
MPixel Sampler
9 39
? :
C IT
G ES
G ithub
H ALF
I p
I CE
I lx
J l
L AP
Q iskit
R R
] =
` .
a ver
h an
k ing
k ube
m ic
m vs
o ugh
p drop
r is
r hs
w ater
y ou
z ing
at ari
se arx
de e
ar u
Ġt ic
le y
it r
Ġm obile
Ġs ynchronize
Ġ" ../../
arg er
Ġo k
un ame
data store
set item
Ġ[ *
ig ure
to pology
ĠC A
Ġx or
add ings
Ġl y
Ġde part
], '
[' __
ĠO NE
Ġ3 000
ĠM ac
com position
os mo
key frame
op ad
Ġsys io
art beat
Ġse l
[: :
Ġ4 48
iter ative
ĠE mp
ph obert
In verse
16 384
cu um
Ġmax len
loc ator
ĠH omeAssistant
ĠCon trast
core f
tt l
ho uses
ĠĠĠĠĠĠĠĠĠĠĠĠĠĠĠĠĠĠĠĠĠĠĠĠĠĠĠĠĠĠĠĠ ĠĠĠĠĠĠĠĠĠĠĠĠĠĠĠĠĠĠĠĠ
gr pc
Ġmin i
Ġ[' -
Ġstd in
ret ch
dist inct
Ġbe eref
Ġcl u
af ka
clip ping
enc odings
19 8
Att acker
Ġattr getter
({ })<
SH ARED
Ġ` {
Ġover lay
track ers
Ġbl ue
Ġrank s
An omaly
POINT ER
Start Vector
Ġ40 3
Ġvocab ulary
Ġextract or
LD Y
Ġxy wh
Ġmy thic
('. '):<
('. ')[-
Ġsearch sorted
ĠMy Message
ĠOpen GL
RET RI
RET RY
ĠRequest s
lite flownet
ĠPoint Cloud
BottomUp CrowdPoseDataset
Metadata Catalog
ĠDPR QuestionEncoder
ĠIndex edDataset
ĠPartial User
shard ing
OBJECT S
ĠTFRoberta ForSequenceClassification
PP M
analy zer
alloc ated
ĠService Scan
tv monitor
FIN AL
glu on
12345678 9
PREDI CTION
ĠScript s
Ġregular ization
kd tree
ĠMOD ULE
Shear X
PRETRAIN ING
Ġice fall
HTT PException
Ang le
Ori entation
CZ OS
ĠTele gram
EXPAN DED
sBase Trigger
NORMALI Z
PIE CE
ĠRepeat Dataset
DATARE FERENCE
PENCIL ANNOTATION
IELD LY
aun ay
queezen et
) ])
0 12
A vg
B egin
D Type
G LUE
G ood
H ybrid
K IND
M PI
N est
P m
P OT
R U
R ng
S winTransformer
T SP
[ ~
b ing
d inputs
g cn
h em
k k
n bs
r p
v pn
x ar
} ).
re comm
de claration
et inaHead
Ġp ag
di vergence
Ġ' %(
Ġs an
Ġs af
dat um
ode s
ol utions
py sen
ex xar
Ġg pt
ĠT EXT
ap se
Ġw hole
Ġnum eric
to wn
Ġ2 32
(" ../../
ri ded
ĠD ot
vi al
ĠS PEC
Con n
ĠM atrix
Ġnot es
ĠR oute
att y
Ġdi vide
EN et
Ġk nn
ĠE ng
Ġ5 11
Ġpro fit
LE CTION
20 13
pu z
Ġbu ff
Config ured
ĠG ame
ĠG LUE
cont inuous
arch iver
gr u
Ġal bu
Ġopt parse
Ġ7 7
SI MPLE
sym metric
SS H
Ġser ve
EX CEPTION
ĠEx port
Ġwh itespace
11 9
Ġnode utils
ĠRes Block
idat ed
ART I
be e
ĠCo arse
Man age
ĠUser s
SER IAL
ĠFl ag
String Property
TR INO
payload type
BACK UP
IS ION
Auto Contrast
Auto Fn
Attention Block
Ġtitle s
ĠText Input
Ġmark ers
Ġmesh es
xx x
LOAD ING
STAT ES
EC B
direction s
TABLE COMMANDARCHIVE
ĠAct or
ĠDPR ContextEncoder
ĠColor Mode
adapt ers
ĠSH ORT
gu ilds
Weight s
Ġgather ed
Schedule dEvent
Dat etime
ĠLocal Path
Plot s
Initial ize
oh n
Jit AutoFn
Ġestim ator
ASSET S
Ġprom pts
Place holder
PON ENT
Machine Learning
ĠDel aunay
Ġexpi re
Dest roy
Ġali ases
20210 401
ĠRemote Client
ĠTSCH Archives
Ġcoder ize
Ident ification
ĠCar la
ĠOPT IM
deriv ate
Ġwer kzeug
VERBO SE
ĠKe ys
ĠAU DIO
) }"<
) [:-
2 70
4 50
> .
D IT
E FF
E uro
L ane
M ore
P eer
T LV
Y IELDLY
b eanie
c raft
h is
i h
l pips
m outh
q app
r hd
t up
y ze
y ticks
} ]<
in et
in herit
import ers
re et
Ġt es
Ġt od
Ġt tx
Ġre pository
Ġre verted
Ġp rices
Ġp seudo
Ġm vt
Ġm utation
Ġm otor
Ġf ew
ex ponent
ĠT y
Ġw heel
ens ht
ma e
ĠC C
sc roll
ĠF E
ys ics
ĠP rompt
ĠD UMMY
vi ation
ĠS ocket
kw ds
"" ""
Ġj a
Ġj random
app a
ĠM apie
com ps
op acity
Ġe c
Data Provider
Ġu json
ĠE LECT
ĠN S
conv olution
Model Config
Ġfile paths
Ġtf d
AL S
emb s
PT R
Ġth r
ĠH andle
AN O
nd f
Ġpass phrase
inter net
ca usal
Ġro c
Ġopen fold
Com pat
For ce
place holders
Ġcont act
ĠW andb
eta h
mat erials
pol l
ret ries
andom Crop
25 4
FOR E
UR andomCrop
ĠIn stall
Ġ9 1
Ġle gate
SP Head
HEAD ERS
az imuth
Ġ15 36
ĠRe verse
Ġqu bit
full name
Ġinitial ization
Ġinitial izers
Ġdec oding
ĠCh ain
Io URandomCrop
Aug AA
tri angle
Task Cascade
BON D
insert ed
Ġchar det
ĠLog in
ĠRandom Crop
TTk Core
MM Detection
ForQuestionAnswering Simple
typ ename
10000 00
BUIL DER
Min IoURandomCrop
Single ton
semantic s
ĠDet ect
Ġ"{} "
Ġvi rtual
1234 5
My thic
ĠLe arn
Non StyleArchive
Ġfs det
havi our
DY NAM
Ġcent roid
Gradient Clip
DIRE CTION
Ġsqu ared
Ġsqu ares
ĠResource Group
Ġmn ist
nf net
Ġpp im
Cascade RCNN
Quality Video
Scor er
wave form
lick r
Print er
CONST ANT
FNet F
mint ed
PK CS
ĠTrack er
ĠFLA X
Ġcompat ible
Ġnvml DeviceGet
Tracking Dataset
rick star
lips is
Accum ulator
NOTI FICATION
TEMPOR AL
CIT ATION
ĠEng lish
ensht ein
" %
( {})
1 16
2 34
> }
A VE
B J
B ORDER
E l
F RONT
I K
L m
M PEG
P layer
T SKArchives
W here
d Vector
g lossary
k n
n ltk
v cs
} ={
Ġ orm
at ol
de mand
de termin
Ġt tl
:< /
Ġn l
am ax
Ġp n
Ġp ing
Ġp asses
__ ('
lf f
lf low
un selected
data pipes
ag o
ce dence
Ġg ram
res olved
Ġ( :
log file
log istic
ĠT ool
type check
(" ""<
ma int
ĠC ategory
ĠC CG
ĠF IL
qu bits
IN ATION
th en
th ers
ĠS PACE
ĠL UT
ĠL etter
num erical
ĠM ain
ĠM ID
=[ _
com ing
CH UNK
Ġv min
Ġr id
ĠB LE
ST YPE
Ġdi d
nc oder
32 1
ĠU npack
ind ings
In secureRequestWarning
rop ic
CO IN
ĠPath s
Re verse
ld ap
copy button
PO P
Ġlr s
Ġbe ch
Ġiter ators
amb ig
ong ita
Ġan other
Ġ... ]:<
ĠIn vert
pare n
ĠSt udio
files ystem
11 4
Ġ9 00
From File
tim ing
oth old
Ġop acity
SP A
Node s
mm io
mm flow
Int ended
QU ANTI
:: ::
Ġcurrent ly
Ġlo vasz
sql model
ROI Align
TR UNC
Point Rend
web p
Column Element
Ġmod al
SPEC DOUBLEARCHIVE
uri er
MS prop
TE AM
side bar
USER AUTH
ĠDep loyment
ĠIs Authenticated
Ġauth enticate
vers ible
ATT ACH
MY SQL
Web Kit
general ized
ĠIN TO
ĠLabel Smoothing
deform able
Post Processor
Hor izon
fore ground
ĠMin Max
Condition Opcode
hing e
ĠPri or
ĠRot ated
ĠWor ker
ĠBACKBON E
ĠMetric s
Tri dent
Ġway point
BI LE
WINDO WS
oh em
ĠSim Text
LAN CZOS
We ather
udi ence
Rew ard
He ur
SING LE
Ġneural compression
Git Hub
TABLESTYLE PROPERTIESARCHIVE
CAR AFE
tele gram
attrib utetable
Ġlon ger
.+ ?
Ġviz h
ĠCosine Annealing
ĠHungarian Assigner
Pop ulation
CITY SCAPES
Ġdens ity
UNCT U
Ġqbittorrent api
ĠCarla DataProvider
! <
) [...,
G LU
I H
J MP
L N
P s
P VT
P ENDING
T REE
Z e
d pn
d lm
f on
h lv
i ser
o logy
p unc
s park
t bl
t angent
w ich
Ġ ../
Ġ vecs
im db
at ural
import lib
ar izer
an ime
Ġn row
ut ral
Ġre order
Ġp b
Ġp ororo
pe ction
Ġc max
ra id
Ġ" ).
dat alist
Ġo dd
ul as
int egers
ĠT T
ĠT ab
Ġw arm
ĠC V
ĠF UN
ĠF etch
ĠF ire
ri se
ve y
Ġde termine
ĠD I
ĠD OWN
ĠA DD
ĠA udience
ĠS SL
ĠL ED
ĠO ld
end points
pre ad
OR ITH
Ġv args
Ġv ery
point wise
Ġpy tgcalls
Ġtime period
Ġ4 01
ĠE M
Tensor board
ok er
RO LL
"] },<
ĠG ET
pen ing
DEL IM
AM ETER
Pro ps
ĠH f
ĠH ead
sp in
du al
SE PAR
Ġro l
ĠĠĠĠĠĠĠĠĠĠĠĠĠĠĠĠĠĠĠĠĠĠĠĠĠĠĠĠĠĠĠĠ ĠĠĠĠĠĠĠĠĠĠĠĠĠĠĠĠĠĠĠĠĠĠĠ
Ġsub file
Load Proposals
Ġopt imal
ĠW S
ĠW iki
File Path
sub modules
(* (
Pre fix
Ġq boxes
ref ine
Ġdet r
md l
local time
ĠSt argate
valid ity
HE EL
word piece
From String
ink UNetBase
ĠTensor flow
serv ers
ART FIELDARCHIVE
Ġ100 8
REG R
Ġqu it
Ġqu eries
ĠDataset Config
pers pective
download s
TRAIN ERSPEC
DA VIS
non ymous
60 8
ROI Heads
ĠSh ell
Ġresnet v
Per ipheral
ele b
math jax
Ġprob abilities
fin alize
Item Directive
ĠTrain Options
Ġma e
(". ")[-
Ġcre ator
WS ARCHIVE
typ ical
GR U
Ġweb browser
GENER AL
Ġaccount s
Is Authenticated
MULT IL
tre zor
('_ ')[-
ĠParameter Semantics
ĠBart Tokenizer
Ġsmall er
ingest ion
bad ge
Mean Field
Ġcent roids
NT LM
Sl avePipe
TIM ER
Ġpercent ile
Ġadv antages
paper type
FIN ISHED
regular izer
Ġwi res
ĠGymEnv Inf
PATTER NS
ĠTransformation Semantics
Http Url
Ġply file
ĠAnchor Head
vin ai
Loihi ProcessModel
ĠProp Def
ĠOp enspeech
Pe destrian
ResID WE
Ġpearson r
ANALY SIS
ĠDraw ing
BRE AK
Ġmeg engine
ĠELECT RA
' '<
1 64
; ",
B oy
B EGIN
I X
J ava
J ohn
L ower
M egatron
N aive
O IN
O PS
P Q
P ed
R ust
S aved
T e
b urn
b idden
d ers
d yson
e SE
h in
l able
o IHead
r les
s K
t abs
t ell
v n
v ist
or ange
as i
ct itle
Ġre vision
Ġm oment
Ġc ve
Ġf liplr
Ġb h
Ġb ypass
Ġ1 56
Ġ[ [[
ĠT WO
Ġw w
file no
is r
pl er
co uple
pro ctitle
(' ..'))<
ĠC ategorical
Ġde cor
Ġde mb
ĠD P
ĠD jango
Ġcon ditional
ĠS N
ĠS TOP
get size
Ġst ory
Ġ3 50
=" {
Ġnot ification
Ġnot ify
() -
ST RA
ĠR PC
eg l
Ġpy qt
Ġimg id
Ġtime frame
iter dir
ĠE poch
Ġmm cls
plit z
Ġdat aloaders
AS ample
AS CI
ĠG NU
ms coco
ac quire
CK R
FI ED
start ing
SE P
cor s
Base Command
Image Data
Ġnew key
]) ])<
sub word
Ġim resize
17 5
List Archive
ĠBase Assigner
From Image
sign er
MAG IC
serv ing
BO OK
Ġad am
ĠRe action
cam s
Ġ14 2
IM PAL
Object TrackingDataset
ĠCol ors
light ing
ĠDe v
PAR ENT
FE E
ik aru
}. "<
Map ped
ĠPre diction
ĠSh arp
Mo difier
Ġida utils
Ġsoft ware
ĠSession Local
Ġbet ter
ĠRo ot
atom ic
ĠPI PE
Ġbut ter
AC CEPT
Ġwin reg
Ġcoord inate
nvml DeviceGet
Ġcpu state
TRA CT
ĠPost Process
CHAR S
ĠPlugin HTTPServer
Ġcase s
gray scale
Shar der
Distribution Analysis
Ġmn emonic
student s
Sentence Piece
ĠPytorch NotFoundError
Ġcloud pickle
primary label
Comple te
aff inity
JIT TER
Ġcons ider
ĠRed un
Ġspe armanr
ĠFusedLeakyReLU Function
Ġfu zzer
Squ are
Misc ellaneous
ĠTRANS FORM
ĠRetri BertConfig
isk ater
Ġregnet x
Ġnest erov
ĠDes iredAccess
ĠAuditLog Entry
PISAR oIHead
Exc ite
CONNE CTION
Lr UpdaterHook
IMPAL A
. **
/ {}".
0 36
8 40
> ./
? "<
A fter
E EG
H Q
H OR
K W
K itti
S LE
S quest
T uner
U ES
V FE
W ar
b v
b abel
b ang
d yn
d Same
i ally
s uppress
w as
} ))<
im ms
in fl
on y
al ies
ut k
lo ops
Ġre connect
Ġp tr
__ |
Ġm ilestones
Ġs ch
Ġs pi
Ġi w
Ġi x
Ġi am
Ġo mlt
Ġin struction
pt m
Ġb f
Ġb ary
to o
Ġd pr
model zoo
.. "))<
ĠC P
ĠC RE
ĠC VE
ĠC apt
train Id
Ġde conv
Ġde serialize
Ġde compose
ĠP ers
ĠD rop
ĠS em
ĠL aunch
ĠL ABEL
'] :
per iodic
com bine
CH ILD
Ġv max
Ġr ts
ST AR
10 9
Ġe arly
jo y
Ġmm gen
ĠG ather
Res ources
tf ds
ric al
Conv Block
ca ptions
du ced
Ġfloat s
new line
Ġz mq
Ġio path
ook ie
]] ),<
Ġgroup by
ĠK Means
pp ing
DESCRIPTOR PROTO
COM MIT
Ġ9 8
ud ge
ton ian
UP SAMPLE
fast a
Th rottle
Ġmode s
sv m
RES UME
LR BBoxCoder
sl ack
ĠDe coded
qual name
Ġsp conv
SA Module
Ġmo v
leg ion
ĠPol y
ĠPol ynomial
ĠLog Stats
ĠMulti Agent
ĠAPI Object
Mo ving
LAY OUT
SO FT
Ġsym metric
ĠSE LECT
FORMAT STRUCT
nv cc
Ġsy nthtiger
ĠAlbert ForSequenceClassification
gre et
MAIN DER
Video Capture
ĠEX IST
visual izer
Anchor Head
ĠFeature LibError
Prepend Bool
Ġinf os
PRI VATE
licit Enum
"} },<
manifest s
CLASSI FIER
Double Heads
Byte Size
ĠLazy Call
ĠSim ulation
Ġadapt ed
CONTENT IDENTIFICATION
dart s
iler plate
ĠBlenderbot Small
Generalized RCNN
aid u
ĠSU DO
NAS FCOS
ĠBertGeneration Config
ĠPly Data
ĠClo ud
tempor al
LOOK UP
edM entions
nbs phinx
ASCI I
ĠMultiAgent Env
PrependBool Slot
, %
. ])<
0 40
: ]))<
? [
@ {
C pu
C oro
D LE
F laubert
F SAF
G AT
H SV
M ongo
P et
S afe
S aturation
T G
T M
X G
d on
d Conv
f ram
f urthest
f avicon
h az
j ack
l or
l just
p fm
s outh
x sum
y i
or row
on message
re cons
re ceive
st ochastic
Ġt oggle
al ker
an ded
Ġn ib
am ino
Ġre cor
Ġp agination
Ġs pl
un defined
Ġb anner
up dater
Ġ[ ["
ap ath
ig ature
is atty
Ġh h
Ġd range
Ġ2 0000
(' ..')<
ĠC ap
ĠC rypt
ĠF ormat
Ġde scribe
Ġde precate
ĠP seudo
th umb
ĠS MALL
pre h
pre cedence
Ġst one
Ġpar a
ĠM ON
rand aug
Ġto gether
': [
pi o
10 7
Ġe ffect
reg ions
col lision
Ġtf record
MO BILE
Ġab i
ĠG host
Ġoutput ting
ac q
ac ian
IT ERS
Pro of
nd c
nd o
work dir
inter op
Ex ponential
LO OP
Ġlist s
ĠW rapper
Ġ[' ../
pol ynomial
PO UT
Ch a
Pre d
Ġpos ix
so up
Ġ"" ):<
PRO GRESS
post fix
Mask IoU
close st
fic ations
Register Extension
ick en
Ġ". "<
Ġ\ |
tr ust
ĠJ o
VER IFY
SH APES
abc d
ĠCo ord
TF Roberta
Sub mit
Ġseq s
diff s
Ġsent inel
ĠResNet Config
Tree Node
ĠAPI Flask
the seus
cut s
vm py
Ġassign ment
BOT T
Ġtri als
ĠNo Return
EpochBasedRunner Amp
si am
Service Account
Ġsend Message
NN Formulation
NOT E
ĠAlbert Model
ĠSe lf
AUG MENT
comp liance
vol t
SW ITCH
Fix ture
Ġdot a
Post processor
Abstract Process
Light Serializer
Ġclose st
+) \
Import er
Del ay
ĠQiskit MachineLearning
DRO POUT
Big AutoField
Byte Tensor
Ġmx net
optional s
ĠHttp Url
glyph s
Parse Error
synth esis
Quality Audio
Ġprun ing
Ġtq f
eu clidean
chair s
ĠAR GS
PREC ISION
Ġactiv ations
LEAR NING
TABLESTYLE PROPERTYCHANGESETARCHIVE
Dest ination
Ġlamb eq
EDIT OR
Ġhr net
stub s
VPNt VPNt
nift i
DotProduct Attention
ARCHITECT URE
shufflenet v
Ġshe ets
MaskIoU Head
! '<
( @
) ==
, **
7 20
B R
C alledProcessError
D jango
D WORD
E qu
H our
H AM
N ME
P arent
T ick
V CS
] '
a cuum
b ary
d Schema
f list
h bb
i abn
k ubernetes
l ittle
m initorch
o use
p it
p aired
t resnet
x C
z ier
re pos
de scribe
as sth
Ġp hoto
ra c
Ġb os
Ġb us
up cs
Ġg cp
par s
ig en
Ġw on
em ic
Ġh am
Ġd values
ist emic
(" *
ĠF LO
ss ld
Ġl tr
ĠD A
ĠS ho
ĠO P
ple ts
pre mise
app en
os v
net loc
ĠB ias
ĠB ATCH
10 10
Ġdi stributions
>@ _
Ġint el
Ġint egration
Ġk pts
Ġpy ramid
Ġpy quaternion
Ġen close
Ġen dian
Ġco ver
iter ators
ĠE VAL
ug ht
ĠN ative
Ar t
cu hk
iv ing
Ġdat um
CT L
ĠG P
ĠG l
To o
ĠV M
ĠV FlipTransform
ft y
sp ent
inter cept
Base Module
Re cogn
Ġ12 6
0000 001
schedule d
amb ient
Im pl
ĠIn fo
ĠIn dependent
01 5
Path Handler
la de
sent ry
sg qt
ĠNot ification
State Machine
ĠTensor List
INFO COMMANDARCHIVE
stack ed
NUM ERAL
uni former
Ġserial ization
Ġcount ry
96 6
Ġct r
Cont ract
Ġno isy
mod ulator
sl urm
Get Array
ResNet Base
track ed
ĠPre Norm
ĠCh rome
FPN Head
SC R
tri cks
cr atic
Parallel Mode
ground truth
Fast erRCNN
Ca ffe
LOG IN
44 4
Ġman ual
ĠSc en
REFERENCE ARCHIVE
Tra cer
Tra jectory
FIX ED
CS V
allow lister
Ġsw aps
ĠTrans late
ĠDep endency
Ġstack level
Ġmon ai
Ġ} ]<
Ġlang s
SY S
Dep recated
ĠPost DB
ĠAn omaly
Cre ating
[:,:, :
mel s
Method s
ĠRun ner
Sm art
Ġdisp atcher
ĠAp ple
ĠQiskit Optimization
REF RESH
Learn able
Ġepisode s
utter ances
diagram s
measure ment
Bi jector
Ġpat rickstar
ĠFlash CLI
Ġtt Lib
LVIS Dataset
ĠStandard Scaler
Ġslot s
Disk Loader
CONTRA ST
Leg end
ĠFCN Head
Sho ulder
Ġmim etypes
ĠNaive SyncBatchNorm
ĠSpace To
tech nique
Contain s
SHI FT
RESER VED
dialect s
ARTI FACT
UNCTU ATIONS
ĠDrawing Interface
SLE EP
assth rough
GetArray FromImage
2 18
: ]]
A O
A ware
C ASE
D UMP
E CK
G amma
K G
M a
M IC
M ARGIN
O ther
T iny
T ube
T fds
[ ["
_ {}.
b j
b roker
c riteria
g adget
h anced
k im
l lff
q k
z a
} ?
} ")
Ġ lf
er ce
re bleu
Ġt dict
al man
Ġre covered
es ome
Ġp vt
Ġc art
Ġc ritic
Ġc auchy
Ġs id
Ġas k
Ġas Fea
un parse
un labeled
ag ger
Ġb log
py x
ex clusive
ab oost
set Color
po pen
Ġw indll
em at
Ġh ull
Ġd up
Ġd df
Ġ2 99
pl ural
co lour
(" ..")<
pro perly
test set
ĠF AL
ĠP et
ĠD im
ĠA m
'] }
bu ff
ew s
Ġr pc
op f
Ġpre fs
Ġex e
Ġk d
Ġun supported
CO OL
min us
AL IGN
AS R
Res K
24 9
Pro tect
index er
Ġ8 9
AD CAST
group ing
Com binedSampler
ĠW rap
Col ors
exp name
DAT AP
Test ing
pr ime
ĠX t
ĠBase WrapperDataset
ĠIn finite
abs x
Ġ16 000
15 4
PI P
PI PS
Ġatt rib
Ġann s
ink ing
Ġle ader
unk ai
Ġmulti agent
En abled
En glish
wh it
over lay
14 7
IC S
IC LE
sv c
sv d
RES IZE
lp c
ĠConfig Store
39 3
Multi ply
Ġhash ed
Vi olation
SH AP
pop ulates
LayerNorm alization
Ġenc oders
}. '<
acc ine
Sub net
Table s
pil low
Ġpost fix
Ġclip ped
Ġchar set
MOD ES
tol erance
Ġfin alize
TTk Window
suffix es
.* ?
IF X
Ġwrap pers
XL NET
gre ed
big gan
Ġcomm unic
ĠPer iodic
("_ ")<
Ġar ia
Ġmedi um
ĠGuild Channel
Change Event
bet ter
ffic Light
Su cceeded
ĠDummy Dataset
Ġfix er
:{ '
ĠAP P
see ded
mut ation
DRAW ABLES
ĠSystem Exit
ĠCenter Crop
Ġpipe pager
contrast ive
(?: [
SL UR
Learning Rate
Ġdetect ed
ĠMutable Sequence
Ġcomput ed
udi d
Ġnat sort
DEV NULL
blueprint s
ĠInc re
ACTIV ATION
Ġgp flow
SENTENCE PIECE
agged Tensor
COUN TS
Press Event
XM ERT
ĠRect angle
semb ler
ĠSTRes Tesseract
ĠFSMT Config
Sn apshot
Ġsal ina
ĠSaf ari
EXTER NAL
ĠTab ular
) ].
, [
, ...
0 123456789
2 33
< =
= ()):<
> ``
E CH
F lat
I y
I BN
K S
P alette
P AI
P ADDING
W ide
W allet
Y L
_ :<
_ ,<
d ol
d qn
f al
g hijk
h ci
m map
m umble
n or
n parray
q q
s af
t urn
t id
w l
w indll
z x
z ones
re structured
st on
ar l
ar vester
as ures
en dian
am eter
Ġre cur
Ġre starts
es p
ur andom
fi at
Ġc ity
ra py
Ġs we
Ġi sc
Ġtorch script
ag ation
Ġb ilinear
Ġ1 11
om o
=' _
str ong
str ptime
Ġg rep
ĠT emporal
00 7
Ġh ybrid
nn UNet
Ġd types
). _
ĠC elery
Ġis o
Ġis dir
Ġis lice
IN C
IN FERENCE
ĠP S
ĠP od
ĠP lay
ĠO ver
ect ors
Con firm
ub es
Ġto str
pi ed
Ġv ae
ip pet
ST ACK
ĠR oman
att le
cess ary
EN CH
Ġk aldi
Ġpy botters
unt u
lock ed
Ġsh p
RE CE
rad ar
read out
our s
ĠG e
ĠG st
Res er
proto cols
sum exp
aut oregressive
inter pre
Ġback bones
AD A
Ġal ter
Ġlog var
Ġ12 80
ĠImage ToTensor
mat s
exp licit
Ġtry ing
80 20
Ġon p
17 1
Ġbe ing
Random CenterCrop
Ġ9 60
ĠRes net
PRO VISION
Transform Gen
Set Prober
Se cond
CL A
ĠNot Found
Ġcode gen
36 2
Det r
ĠConfig Parser
Ġlib dyson
tr ig
tr ino
Cont act
Ġno vmpy
mod name
PER ATURE
pop ulation
email s
ML INK
## #
TOKEN IZERS
non linearity
Ġsp acing
way droid
Sub ject
ĠSh are
payload s
Ġpri vacy
augment ors
Pos Sampler
NOR TH
fs Rpc
('. ')
war ded
symbol ic
ĠSer ve
Ġhtml parser
sens itivity
Code c
fold ing
ĠTrans ducer
ĠInput Features
ful Set
ĠNum py
inst aboost
ĠGuild Sticker
ĠMobile NetV
ĠDistil BERT
hm r
IR D
ĠDeep Lab
effect ive
Ġhe bo
ĠInit ial
ĠHard Swish
LEG ATE
LEG END
ĠMasked Conv
Properties Archive
arc cos
LVIS V
Potion Map
ROT ATE
Ġder iv
Balanced PosSampler
Ġcum ulative
PUS H
Ġcho sen
ĠNon Local
nop q
OG M
Ġgu ess
Vert ex
FREE ZE
routine Info
ĠAllow Any
brain s
ĠTR UE
recor ding
ĠCy thon
collap sed
MaskScoring RCNN
tople vel
Ġdam pening
FORMATSTRUCT ARCHIVE
SLUR M
restructured text
RandomCenterCrop Pad
" *
- {}.
? ",<
C W
D ual
F PS
J P
N B
Q M
R ay
T rend
T emporal
_ \
c one
d ct
f ol
g zip
k means
l mb
l apping
l xml
m im
m pu
s x
Ġ ut
Ġ ses
Ġ firm
at o
se cs
re use
de b
de ad
st ick
ar ith
le sky
ch et
ch ant
an ies
it able
it alize
lo p
pe m
Ġm ed
Ġm ongo
Ġm irror
Ġc ifar
Ġs sh
dat aloaders
ad or
ck o
Ġb alanced
int ents
=' #
set Layout
Ġg w
od on
po ols
Ġos remove
Ġnp z
Ġa void
). ")<
(" |
ĠF actor
ĠF inding
ĠP ure
ĠD r
ĠD iff
ĠA IST
ĠS K
ĠS CRIPT
ĠS UB
ĠS catter
ĠS QuAD
'] }<
pre processed
OR ATION
ub Sub
ĠM achine
() ;<
ĠR I
Ġdi alog
que ador
Ġk k
Ġpy o
Ġse curity
Ġen ough
Data Format
Ġco arse
ĠE IP
Ġsh ot
RE PLACE
ĠN FNetF
IVE D
IL Y
tf p
Ġ[" ",
loc s
ner gy
('-- '
ĠCon ditional
Ex pi
Log s
Ġch n
") }<
ĠW ITH
Ġ[' __
ler p
exp anded
rank sort
EST ION
Ġid le
man age
keep dim
EX PI
Ġpol l
Ġstart up
): ]<
ell anies
predict ive
COMMAND APPLY
76 6
14 4
graph signal
-------- ---<
ision Tree
RES OURCE
Int Tensor
NO W
rid er
tr n
IM UM
200 1
ĠCo AtNet
auto use
Ġcurrent module
ĠBert LayerNorm
author ization
Group s
VERSION S
segment ations
ĠPar queador
Roberta Tokenizer
section s
GRO UND
disc rete
Request Handler
export able
benchmark s
fs ce
poly iou
Dis posable
iny in
INTER PO
Target Formatter
TE LE
ACT IVE
Coco Detection
bi jector
coord inator
ĠAlbert ForTokenClassification
Ġip db
Ġflatten ed
Pri vacy
ANCE L
TEM PERATURE
ĠGuild Property
ĠJSON Response
CONV ERT
Ġmisc ellanies
Bart ForConditionalGeneration
PRI VI
hw c
Export Serializer
adv anced
prun ing
Ġleg end
Plot ting
accum ulator
paper less
Ġpers istence
ĠRO BERTA
FEATURELIST ENTRY
Fused SemanticHead
Domain Helper
Aggreg ator
Fake Quantize
ĠExpression Group
POSIT IVE
ĠOn ly
LANGU AGES
Assign Result
ĠCR UD
summar ies
onom ous
Blenderbot Small
Ġfail ures
NEG ATIVE
'''' ''''
Ġpys park
MANAG ER
ZO O
Provision ing
MW Jb
Ġmodi fications
Ġja cobian
Ped ro
ĠEXIST S
0 24
4 22
9 00
B AN
B lend
C ent
C la
D Head
F u
F ar
F unnel
H UB
J oin
L K
L iteral
N LL
P ayment
S ED
S izes
Y W
Y OL
Z a
] }')<
_ (<
a T
b ond
c oding
c ube
d Pack
e lo
g am
g vt
h ls
k b
l iteral
m g
n ist
p cs
p aws
q vec
r te
s blocks
u ssion
re order
re served
st aking
Ġt warc
al bu
ch alk
et ched
Ġp et
Ġp ur
def n
__ ]
__ _/
Ġm ight
Ġs olo
Ġ" **
Ġ" ://"
arg min
Ġo ct
', '<
Ġb rowser
ex pose
res blocks
ĠT LV
em ath
Ġ- --------------------------------
is class
Ġd out
(" ="
pro t
ĠF COS
ann s
Ġx gb
Ġx ingyu
Ġl z
Ġl anguages
IN NER
Ġde s
sh arp
ĠS ampling
get sock
Ġpar sing
Ġget opt
OR RENT
ĠM L
Ġr tk
ĠB OT
ĠR ow
ĠR UN
ĠR emo
ĠR ULE
Ġcol lap
Ġcol laborator
Ġe le
Ġe ca
Ġpy arrow
Ġu q
In Port
In finite
Model Validator
Ġset s
join ed
ĠG ated
Ġth op
Ġ10 4
token ized
Ġ8 2
time frame
lin der
ts df
mon g
Ġ12 00
Ġpo inter
ze bra
Ad v
ĠIn PlaceABN
COM B
Ġ9 5
15 3
Ġapp lied
Ġ"" ))<
HE AT
Command Error
Ġline age
initial ization
dis cover
19 0
Ġop us
Un defined
sq z
Ġvar font
html help
Classification Dataset
Not ify
:: -
Nt Create
Ġ28 8
Event Loop
Ġ", "
Function Def
ĠModel Checkpoint
req s
inf inite
Map Entry
way point
has attr
Stat istics
=_ ("
Point Head
ĠAl gorithm
AIL abel
lab or
admin istr
AU DIT
utor ials
Ġli ao
ĠXLM Tokenizer
Ġrender ed
atter y
emo j
NOR MAL
Ġfi b
Read y
Dis able
ĠSnowflake List
distil lation
ĠMy Factory
ĠRoberta TokenizerFast
Min Max
ĠAlbert ForMultipleChoice
Ġgl uon
Connection s
sur vival
stra ce
PREFIX ES
hole s
PROCESS ORS
Ġar rays
Ġred mail
SUB MIT
ĠRet ina
Ġep d
Ġeasy transfer
ĠUp dater
SIGN ATURE
EVAL U
Ġexperiment s
ĠSign ature
BUILD METRICS
shell code
OPEN AI
ĠPreTrain edModel
\' "]
Ġgray scale
consum e
CONTRO LL
Ġstrip ped
Ġld j
Work space
PLO Y
publish ed
Squ ared
ĠTri al
Ġoc cur
Ġregnet y
ĠFOR MAT
ĠWAR NING
ĠSync BatchNorm
ĠCD LL
Cho ose
Ign ore
Ġpie ce
DEPENDENC IESARCHIVE
Ġmobilenet v
ĠBBox Head
Cam eras
Lang Model
ĠForward Ref
ALG ORITH
ĠAsyncIO Motor
--------- <
ĠBLE U
ATTACH MENT
Rust y
vist as
ĠScen ario
properly Configured
getsock name
( %
. -
> &
> ---------<
A da
B ART
B reak
D EST
D OptionsAdd
G C
H old
L ID
M j
N VIDIA
P a
S olution
S cope
T ur
T CP
U GE
V ectors
W ave
W HEEL
a head
a waitable
b io
b right
b reed
c and
c rawl
d ff
d arknet
g ma
h al
k el
k ron
l as
m illi
m agenta
p lify
r il
t end
t ions
w en
x E
at ile
at ops
st o
ch en
Ġimport ed
Ġn th
it ed
lo v
Ġp otion
Ġm om
Ġm ba
Ġs b
Ġs ilu
Ġf ailure
Ġ" !
ol ling
ex pl
Ġg iou
po und
par ation
pro f
ĠC ityscapes
ĠF al
ann ouncement
Ġl bl
Ġde al
ĠP age
ĠP LU
ĠP ACK
ĠA SPP
ĠS cre
ĠS lice
ĠS FX
ĠL S
ĠL OCAL
ĠO CR
app lications
() '<
Ġv grid
Ġr er
ĠB eta
EN VIRONMENT
Ġarg max
Ġk lass
Ġk means
Ġco lour
ang ing
col laborator
20 10
In jection
AS CAL
ĠG LOBAL
)) "<
ron tab
Ġth rottling
000 8
Ġcom par
ca it
Ġ'. '.
ptions Add
CON FI
Ġmin ute
ĠW OR
Loss Parameter
ĠData Store
ĠData Collator
Ġcl usters
Ġq d
SS P
Ġmat erials
ĠBase DetectionConfig
pp c
pack aging
{} ]
eb p
Str Parser
depth wise
US AGE
Format Type
Bert ForSequenceClassification
COMMAND PIVOT
TEST DATA
sy ntax
ĠPro vide
Int ents
IO Wrapper
ĠIm port
auth enticated
ĠY T
COL LAB
ĠCol lect
PAR SE
URE D
roi aware
With Callback
Pl ugins
Sub set
mix in
cr ud
web hooks
Decoder Layer
extract ors
Ġdisc ret
sim ilar
SPEC IFIC
ĠInt el
Ġhttp server
TTk Color
DEN T
diag nostic
Ġclo sed
clean ers
inv ite
Ref lection
ĠRoberta ForMaskedLM
ĠApp State
Classifier Output
install er
LEN ECK
cost s
ĠTransformer Model
TABLE MODELARCHIVE
Ġinclude s
Line Parser
ĠPer missions
Ġplay list
Ġvisual izer
SW AP
sequ ent
ĠMax Pool
Ġfreq s
ĠAutoModel ForSequenceClassification
Ġvi olation
Ġmem cached
Deform Attn
ĠDPR Reader
Cre dentials
preprocess ors
Ġanswer ing
ĠQuant ization
Ġcent ers
Me asure
Ġdiv mod
ĠGym MazeEnv
CLU STER
Hard DiskLoader
primary key
uro pi
Parse Options
ĠVisual izer
ĠOne Hot
Aggreg ation
ĠMan ifest
FRAME WORK
robot ics
HAND LER
ĠMOD ULES
Cool down
ĠFrame work
ĠCoco Dataset
LEAR N
MES H
SEGMENT ATION
AuditLog Change
Solarize Add
ĠSA INT
ANN ED
Ġ'{}' ".
Ġlamb d
Ġdistil lation
ĠMS DeformAttn
CERTIFIC AT
Deberta V
ĠCallbackQuery Handler
DAY S
ĠIo U
rown ian
gx Y
ĠPass word
Ġalphast ar
PUB LIC
mapp ings
Tom my
Three Point
XH gxY
aemon Set
Heur ist
BOTT LENECK
ghijk lm
COLLAB ORATION
ĠMSDeformAttn Function
0 30
1 32
A j
A LE
B log
B ee
B LOB
C ATE
F USION
G SS
H ist
K HTML
M omentum
M lp
P B
P aper
R ename
R uo
R ENDER
S ig
T wo
U net
W riting
[ /
] })<
_ ",
a di
c ad
c xx
d ino
f q
f abs
g X
g d
g as
h air
h essian
k ar
l ord
m r
n head
r pi
s itk
u ke
at ives
re ater
Ġt fg
le cs
ct w
Ġp ublisher
di vision
pe pper
el astic
Ġs heet
Ġf usion
dat ions
Ġo dim
Ġin crease
un load
ce DF
py project
il low
il sv
ot une
str s
ap proved
par tem
is son
is lower
to file
model def
Ġa pe
Ġa round
co pg
(" $
(" ~
(' :',
ĠF eatures
Ġx i
Ġde cl
ĠD OC
Ġcon sum
ĠA nonymous
ĠS ym
len ce
ON ES
ĠI R
>_ ("
Ġv oid
Ġ/ _/
ST S
ĠR Lock
att ice
Ġint rinsic
Ġk ill
Ġe qui
Ġco ins
ps util
In clude
In DB
min imize
AL BERT
AL GO
ĠG AN
IL ING
Ġcom ma
Ġcom ments
Ġcom pany
ĠH andler
Ġfl appy
token ised
Ex pan
Ġ8 7
Ġal chemy
Ġopen ai
]) /
]) ',
Com pare
unc ertainty
sub tract
rank ing
trans lations
Ġon line
ret ain
seg former
ĠEx cel
11 5
COM PI
COM BAT
15 8
Ġ"" ")<
Ġtra ffic
Field Archive
ĠTF MPNet
ĠConv BNReLU
Sc aling
sent s
move To
enc ed
Th ank
Out Port
Co arse
replace ment
Ġcor nell
14 40
Ġrot mat
Ġca ptions
ĠCom m
NO UN
ng pus
Top K
fill color
Map s
Inter polation
Sub st
Sub Factory
Ġrel path
efficient det
IP C
cer atops
ific ial
temp file
Mo use
Ġfin etune
ĠQu ick
Ġdst path
sn ap
Ġmult ilingual
vgg net
ĠNo Of
Ġlink link
Ġentry point
Pol ynomial
Device Certificate
ta ken
ĠCON T
mar ization
Ġauth entication
ĠAlbert ForQuestionAnswering
ĠAlbert ForMaskedLM
Chart Axis
ĠPI XEL
Ġquant ization
CELL REF
Open AIGPT
JSON Encoder
ĠInter rupted
ĠSingle ton
Flow Net
ĠHTT PSConnection
Ġml vl
Quant ization
Ġmid dle
ĠSw itch
Ġvi olations
Deform RoIPooling
RF P
ĠPartial Message
tw ins
MON TH
Ġexpand user
Mod al
ĠStr ategy
istent Volume
++ ++
LAT ERAL
ij un
Sl ash
Ġoverlap s
ĠYOLO F
communic ation
Stone Map
LIGHT ING
ĠProphetNet Config
ĠCAM ERA
Fashion MNIST
Ġrig id
Ġxt cocotools
Balanced L
Ġspect rogram
Serial ize
Write Image
lamb d
cub ature
Ġ': '
MER GE
ĠATT ENTION
Ġtempor al
Vert ical
ĠLegacy Fairseq
SUP ER
ĠFeed Forward
Cu da
toe plitz
Privile ges
TSD CommandArchives
Ġmis match
ĠROT ATED
ĠRew ard
Ġtg Updater
Ġqb Client
ĠEp isode
ĠOld Note
War per
fty one
ĠQiskitOptimization TestCase
CONTRAST IVE
mong odb
COMB INE
Ġalphastar mini
lecs ls
ceDF i
ilsv rc
COMBAT LOG
( ...,
) >
) ()<
2 73
4 16
> **
A FTER
B its
B ranch
D iv
E PI
F ail
G pu
G host
G ateway
H ER
H ARD
J ceDFi
K pi
M J
M ol
P ull
P tr
P DF
Q Graphics
R ULES
S ys
X N
] ')<
b np
c de
c ities
c assette
g te
i uv
k m
k args
l ust
o DBC
q d
t ue
u str
v ine
or bit
im a
in dice
in verted
ort heast
on as
re strict
le ak
as cript
ch oose
an es
an te
ion ic
Ġn ative
Ġre xnet
Ġp ron
Ġc sp
Ġs ma
Ġs alt
Ġf fi
Ġf names
un wrapped
pt t
ab a
=' :
id ump
Ġg pytorch
Ġw ho
Ġw riting
is inf
ke w
Ġd ry
Ġd ll
Ġa ios
(' __
ĠC USTOM
train id
ĠP agination
ĠS y
ĠS to
ĠS ave
get key
ĠO r
Ġtyp ename
Ġel astic
AT en
ĠM SG
=" .*
=" .",
AR I
() *
() ())
Ġr p
ST DOUT
ĠR EC
ver ified
Ġint egr
ĠList Node
Ġk ron
Ġe uclidean
Ġpy project
Ġfile input
rc Params
script ing
RO C
ĠG rouped
ĠAny HttpUrl
)) +
ED ATA
24 8
ĠH yper
lr ate
SE Bottleneck
AB L
open id
ust um
ĠImage Folder
ly ft
ropo ff
man aged
Test Class
Pre processing
Ġan im
prob e
clo sure
ĠBase FileHandler
48 3
ĠSt rict
clip p
interval s
Train State
my st
Ġtoken ized
pk t
enc il
vg p
Text Channel
dis count
EL L
FF mpeg
BO OT
SP ORT
Key point
Int egr
Ġad ap
ĠRe place
height s
Classification Head
Ġ\ /
200 000
late au
lig ence
cast s
play wright
avg max
part ment
era ise
Inter polate
skip If
eric a
Point Cloud
dnn lib
}) '.
vector ized
Auto scaler
ĠRandom HorizontalFlip
TER Y
distil gpt
Ġhost s
ĠPl ace
orn ado
mach inery
lan es
fail ures
SQL ALCHEMY
Dep endenc
HASH SEED
Training Arguments
Ġlab eled
fore ign
SSL Context
detect ed
ĠSH ARED
ĠMM CV
License Request
sol utions
Rule s
Reference Line
STORAGE ARCHIVE
Ġmc do
hom og
VID ER
analy ze
analy tics
Ġpercent age
Cy clist
Comple ted
130 5
IDENTI FIER
COND ITIONAL
Ġpers pective
ELE CT
Constructor Generator
hierarch ical
HI DE
ABIL ITIES
Ġagain st
Pod Autoscaler
flying things
Dif fer
COUN TER
OUR CES
ĠEfficientDet D
Probability Distribution
Ġconvolution al
BLACK LIST
ĠGeneralized RCNN
runcated Normal
ĠCoref Debug
appoint ments
ĠRand Augment
WIDERFace Dataset
aio http
ModelParallel Region
EFF ECT
Compat ible
Ġspi ral
Ġposix path
Tfds DataSource
Ġ--------------------------------- -----------<
pepper clipp
lust re
Ġaios qlite
Dependenc ies
+ "/
, )),
- ',
. ")
0 20
2 76
4 40
: ],<
B alance
C U
C tx
F i
H S
M ust
N SPHead
S at
S pl
V ehicle
W U
W ANDB
Y C
] }"<
_ *
a cos
b ill
c unumeric
d ora
f A
f ct
h ubert
i XHgxY
m Dice
n ortheast
o V
q qp
r alytics
s amp
t ie
u ce
v qa
w ifi
x i
x ref
} |
Ġ questions
im decode
in crease
er ence
import er
se x
ro ps
as er
ch rome
it ize
et up
Ġp ivot
__ "<
Ġc nn
Ġ' ))<
Ġi id
Ġin compatible
', "")<
Ġb ra
ab cs
est yle
ser if
=' <
set rlimit
Ġg perm
po ky
ap cnet
Ġnum el
Ġh dr
co od
co ped
co alesced
(" @
pro ceedings
ĠC amemBERT
sc rape
Ġx array
Ġde epl
ĠP ART
th rough
ĠS qu
get rlimit
end ings
Ġst arknet
=" >=
ge om
Ġnot ion
() )))
ob servable
key Patch
net G
Ġr ss
Ġy edges
Ġy arl
ST E
us able
us imple
ĠR L
ĠR ate
ĠR pc
Ġsys config
Ġsys profile
norm s
norm ed
Ġk now
Ġpy g
Ġse lenium
32 6
St ub
>"" ")<
RE AT
RE PORT
Ġpro lic
ĠN EW
Ġfile Config
label Img
Ġab ove
CO OK
ac cur
000 6
flow s
ĠCon former
Dict Action
ca ch
object ness
Ġimage utils
]) ):<
open a
ĠW ang
ber to
tes la
Ġdist ortions
sub reddit
sub stit
Ġim s
rel lo
dist ortions
dm net
tra des
ĠData Processor
Ġext ent
Pre dicate
List Style
18 2
Ġ{} .".
iss ame
clo uds
48 1
11 3
COM PONENT
15 9
sk resnet
my nn
Ġtoken ised
Var s
Bert ForQuestionAnswering
COMMAND CATEGORY
sy strace
Process Group
Node Set
Ġthread trace
Ġthread profile
Ġembed der
Ġwidth s
ĠCom pilation
WOR DS
58 7
compat ibility
ERR ORS
SER V
Ġac me
wo od
ech an
inf inity
Sub Slot
App Def
Ġ"- "
Ġpri key
Style PropertiesArchive
Feature Encoder
PROPERT IES
fs det
fs af
Ġallow s
free bsd
Ġmy req
Ġnon local
Filter Backend
distil roberta
ĠMy SQL
Ġloc ations
aggreg ated
ĠOpen SSL
88 8
ĠHTTP Status
DOT AS
FEATURE ENTRY
Ġot Round
Ġquant izer
AC COUNTS
94 9
cap italize
ĠIN DEX
EMBEDD ING
Ġcap key
TRA DE
ntax Error
Ġ"{} .
ĠJSON Field
Ġsimple perf
pub name
Ax es
Cl asses
Import From
MAN TIC
Ġfon ts
Ġbit Mask
Ġam sgrad
capt cha
cons istency
ĠBO OLEAN
Dispatch er
BIT MASK
Residual Block
Ġnlp d
ĠCut out
ĠBlenderbot Config
tm pl
Ġreci pient
ĠCheckpoint Loader
Ġngram s
ĠCl uster
ĠAns wer
sma High
sma Low
ĠEnvironment Error
LICENSEREQUEST RAW
enn is
,:, :]
Voice State
compar ing
Ġtimest ep
ĠPATH S
lica Set
Ġcontour s
pron ame
Tem plates
ĠPositionEmbedding Sine
PERS ON
Ġcombin ations
Ġwar ped
ĠLast Level
Modulated DeformConv
------ ")<
Exporter Types
Ġsched ulers
Ġplat id
ĠFB NetV
SECUR ITY
particle s
alb um
WRAP PER
fab ian
quis ition
DATET IME
ĠWandb Logger
GradientClip per
ĠApple WebKit
nopq rst
" (
: ]]<
: ]),
= \"
B r
B ound
B ENCH
D ig
D IL
G AR
H PARAMS
I B
J K
M ath
M arian
N aN
P ur
S OUTH
S prite
T ele
X R
` )<
b z
b en
b ypass
d an
d ds
f X
o vgp
s ites
s omething
v ino
Ġ INPUT
Ġ until
in jection
import ed
st m
as ise
it m
am ent
Ġre ce
et orch
et ag
ur bo
fi denc
Ġm ade
Ġc rypto
Ġ' $
Ġ" ?
Ġ" ))
Ġo thers
ed a
Ġtorch text
Ġb p
py rator
Ġ1 14
up ancy
ult ralytics
ig ues
Ġw ig
type hints
Ġnp a
is lice
Ġh igher
Ġa e
ext ended
co variance
pro v
pro ber
pro cal
(' [-]
ĠF ocalLoss
ĠF FFF
ay lor
Ġx e
Ġ{ **
IN STR
ĠS ensor
ĠS end
ĠS ynth
], )
he artbeat
'] [:,
ĠM ET
line age
ĠI mp
Ġv g
ĠB all
att empt
Ġe as
Ġse lection
ĠE vo
ĠE nv
Ġsh uff
RE DS
Ġpro viders
Ġmm fewshot
([ \
20 11
arn ess
In gest
Ġbu ffers
fl ac
ĠG o
ĠV ol
Ġ10 6
Pro c
ĠH uman
** /*.
AN TS
RI P
RI DE
Ġch art
api client
') ]
ID s
alle te
plot man
Ġnew s
ts a
UT C
UT TON
Ġlist en
CON SUM
AP PS
sub scription
trans lated
80 8
SI DE
PO LL
her bert
(_ ("
rib utors
au d
Ġreg ions
PL UM
100 1
ĠEx tra
99 8
clip s
patch er
ĠConv Layer
fc c
rot ations
Ġle aves
Text Input
19 6
Bert ForMaskedLM
sm art
SP AC
ai T
ĠConfig Entry
ĠCom p
ĠCom poser
NO DES
git a
Ġformat s
lat es
PS JceDFi
scen arios
Man agement
non existing
Ġsign ing
Ġver bosity
learn ed
HO LE
ba id
ĠCh ange
Embed ded
ĠLO AD
Action Runner
SC EN
ĠTo DataContainer
Seg Rescale
Ġli etorch
Ġet h
Dist EvalHook
sem i
stop ped
Embedding Bag
44 100
Ġcre ds
Ġman ually
ĠModule List
dr igues
lem ma
Of Operation
Ġloc ate
RGB A
ĠSE Layer
RoI Pool
high est
Thread s
ĠPer ceiver
Ġperm utations
CF B
New s
Rep resent
Ġne ighbor
cum ulative
Training Sampler
ĠObject Attributes
ĠInvalid Argument
CI MAL
Paint Var
dy lib
eig vec
ĠTraining Arguments
Ġatom ic
ĠSparse Markov
ĠResource Pool
SL C
Tri al
>` <
YOLO V
timest ep
Average Pooling
illing Group
Ġcomput ing
ĠTFAlbert ForPreTraining
ILL ION
Cls Head
CONST ANTS
ĠMan ager
Install er
PRESET COMMANDARCHIVE
lett uce
Orig in
ĠSO URCE
ĠConvert er
Shard ing
flying chairs
ĠElement Tree
thre emon
Ġsummar ies
land lord
ĠBit Masks
MAPPER ARCHIVE
DISTRIBUT ION
Ġcython ize
DRI VER
Eig ensolver
hog e
Ġpostgres ql
bomb ay
Hybrid TaskCascade
Conn ector
ĠDetect oRS
Moving Average
fficLight State
ĠAnonymous User
cach ing
fidenc es
) ]:<
4 18
A rc
A ux
B ias
C ORS
C riteria
D er
F s
G POS
H ack
I ENT
J WT
L i
M U
M PU
P rompt
S pend
S MT
S ynchronize
T s
T ortoise
U PT
W V
W AP
] },<
] }.
c name
c red
e es
e ur
j ar
j ump
l probs
m time
m itted
r bbox
r ho
s il
t utorials
v Z
w ant
x FFFFFFFF
y an
} ),
Ġ ]:<
Ġ ENV
in n
er Config
import able
re starts
de cl
Ġt ight
al arm
al ways
Ġre start
__ [:
Ġm lab
Ġs ong
Ġs vm
Ġs udo
Ġf moe
Ġo vers
Ġb readcrumbs
py armor
ab ab
ot Base
=' >=
Ġg h
Ġg id
Ġg ran
Ġg ive
Ġg umbel
ĠT RUN
to bool
Ġd sk
). """<
sc reenshot
ĠF F
ss id
bo ston
ĠD rive
sh aring
ĠA A
ĠA B
ĠA bs
ĠS ASample
ĠL ex
pre pend
Ġlogg ed
per c
ĠM icro
ax onomy
ĠI G
ĠI GN
Ġv size
che proof
ob by
net D
oc wd
ĠB LUE
ĠR OP
Ġpre computed
eg rate
Ġint ro
Ġe ye
da vis
Ġ4 47
ang r
RE L
Ġsc apy
head top
VE A
"] ],<
)) ))
ĠV ibrational
ac ite
ĠH ybrid
Ex pr
cor relation
ĠPath Like
Base WrapperDataset
Ġsub dir
Ġsub reddit
Ġal ways
]) ],
open ml
Ġlog det
Ġcont iguous
Ġmin imize
ĠW h
sub dir
Ġconv ex
Ġ7 00
trans lator
Ġim mutable
Ġ) ):<
Ġadd itions
SI gI
Token Dataset
AG NO
ĠData Type
Test Widget
Ad j
Ad ditional
context managers
EX CHANGE
EX PRESSION
Im plement
]] ],
ĠK DTree
Ġ(" {}
clip board
TT A
my py
ĠConv ex
Sc raper
Se verity
sign age
sign atures
common s
ĠIter DataPipe
Ġhead ing
Ġmulti ply
Text Detector
dis connect
dis parity
Ġtrans lations
Ġtrans lates
graph ic
Run Python
Ġvar iances
IO Base
Ġcontain ers
pri vacy
IM S
05 26
stream ing
bit wise
Ne ural
Ġauto increment
part icipant
Ġdec rypt
Ġorig ins
ĠZ ip
Al ready
tri u
Bu f
Ġmo difiers
ĠAl ert
Iter DataPipe
Ġdisc rete
ĠFile Lock
Fl ash
('/ ',
ĠTS WP
Ġma int
Mode OfOperation
ĠQu adratic
ĠModule Type
bb delta
rig s
Ġweb hook
ĠSE C
Ġsim plified
Ret rieve
Ret riever
Dense Block
ĠHTTP Connection
ĠSe parable
CELL VALUEARCHIVE
Memory Mapped
ĠInter val
Aut oregressive
warn s
ĠEX PRESSION
bucket s
MULT IFX
fb ank
ĠAutoModel ForCausalLM
ĠIndex ed
Sp acing
Ġvoxel s
pub sub
alt ies
Ġrect s
Segment Model
ĠFairseq Dataclass
ĠFairseq Criterion
Ġtranslate py
Ġ$ {
ĠAp proxMaxIoUAssigner
ĠUni Speech
Ġimp lied
Ġsepar ated
PYTHON HASHSEED
EVENT S
onic alize
expi re
Ġglyph s
Edge Set
ĠAL LOW
Grad Values
ĠUN KNOWN
Cross Attention
Ġnat ural
Ġrep licate
("../ ")<
("__ ")<
Panoptic Dataset
ĠMedi um
ĠVAL ID
Ġ"| ".
Short est
AUTHOR IZED
ĠAdamW Params
Dice Loss
Success fully
ĠAllow edMentions
ĠWork space
Ġtiny nn
Pseudo Sampler
Wr ist
ĠOUT PUT
uss ian
Ġsink horn
FCN MaskHead
abcdef ghijklm
ĠSmooth L
ĠBoundingBox Format
trivia qa
(".") [:
Ġtes la
fon ts
ĠQiskitMachineLearning TestCase
ĠSpaceTo Depth
cko ocwd
INTERPO LATION
opena ipublic
Ġwig gly
AGNO ST
) (_
* ')<
+ ")<
, )).
3 12
7 79
A ck
B roadcast
C RYPT
H ere
K Y
M F
N ow
O perations
P ivot
P encil
V DF
W AV
X iv
d T
d amping
e co
f requencies
h ul
h ps
h arm
h its
k h
k nn
m md
n oc
o lf
p ck
r box
s ar
t ic
x A
z ed
} '],<
in ches
re ast
re ach
re training
st amp
le ts
le ading
ch allen
Ġre ach
et xt
Ġc mp
Ġf ac
Ġf ov
Ġb inding
py bullet
ab ly
li f
id p
one y
Ġg olds
log probs
ĠT P
Ġw a
Ġw rench
class ify
Ġfor eg
Ġh its
Ġh ikaru
ic it
test data
ĠC TC
ĠC aiT
Ġis function
ĠP ER
ĠP AL
ĠD ZI
ĠA v
ĠS UM
ĠS cope
num p
Ġget ter
nt primitives
OR ES
AT S
ĠM em
com piled
AR AMETER
Ġres olved
oc ap
ĠB eam
ĠB aidu
us d
op set
Ġe e
St ride
qui red
ĠE PE
Ġun biased
Ġpro ton
([ [-
16 3
feat map
AL LED
ĠG L
AN IME
index ing
inter leave
arch ing
') ['
cor ru
Base Params
Ġnew line
Ġopen cood
ĠW rite
Ġbox lists
trans p
0000 0001
Ġtry ceratops
UN ITS
AG ETYPE
PR ESETARCHIVE
UR ET
Ġq a
Ġan om
istr ies
iss ion
PI CAL
hash ed
Ġfield names
Ġ20 18
Ġle ave
stride d
static files
spec ified
Co verage
Un expected
CA PTION
TH RO
ĠCom mit
}, {
SH ARE
entry points
ĠModel Parallel
author ize
DA W
Inter val
With draw
Ġbin utils
Ġdec ision
26 8
GN U
Ġit r
Ġcu py
ĠGener ation
Ġclip ping
Request s
REFERENCE LIN
MT Model
ĠFlax BigBird
Ġdir path
ADD ITION
ĠSE ARCH
HTTP Error
ĠRequest Type
LEN DER
TY PICAL
Connection Error
Ġ} ),<
MB OL
Region Type
NON LocalBlock
Author ized
BLE U
ĠLETL T
EXTRA CTOR
push ing
8080 8080
Ax ial
Ġep ic
ĠXLMRoberta Tokenizer
hm db
ĠRun ning
Ġaugment ations
ĠMin imum
ĠFairseq LanguageModel
Ġbb x
ĠPri vacy
prun er
alph afold
Visual ize
fed erated
SEQU ENCER
Ġdirect or
Double ConvFCBBoxHead
SN AP
Ġnote book
Ġlight gbm
MARK DOWN
Ġtw ist
OPER ATORS
ĠSim plified
ales force
ĠYOLO V
construct ed
ĠLoad Image
spe ction
arc face
ĠCut ting
Pixel Sampler
Ii Aj
Connect ed
summar ization
spl inter
ĠCur rent
SSD Head
FET CH
(... ),<
Ġtran script
Ġbind ings
Quantize Inputs
ĠVision Dataset
Bbox Overlaps
BAT TERY
Ep isode
Ep istemic
ĠFIDInception A
Guid ance
ĠFin etuning
GROUPBY ARCHIVE
VECTOR ARCHIVE
Ġrelev ant
Newton GP
hypo cratic
intro ducer
ĠIns pection
ĠChamfer Distance
ĠRelation ship
ĠHaloNet H
arbit ra
ĠDeprecated Type
ooligom er
ĠEmp loyee
SlavePipe Base
Equ als
ĠFAL SE
trig gers
CERTIFICAT ESTATUS
nopqrst uv
Ġforeg round
corru ptions
" '{
( .
) ]))<
1 56
2 28
A ge
B US
B efore
C n
D type
F lo
G iB
H J
I DE
K y
K nee
L imits
N ear
O DE
O ID
P URE
P AST
S aga
T ile
Y aml
] ;
] >
_ '<
a ot
b dd
c dist
c dm
f map
f vcore
f ashion
g drive
i IC
j unk
k net
k appa
l ag
m ux
n dims
s alt
t ip
t ennis
w ear
w xyz
x ffff
z L
in ject
re former
de dent
st aff
ro st
ro us
ro bust
Ġt pool
ch ase
rom ov
Ġn head
Ġn wg
et e
__ ':
Ġm ias
Ġm emo
Ġc id
um berto
Ġret val
Ġin dicator
data path
ag ue
ol ib
est amped
ser esnext
Ġg mm
Ġg reedy
Ġ* [
ĠT EM
ap h
par rots
Ġos v
path mgr
is ions
ext ent
(" ""
(" ------")<
sc oring
ri k
add option
IN ES
Ġde grees
ĠP AD
ĠA SS
ĠA RC
ĠS M
ect l
ub ber
ub ectl
ĠM D
ĠM Y
ĠM AN
key chain
ĠB ootstrap
10 8
ard own
ĠR edu
Ġpre tend
Ġint s
ale tt
ry lov
ĠE arly
Ġsh ards
col lateral
av oc
Ġun expected
min er
"] (
ĠG RO
ec c
To Torch
To Order
ĠV ehicle
IT NESS
ir reps
ĠH istory
equ alize
Ġgoogle apiclient
arch ived
ym metric
Ġ'. //
fer red
Load Points
air s
air scale
ĠImage File
wr itten
Ġadd er
UN DO
25 2
Ġ{" _
cs rf
Ġact ivity
EX CLUDE
ĠQ Color
15 5
Ġcheck s
VI OR
sw a
Sc roll
pk gs
Ġ| __
ĠPy dantic
55 3
30 8
Ġnet loc
ĠTensor board
Bert ForMultipleChoice
isc rowd
Ġtrans ition
Ġblock ed
Ġ-- >
Key ring
be it
Process Id
ipy thon
ĠPro b
API KEY
sv t
DATA CLASS
gen ome
gen esis
Ġno uns
Event Optional
PER CENT
ĠDe iT
link ed
GG N
Ġdec imals
manual Seed
Ġ24 4
'][' /
Start ed
tri es
Bu iltin
ĠAl location
Ġexp loit
Ġprob lems
MET ER
('/ ')[
Auto Schema
78 9
ren ce
Ġ[[ ]
Ans atz
(". "))<
Ġpayload s
Ġ'- '
Status Factory
Ġsm c
onnx runtime
Of ficial
ĠRoberta ForQuestionAnswering
Ġtrack s
ĠRo busta
nan mean
byte array
Source Location
contract s
LOAD ER
eff net
mem cached
ĠInter mediate
VALID ATION
Ġph ysics
Ġiss ues
Ġvisual ization
ĠIN ST
Ġans atz
Dep recationWarning
Ġtrunc ated
ni er
Ġreal path
Cre ator
collect or
Ġsync bn
hyp s
delay ed
pd params
sink s
ali y
Non LocalBlock
ĠRec ord
EXEC UT
Ed itor
Ġatom s
Ġleg ion
Ġfold ers
Ġglyph Map
BIL ITY
ĠBinary OpCode
nu sc
asm tools
Ġswap ped
consum ed
FLOAT LIST
Ġwidget s
ELE CTION
ĠTTk Log
macro s
ĠTFXLM WithLMHeadModel
ĠAR CH
Incre mental
confirm ed
room s
Decay Annealing
kg d
cour t
Ġalg os
ACTIV ITY
ACTIV ATIONS
HA VIOR
ATSS Assigner
ĠRed uction
Legacy DeltaXYWHBBoxCoder
ĠDCN v
OG LE
ĠPermission Denied
Cr ash
ĠDes ign
SPE ED
OHE MPixelSampler
ĠFunc Wrapper
plex ity
collap se
Exists Error
Guid anced
Ġlmb d
Transpiler Plugins
GENERIC PROPERTYMAPARCHIVE
ĠTFOpenAIGPT LMHeadModel
Av ailable
rms prop
glass Net
san ity
bear er
ĠTFCTRL LMHeadModel
Ġassoc iated
Perceived Potion
Ġrid ge
MULTIL INE
ĠCRE ATE
ĠRetina Net
ALGORITH M
COMPI LE
Serialize ToString
ĠTSWP Archives
iIC N
Ġmias m
ToOrder Map
, ",
/ ]+
8 0000
: {}".
A nt
B us
B RIGHT
C EN
C ARD
C gk
D arknet
D uplicate
E mb
G rant
H idden
K T
K Qo
M SE
P auli
P rimaryKey
Q R
R hd
S ES
T w
T iling
W ALL
[ %
a round
c g
c ca
d out
g hm
g obigger
i ra
i ec
j pe
l hip
l shoulder
l knee
n am
o or
q nli
r amp
r find
r hip
r shoulder
r knee
v enshtein
w elcome
in proceedings
Ġ= >
re ts
re action
st l
st icker
Ġt to
Ġt enet
le lbow
ct olib
Ġre cognition
Ġp erturb
__ "]<
pe ers
Ġm i
Ġm ention
Ġc riteria
self sup
um or
ra cer
Ġs struct
Ġf our
Ġ" ],
Ġ" )[
Ġas sets
Ġi c
Ġtorch metrics
Ġb rain
Ġb and
Ġb oolean
ex posure
Ġ1 24
ul se
ul ations
li e
id ar
Ġg am
Ġg ens
ĠT rezor
ap prove
Ġh s
ke pt
Ġa pt
Ġa ver
co old
). ')<
pro portion
ma ku
ĠC oding
sc anner
qu bit
Ġx lsx
Ġdata store
Ġde viation
ĠP a
ĠD R
ĠD river
sh ear
ĠA F
ĠS u
ĠS ome
ĠS pot
get hostname
ĠL ike
out box
out line
": {<
Ġst ds
Con d
ff c
ub ble
ub untu
lib ri
com posite
=" -
ĠI SO
ob cat
Ġy l
Ġy outube
ĠB agua
ip age
ST FT
met ic
ver al
Ġpre training
12 00
url y
Ġpy omo
St and
ps i
by ref
ĠE VENT
RE PE
ug g
Ġconfig er
In vertedResidual
ail ment
min os
RO UTE
ARCH AR
Ġoutput H
Res olved
ĠV DK
ĠV acuum
Par sing
sp am
ĠCon strained
Ex pect
Ġch inese
SE MANTIC
") ')<
FA KE
Ġ7 20
OT UNE
var iances
trans ition
rel bow
Ġadd resses
SI X
(- (
Ġq r
Ġq ids
ME MB
Path Like
Command Rewrite
patch ed
yn ctest
bin count
enc ing
Ġtim ing
Ġnet s
Text HelpFormatter
tim elord
COMMAND MUT
Ġend s
-------- --
ĠConfig Type
Ġfind ing
The se
ĠJ ava
mod s
bit bucket
Ġinitial izing
Client Session
ĠDe velopers
ĠModel s
Spec ial
TRAIN ER
Ġpack ed
ĠUser Admin
zip file
ik z
Color ful
Sub graph
BOX ES
sphinx contrib
Ġfont size
An kle
ĠSet ting
skip ped
ele v
voc oder
ĠAl pha
:] ],
Ġinstall ation
TS Dataset
BON E
Ġarch itectures
ĠAtt achment
piece Tokenizer
78 5
rep lica
ĠFunction Value
can onical
TTk TestWidget
TRANS FO
Index er
ĠRoberta ForCausalLM
Ġvert ical
nan o
AUT OTUNE
dst path
ĠThread Pool
EC ASE
Ġstop loss
upper case
ĠDist OptimizerHook
ĠPoint Net
VALUE COMMANDARCHIVE
scan dir
COD ES
Build Event
Ġ'{} .
My Message
HOST S
ĠTim estamp
Ġconcat enate
curve To
ĠAction Row
ĠFused LayerNorm
At T
Ġcloud proxy
SIG INT
FORMUL AS
ĠAug ment
tex info
PLACE H
PACKAGE ARCHIVE
ĠChar acter
xf du
Timeout Error
BCE WithLogitsLoss
summar ize
bon nier
Ġply data
ĠHAS H
TW O
ĠPermission Overwrite
Ġrecomm endation
ĠEND C
EXPORT ABLE
SCAL ES
bijection s
ĠQuantum Circuit
ĠLogging Handler
DIF Y
UIST ATEARCHIVE
Ġpot ential
TranslateX Rel
TranslateY Rel
ĠPositional Encoding
SPAN NING
TERMIN AL
ĠSearx Engine
ĠBrokerMessage V
Wz k
ĠCat Boost
ris peech
ĠPrior ity
haz mat
Ġcommunic ation
Iy Mj
Trend Transform
LID AR
partem ent
Expan ded
ĠCompilation Configuration
echan ism
ĠBall Query
abcdefghijklm nopqrstuv
URET ILING
NonLocalBlock ND
iec utter
coold own
Ġxlsx writer
COMMANDMUT ATE
" #
" }}<
( {},
. '):<
1 36
5 21
9 75
> ).
B ITS
D emo
F inal
I U
K I
L SP
L bl
M is
M ail
P ut
P AGES
P illar
Q N
R t
R Resize
S END
T ran
T PU
U ndo
V U
W EST
` {
a el
b kgd
c w
g ran
g lr
j edi
k shot
l ua
l wrist
l ankle
m ad
m ind
m lflow
n gpu
n way
p ca
p ink
r wrist
v ary
w ny
z s
{ {
Ġ um
Ġ arange
Ġ utc
or rent
er ing
re ject
re map
st ix
Ġt en
Ġt ai
ch k
an ic
Ġre nd
Ġre fs
Ġre pairing
Ġp f
Ġp ending
Ġp unct
Ġm q
Ġm igrate
Ġc min
Ġc gi
Ġ' }
Ġ' ...
Ġs os
Ġs vg
Ġf ri
Ġf olds
Ġf rac
Ġ" )"<
un fold
Ġ1 00000000
ot he
li de
one hand
Ġw intypes
file Name
00 375
Ġh ack
ext s
ĠC HE
ĠF p
ĠF urthest
Ġl arger
ĠD EL
ĠD FG
ert ext
sh ap
ĠA lex
ĠS ection
ĠS peed
ĠL in
out side
Ġstr tobool
if fer
ple ft
Ġj ac
der ive
ĠM id
ĠM EG
list ment
com ma
pi rical
ĠB enchmark
ĠB UTTON
ET S
ĠR ule
ĠR NN
point ment
Ġdi ll
image io
Error Code
12 6
ale d
Ġpy sc
input D
Data Processor
ĠE d
ph ant
mo ses
RE ORDER
RE WARD
ĠU sing
Ġun zip
Ġsuper vised
64 8
([ "<
20 3
Ġfile lock
MO DIFY
Ġab ap
RO LE
json ify
Ġmax pool
ĠG O
ĠG REEN
Res UNet
== {
Ġth er
24 6
ir th
inter pol
tt a
ger y
SE Module
LO GGING
Ġro ts
Base User
Base TTXConverter
Ġopen selfsup
Com put
air plane
no python
rank le
Ġ) (
UN CHANGED
man ent
Reg ular
tra iler
dec re
dec imals
Ġax ie
Ġ'./ _
ĠX GB
Class Balanced
iss CrossAttention
Ġmat mul
clo sing
ĠBase TTXConverter
TO M
PRO T
Command Base
Ġ20 17
[..., :
FF MPEG
Float List
Ġembed ded
ĠConfig Manager
Ġread P
Ġ\ '
DOC S
Ġqu ad
Ġ` %
ĠDe que
Ġinterval s
ĠTest Options
DO OR
Man ip
Ext ent
SER VE
ank ing
Ġvis dom
Ġview flow
Embed der
Per iod
UID ARCHIVE
Al bu
PEC ARCHIVE
Point Pen
Ġexp licit
sec ut
lab oration
SPL AY
ls un
leg ation
Ġaug s
Back Bone
ĠPY THON
70 6
Char SetProber
SO CKET
wn li
ĠRoberta ForMultipleChoice
]+ )
ĠOpen API
ĠDocument With
UUID PATH
Vector Env
("- ",
puzzle s
PC AP
Chart Series
Callback Type
Cell Ref
ĠAsync Mock
CUR S
exc info
vol na
ĠAr ch
SW INT
Fix er
("_ ",
nr m
CRE ATED
One Hand
ĠBack Pack
Only NSPHead
Distributed GroupSampler
ĠJSON Data
ĠRet ry
ARRAY SEGMENT
>{ <
Backend Db
Cl one
gu ess
ĠCOL ORS
Ġsur face
DRO PCAP
SCHED ULE
heat maps
Ġdirect ories
OWN ERARCHIVE
Tri QSM
Byte CharSetProber
ĠCa ched
ĠGaussian Process
utter ance
Super ResIDWE
ĠCoro Func
timest amps
SCRIPT ABLE
Ġvisit ed
ham il
Ġsess ions
HEET ARCHIVE
GRAY SCALE
prom etheus
ĠNetwork s
ĠMix up
PIXEL S
DETE CTIONS
ĠSpeech Recognition
ĠCOM MAND
ĠCR ITICAL
ĠMap per
ĠChoice Enum
ĠVAL UES
Pers pective
ĠSU CCESS
CHARTAXIS STYLEPROPERTYCHANGESETARCHIVE
ĠProgress Bar
azure ml
Ġtimest eps
Ġnt path
Sto pping
ĠEnd point
Ġice vision
Ġmut ate
Dif ference
Cho ices
ĠAD MIN
ITES PECARCHIVE
ĠLightning Module
sav etxt
ĠAnn ot
Ġhd lr
Ġinterpol ated
ĠCHAN GE
Inst a
ĠPointer Property
ĠHatSploit Payload
SLO T
Rng Lbl
ĠCoarse Dropout
Ġmarkers ize
ĠEM PTY
MeanField GaussianProcess
NTLM SSP
ĠDrop Block
ĠFLO AT
Ġkaldi feat
YOL ACT
ĠSampling Result
asise p
ĠTRUN CATE
Shortest Edge
AGNOST IC
ĠGRO UP
ĠCoding StateMachine
Colorful Formatter
ClassBalanced Dataset
' -
) ':
) [::-
) ->
, ))
4 32
7 04
> ],
A Z
B FP
C s
C ER
C os
C ookie
D VECTORARCHIVE
E rr
G MT
I OT
L AM
N u
N oth
P AIR
S HE
S win
T SA
W W
_ ))<
_ {}".
` ."<
c se
c ab
d get
d values
f k
f its
g mm
g ines
k j
k pts
l uster
n class
n los
t ml
v able
w sc
x ys
z sz
in ess
in ement
st or
ro busta
Ġt ech
le if
en rich
ct ype
Ġn dc
Ġre vert
Ġp ress
Ġp ets
di co
fi ftyone
Ġm sa
Ġm trl
Ġc out
Ġc lock
Ġc Pickle
ra b
Ġs run
Ġf fn
Ġi dim
Ġin s
ol id
Ġb a
ex if
Ġ1 84
ab ort
ul una
est s
id le
Ġ( ",
ĠT er
file list
Ġ- ----------------------------
(" ...
pro val
all a
Ġde dup
ĠP layer
ĠP UR
bo b
), )
ĠD ig
ĠD emo
Ġcon vent
ĠS ol
ĠS EG
ĠL A
ĠO MP
OR G
app id
ĠM aterial
lib rispeech
line To
ĠI gn
() )),"<
Ġv df
Ġr nd
ST MO
Ġint ents
Ġint egral
12 2
Ġk line
Ġpy re
Ġen gines
back prop
Ġco variant
St uff
MA SS
max imize
ph ra
RE VER
av ascript
Tensor Flow
ide as
In strument
pen alties
ac ot
Ġmet ers
Ġth res
tf Config
tf records
ash ed
Dataset Catalog
sp conv
with in
RI DRO
cuda Stream
Ġpl ug
Ġal paca
]) ]
]) }<
Com mit
For CTC
Re direct
Ġob serv
ĠW elcome
Ġurl retrieve
File System
ne y
ne ighbor
FA IR
sub st
sub net
tra versal
ĠData Generator
project ed
au roc
ĠIn fer
clip per
eter o
Ġ9 4
Ġcheck er
Ġstart s
not ion
evalu ators
55 5
sig num
30 4
Ġle aky
Ġnet G
make file
DIR NAME
Text ure
Ġstate ments
Ġconvert ers
mult iscale
SP OT
Ġ57 6
yg win
TH REE
ai ser
API Exception
Det ectron
msg pack
tr u
IM PLE
02 6
COL LATERAL
select ors
Ne ighbors
Spec ify
wo ff
Ġ19 1
Ġcan didates
Sub Population
ĠCh en
Ġtx n
Per ceptual
LIN UX
ĠAuto Augment
ĠKey chain
CHART MEDI
cr nn
Ġmod ality
Ġnull context
_{ :
disc ussion
Ġbn b
LD AP
LOG S
44 65
itch er
STRING S
Ref ine
ĠST ATUS
Ġcos Theta
Query Args
__, _|
Ġpart icle
Ġstop ped
rie ved
Button Style
APP NAME
TORCH VISION
stra ction
98 5
Ġsegment ations
PROCESS ING
Ġconnect able
ru it
Quant izer
Ġ), "<
Evalu ate
ĠAutoModel ForQuestionAnswering
)* (
ĠTra jectory
ĠEnc ode
Exp licitEnum
Bart Config
vq gan
BE HAVIOR
ĠFairseq Dataset
PRI CE
ĠUni que
Ġsl ack
DIST ILBERT
Dim s
SN R
ĠVideo Dataset
Ġway mo
capt uring
ĠMod al
ĠEvalu ate
ĠDensePose Data
VOT E
ssh leif
NC CL
ĠRecipe Create
Ġwiki pedia
ĠAtomic Type
ĠDeberta V
Tr uth
SelfAttention Block
ĠRoI Align
Ġbook title
yt vis
Ġfb net
ĠTFXLNet LMHeadModel
ĠSC Net
OVER LAP
################ ################
anom alies
rer un
CHAT S
Loihi Protocol
ĠTimeout Error
ĠMult ivariateNormal
))), "<
cart pole
Ġalphast d
Privile ge
Ġfoot print
Compute Kernel
ĠEnt ry
AGG REG
ĠPyramidVisionTransformer V
MODAL ITY
Contour s
ĠTFTransfoXL LMHeadModel
Aligned Stone
ĠOPEN AI
prer esnet
ĠQU ESTION
COORDIN ATEARCHIVE
cP nP
TRUNC ATED
Horizon GaussianProcess
ĠDOWN LOAD
Tensorboard LoggerHook
SEPAR ATOR
eleb A
DATAP ARAMETER
Ġattrib utetable
ĠShare able
MWJb OT
paws x
Measure ment
ELECT RA
Pencil Annotation
ĠPAL ETTE
abcdefghijklmnopqrstuv wxyz
Noth ing
QueryArgs Schema
sshleif er
" ',
) },
+ '.
, ):<
0 16
4 26
7 05
8 32
? ://
A spect
A waitable
C SP
C ANCEL
D SA
E H
F oundation
H U
H UA
K B
L y
M alloc
S Q
T U
T y
U id
] //
` ")<
c ron
c odon
c ygwin
d list
e ve
f inger
g love
h el
h ym
h ell
h mac
m di
n om
r ar
s it
s ms
s aving
v args
w flw
} ...")<
Ġ velo
in ox
ar ize
Ġt rend
Ġn m
et te
__ ')<
di com
ur lopen
Ġm sk
Ġc dist
Ġc ores
Ġ' )
Ġ' ?
Ġ' })'<
Ġs at
Ġi h
Ġo per
Ġin stant
un o
un zip
un broadcast
un vmap
Ġb m
Ġb ridge
li qui
li ant
Ġg n
Ġg as
log p
ap ers
class name
Ġ- <
is subset
to str
Ġh ierarch
ke pler
Ġd rag
ist ers
Ġa udi
pro ph
pro cs
(' |
form ed
ĠF Net
all ing
Ġis pkg
ve al
IN V
Ġde let
ĠP CA
vi es
sh annon
ĠA re
ĠS ING
ĠL STM
ĠL XMERT
"" .
Ġj ump
ĠM SA
DE P
Ġto ks
Ġres nest
Ġr w
Ġr si
ĠB illingGroup
ET runc
ĠR ight
text recog
Ġpre defined
param wise
Ġen glish
St ories
mo lecule
Ġsc rapy
col a
64 00
Ar m
Module Conf
min im
RO L
AL ARM
"] )[
Ġset ter
Net s
IL ITY
map ie
Ġfun cs
Ġth umbnail
Ġ10 5
Dataset Config
ĠH EIGHT
Ġcopy right
Par sed
sp acy
ĠCon straint
Log Softmax
Ġ8 0000
api key
]. __
Ġsub module
Ġsub stit
ts dataset
Com piler
DI MS
ĠImage Classifier
sub j
var font
mp vit
UN IS
ll ll
tra iling
down town
obj ax
Ġax ial
Ġq as
rt ol
Class Var
TO L
ĠEx ternal
ĠK ernel
PRO J
Command History
enc er
US B
optim isation
Co ords
Bert ForTokenClassification
sm i
over all
Att empt
stack s
22 2
39 8
Ġread only
Ġdo ing
ĠRe lease
LIST STYLE
ĠIterable Dataset
ĠJ WT
Ġsum m
133 7
Ġno op
DEF G
pers ist
auto contrast
Ass ociativeEmbeddingLoss
ĠBert ForSequenceClassification
Ext ended
cent ric
wo ard
Descript ors
Pl ain
Meta Data
TopDown CocoDataset
Ġpoint cloud
rout ers
Ġextra ction
ĠAuto Sharded
ĠKey point
CHART S
Ġmo ves
Ġcu ckoocwd
Ġavg max
ls a
Auto Augment
Ġfi sh
Back ground
stop loss
Ġman ip
OB SERV
ĠText IO
Optimizer Constructor
SO UR
ĠFlax AutoModel
CLI Command
ĠRoberta ForTokenClassification
Ġmark up
Create Model
xx xx
Ġlong est
coin base
ĠLinear Contrast
******** ****
Ġsec ure
cm V
Admin User
smooth ed
sur gery
Normal ized
Bl ueprint
ĠDet r
ĠDet ector
ĠInter polation
Ap ple
ĠNum Py
ĠXL NET
Quant ity
TAB ULAR
49 14
she ets
Post Process
Ġpe ak
Ġne cessary
POOL ING
Ġsimple transformers
curs ively
Repeat Sampler
SSL v
Ġcut s
ĠRE F
cho lesky
ĠZw Query
beam s
Ġpop ulate
adv antages
ĠRot ate
pix buf
Ġstatic method
METHO DS
Ġmn asnet
ĠBot Net
hu ge
Quality Mode
FIN ET
tod os
SCHEDUL ERS
pick er
suggest ion
ZZ Z
ĠDown sample
Neg Margin
((" ",
IGNOR ECASE
Upsample Head
TRI GGER
PRESET SARCHIVE
Wait For
Ra di
Comm unity
ĠDeberta Config
Pers istentVolume
COMPL ETE
ĠPixel Norm
Tech nique
MID I
MID DLE
compar ison
trim esh
11111111 11111111
ĠREAD ME
ĠInception V
accel erator
Frozen BatchNorm
recor der
MaskScoring RoIHead
ĠCUR RENT
ĠBin ance
Ġadministr ator
ClusterRole Binding
ĠTFCamembert ForMaskedLM
BRO ADCAST
ĠVDF P
ĠXML Dataset
Ġcool down
ĠRig ids
Unicode Text
Variational GP
Ġrepl aced
(~ (
Transformers CLICommand
AugAA ETrunc
Weather Parameters
REGR ESSION
ĠVM ware
Ġoccur red
fsdet view
BENCH MARK
ĠEvo Norm
Ġovers ample
Ġimmutable dict
Ġtwist ed
PrimaryKey Constraint
* {
+ ")
/ ~
1 18
= ")<
B LENDER
C WD
D x
D LL
E st
E cc
E AST
E EXIST
F an
H i
H ull
L ex
L AS
M er
M TS
P AG
Q T
R ain
T yping
V y
\ "]
b eg
b nd
c st
g ates
g umbel
j d
k line
l bs
n jit
n chw
r q
s mt
s mtp
s obel
s pherical
v md
v ulnerability
w an
x mm
} ":
} },<
in creasing
er p
re ds
re aded
ro ck
as c
en ation
en opt
ch mod
Ġimport ant
Ġn h
Ġn rows
am i
et as
Ġp sy
__ )).
Ġm ot
Ġm ute
Ġc rowd
um py
ra ster
Ġs pell
arg ert
un install
un limited
Ġb all
Ġb son
Ġb io
Ġ1 33
Ġ1 76
=' *',
Ġg down
em ph
Ġh m
Ġh appen
Ġd acite
ic Alchemy
and bytes
(" >
test command
(' ''
(' *.
qu aternions
Ġl w
Ġl ater
ĠP PO
ĠP SNR
bo ards
), (
able Type
sh op
ĠS pend
ĠS can
ĠS Exp
ĠS pectral
ĠL IGHT
if Tags
num eral
pre lu
Ġst eam
per ceived
load mat
box lists
AT R
ĠM ega
ĠM atcher
ĠM MB
rand range
ge on
Ġv ul
Ġtest ed
ĠB roadcast
ĠB alanced
met al
point rend
que ued
Ġk b
Ġk aiser
St rict
ĠE U
ĠE lectronic
ign atures
ĠU Net
ind oor
Ġun install
In sensitive
Ar r
RO UND
"] /
default dict
ĠV ER
PT IONS
56 8
ĠUn known
24 4
Ġcom piled
ĠH ex
sp ora
print er
open fl
For Generation
Re vision
ĠW IN
ĠW ID
Ġ[' --
ne utral
sub domain
dist ortion
als a
Test Loader
={ }'.
down grade
ded Token
ĠBase Settings
]] ],<
48 4
48 22
local config
Ġindex ing
rgb d
PRO VIDER
Ġtra cer
Linear Head
Ġatt achment
BN Head
ĠPy Embedded
UP DAT
Normalize OCR
Le ver
COMMAND HISTORY
Ġcolor ize
world info
ĠRe quire
ĠIm properlyConfigured
Classification Model
Ġcall ing
05 1
SH AR
Ġ` --
ĠModel Type
Trans lator
With Args
Ġsp ender
Ġ19 0
gra ce
Val idate
ĠKey ed
CHART STYLEARCHIVE
Point net
Wrapper Hook
TS V
NAMES PACE
78 6
FT P
29 7
tot ypes
Ġskip ped
BaseModel OutputWith
ĠFunction s
TTk Frame
ĠText Channel
COLOR MAP
ĠFlax Electra
ĠLo ihi
si lent
ĠBatch Normalization
ĠST ANDARD
Min i
Ġexc info
Ġpoly iou
report er
ĠCommand Error
exist ent
hub indings
Exec ute
Open Process
Ġ"{ :
mer lion
ĠAbstract Model
mu joco
GAN Loss
MULT IG
Mark down
access or
SY MLINK
TRA CE
One Segment
RUN TIME
ĠET A
sli ding
SU DO
Cre ation
Bart Model
WR ITER
ĠStat istics
OPTIM IZERS
Ġrelative delta
reci procal
Shape Spec
ĠTFRoberta Model
Export Validator
Ġequ alize
PARALLE LI
Visual FeatureEncoder
ĠSample s
ycb cr
RATIO S
Ġgra b
uggest ion
Horizontal PodAutoscaler
Ġpp m
Ġadjust ed
Scaler Transform
Super User
accum ulation
Hard Sigmoid
ĠFake Font
Ġanaly zer
PG M
TRACK ER
Ġrout ing
Retina Sep
Ġprom etheus
FLA UBERT
forecast ing
Ġfixed ToFloat
secrets manager
prefetch er
Cool Link
Calc ulation
ĠNu Plan
PLUG INS
amil a
Concat enate
ĠResidual Block
shuff led
directional Sequence
under line
Sin Act
QP alette
CHARACTER STYLEPROPERTIESARCHIVE
absl test
ĠDIST ILBERT
Ġrelev ance
Discord Exception
GALLERY ITEM
nos ignatures
ĠArt icle
modal ities
PAY LOAD
deno ised
ĠConvBn Act
ĠTARGET S
PROPHET NET
rece i
ĠCascade RCNN
opens sl
TABLES ORTORDER
ĠFIL TER
preh ension
ĠMON AILabel
greed y
lmb d
ĠRI FE
Payment Processor
Ġoct ave
Ġxgb se
InDB Base
iXHgxY ls
Ġrece ivers
ĠSeparable Conv
hul hubindings
aot net
Insta Boost
hym enopt
spora dic
ĠPyEmbedded Image
RetinaSep BNHead
hymenopt era
" ^\
' >
, (
- (\
7 00
[...]
