{"<s>":0,"<pad>":1,"</s>":2,"<unk>":3,"<mask>":4,"!":5,"\"":6,"#":7,"$":8,"%":9,"&":10,"'":11,"(":12,")":13,"*":14,"+":15,",":16,"-":17,".":18,"/":19,"0":20,"1":21,"2":22,"3":23,"4":24,"5":25,"6":26,"7":27,"8":28,"9":29,":":30,";":31,"<":32,"=":33,">":34,"?":35,"@":36,"A":37,"B":38,"C":39,"D":40,"E":41,"F":42,"G":43,"H":44,"I":45,"J":46,"K":47,"L":48,"M":49,"N":50,"O":51,"P":52,"Q":53,"R":54,"S":55,"T":56,"U":57,"V":58,"W":59,"X":60,"Y":61,"Z":62,"[":63,"\\":64,"]":65,"^":66,"_":67,"`":68,"a":69,"b":70,"c":71,"d":72,"e":73,"f":74,"g":75,"h":76,"i":77,"j":78,"k":79,"l":80,"m":81,"n":82,"o":83,"p":84,"q":85,"r":86,"s":87,"t":88,"u":89,"v":90,"w":91,"x":92,"y":93,"z":94,"{":95,"|":96,"}":97,"~":98,"¡":99,"¢":100,"£":101,"¤":102,"¥":103,"¦":104,"§":105,"¨":106,"©":107,"ª":108,"«":109,"¬":110,"®":111,"¯":112,"°":113,"±":114,"²":115,"³":116,"´":117,"µ":118,"¶":119,"·":120,"¸":121,"¹":122,"º":123,"»":124,"¼":125,"½":126,"¾":127,"¿":128,"À":129,"Á":130,"Â":131,"Ã":132,"Ä":133,"Å":134,"Æ":135,"Ç":136,"È":137,"É":138,"Ê":139,"Ë":140,"Ì":141,"Í":142,"Î":143,"Ï":144,"Ð":145,"Ñ":146,"Ò":147,"Ó":148,"Ô":149,"Õ":150,"Ö":151,"×":152,"Ø":153,"Ù":154,"Ú":155,"Û":156,"Ü":157,"Ý":158,"Þ":159,"ß":160,"à":161,"á":162,"â":163,"ã":164,"ä":165,"å":166,"æ":167,"ç":168,"è":169,"é":170,"ê":171,"ë":172,"ì":173,"í":174,"î":175,"ï":176,"ð":177,"ñ":178,"ò":179,"ó":180,"ô":181,"õ":182,"ö":183,"÷":184,"ø":185,"ù":186,"ú":187,"û":188,"ü":189,"ý":190,"þ":191,"ÿ":192,"Ā":193,"ā":194,"Ă":195,"ă":196,"Ą":197,"ą":198,"Ć":199,"ć":200,"Ĉ":201,"ĉ":202,"Ċ":203,"ċ":204,"Č":205,"č":206,"Ď":207,"ď":208,"Đ":209,"đ":210,"Ē":211,"ē":212,"Ĕ":213,"ĕ":214,"Ė":215,"ė":216,"Ę":217,"ę":218,"Ě":219,"ě":220,"Ĝ":221,"ĝ":222,"Ğ":223,"ğ":224,"Ġ":225,"ġ":226,"Ģ":227,"ģ":228,"Ĥ":229,"ĥ":230,"Ħ":231,"ħ":232,"Ĩ":233,"ĩ":234,"Ī":235,"ī":236,"Ĭ":237,"ĭ":238,"Į":239,"į":240,"İ":241,"ı":242,"Ĳ":243,"ĳ":244,"Ĵ":245,"ĵ":246,"Ķ":247,"ķ":248,"ĸ":249,"Ĺ":250,"ĺ":251,"Ļ":252,"ļ":253,"Ľ":254,"ľ":255,"Ŀ":256,"ŀ":257,"Ł":258,"ł":259,"Ń":260,"ĠĠ":261,"ĠĠĠĠ":262,"ĠĠĠ":263,"or":264,"im":265,"in":266,"er":267,"ort":268,"port":269,"at":270,"import":271,"Ġ=":272,"on":273,"ĠĠĠĠĠĠĠ":274,"se":275,")<":276,"re":277,"de":278,"st":279,"ro":280,"ar":281,"Ġt":282,"le":283,":<":284,"as":285,",<":286,"en":287,"al":288,"ch":289,"ct":290,"an":291,"rom":292,"from":293,"ion":294,"Ġimport":295,"Ġn":296,"it":297,"ut":298,"):<":299,"lo":300,"am":301,"Ġre":302,"et":303,"es":304,"Ġp":305,"def":306,"__":307,"di":308,"ĠĠĠĠĠĠĠĠ":309,"pe":310,"ur":311,"fi":312,"Ġm":313,"Ġc":314,"lf":315,"self":316,"ing":317,"um":318,"Ġ'":319,"ra":320,"el":321,"Ġs":322,"Ġf":323,"Ġ<":324,"Ġ\"":325,"orch":326,"dat":327,"Ġas":328,"Ġi":329,"arg":330,"><":331,"ode":332,"ad":333,"Ġo":334,"ed":335,"Ġret":336,"Ġin":337,"urn":338,"Ġreturn":339,"un":340,"Ġtorch":341,"pt":342,"ĠĠĠĠĠĠĠĠĠĠĠ":343,"data":344,"ag":345,"ol":346,"ce":347,"iz":348,"ent":349,"ype":350,"dict":351,"ame":352,"ath":353,"ck":354,"',":355,"cl":356,"Ġb":357,"ue":358,"py":359,"ex":360,"Ġ1":361,"odel":362,"ab":363,"il":364,"ul":365,"int":366,"ass":367,"orm":368,"ot":369,"Ġdef":370,"Ġself":371,"li":372,"om":373,"est":374,"ser":375,"='":376,"id":377,"ran":378,"str":379,"one":380,"up":381,"name":382,"]<":383,"(<":384,"set":385,"args":386,"con":387,"Ġg":388,"()<":389,"Ġ[":390,"age":391,"Ġ*":392,"ize":393,"od":394,"Ġif":395,"val":396,"res":397,"ult":398,"po":399,"),<":400,"Ġ(":401,"log":402,"ĠT":403,"ap":404,"par":405,"ig":406,"ation":407,"ers":408,"Ġw":409,"Ġ0":410,"type":411,"class":412,"fig":413,"ction":414,"put":415,"ate":416,"None":417,"file":418,"em":419,"ase":420,"Ġ_":421,"Ġ-":422,"Ġos":423,"Ġnp":424,"path":425,"00":426,"Ġnum":427,"rain":428,"is":429,"Ġfor":430,"))<":431,"to":432,"Ġdict":433,"Ġh":434,"nn":435,"\",":436,"ke":437,"Ġd":438,"ic":439,"ĠĠĠĠĠĠĠĠĠĠĠĠĠĠĠĠ":440,"ess":441,"model":442,"',<":443,"ens":444,"rue":445,"Ġ2":446,"pl":447,"Ġ__":448,"ist":449,"init":450,"\"<":451,"Ġa":452,"ext":453,"and":454,"co":455,"size":456,"Ġ==":457,"ption":458,").":459,"(\"":460,"pro":461,"test":462,"ine":463,"Ġ+":464,"ma":465,"yp":466,"..":467,"('":468,"ĠC":469,"form":470,"sc":471,"logg":472,"ĠF":473,"ri":474,"ime":475,"ht":476,"ay":477,"ann":478,"ss":479,"qu":480,"Ġx":481,"img":482,"ĠNone":483,"fg":484,"all":485,"train":486,"ule":487,"add":488,"ensor":489,"ask":490,"ys":491,"Ġl":492,"Ġis":493,"Ġ{":494,"Ġdata":495,"ve":496,"IN":497,"Ġde":498,"util":499,"ĠP":500,"bo":501,"),":502,"ĠD":503,"Ġcon":504,"ert":505,"ack":506,"alse":507,"able":508,"th":509,"vi":510,"sh":511,"\",<":512,"ĠA":513,"ĠS":514,"get":515,"')<":516,"Ġnn":517,"ER":518,"],":519,"['":520,"rans":521,"atch":522,"\")<":523,"len":524,"'<":525,"ĠL":526,"ĠO":527,"config":528,"he":529,"__(":530,"out":531,"Ġnumpy":532,"\":":533,"odule":534,"Ġstr":535,"ect":536,"True":537,"base":538,"cfg":539,"if":540,"end":541,"ault":542,"num":543,"ter":544,"ep":545,"ple":546,"ES":547,"']":548,"pre":549,"Ġtyp":550,"Ġlogg":551,"kw":552,"annel":553,"\"\"":554,"Ġj":555,"Ġst":556,"Ġmodel":557,"Con":558,"per":559,"--":560,"ight":561,"Ġtyping":562,"Ġ**":563,"Ġpar":564,"kwargs":565,"der":566,"sert":567,"Ġel":568,"Ġ3":569,"load":570,"Ġget":571,"Ġtype":572,"nt":573,"channel":574,"utils":575,"ith":576,"ape":577,"dir":578,"ON":579,"Ġout":580,"OR":581,"ow":582,"ff":583,"app":584,"ub":585,"Ġassert":586,"box":587,"AT":588,"ĠM":589,"essage":590,"son":591,"ror":592,"ore":593,"])<":594,"bu":595,"DE":596,"ax":597,"Ġlogging":598,"():<":599,"lib":600,"line":601,"og":602,"list":603,"ument":604,"rand":605,"=[":606,"com":607,"=\"":608,"Ġto":609,"ge":610,"rint":611,"os":612,"parse":613,"ew":614,"ransform":615,"torch":616,"AR":617,"ĠI":618,"False":619,"Ġnot":620,"()":621,"Ġres":622,"':":623,"ptional":624,"pi":625,"ure":626,"Ġ.":627,">_":628,"CH":629,"ĠĠĠĠĠĠĠĠĠĠĠĠĠĠĠ":630,"Ġv":631,"ses":632,"ds":633,"ool":634,"che":635,"ial":636,"ob":637,"ment":638,"Ġ->":639,"Ġtest":640,"stan":641,"key":642,"net":643,"ĠOptional":644,"flo":645,"Ġr":646,"Ġ/":647,"eight":648,"Ġy":649,"ata":650,"oc":651,"ĠB":652,"unction":653,"ET":654,"act":655,"izer":656,"ject":657,"ip":658,"Ġelse":659,"ample":660,"abel":661,"dataset":662,"io":663,"ST":664,"us":665,"10":666,"ard":667,"uple":668,"ĠR":669,"],<":670,"att":671,"shape":672,"met":673,"point":674,"ict":675,"ver":676,"op":677,"text":678,"Ġdi":679,"ator":680,"cess":681,">@":682,"Ġsys":683,"image":684,"}<":685,"Ġpre":686,"rror":687,"ast":688,"Ġ)<":689,"nc":690,"art":691,"EN":692,"Error":693,"param":694,"Ġex":695,"Ġdefault":696,"value":697,"ace":698,"random":699,"ain":700,"eat":701,"loss":702,"Ġarg":703,"eg":704,"norm":705,"que":706,"Ġcol":707,"ken":708,"Ġint":709,"mask":710,"12":711,"url":712,"ĠList":713,"trained":714,"../":715,"Ġk":716,"Ġe":717,"check":718,"ity":719,"ale":720,"Ġpy":721,"main":722,"Ġse":723,"[:":724,"Ġimg":725,"Ġen":726,"ray":727,"channels":728,"asses":729,"unt":730,"arget":731,"input":732,"fo":733,"scri":734,"32":735,"lay":736,"Ġmath":737,"dim":738,"back":739,"Data":740,"Ġprint":741,"argument":742,"da":743,"vice":744,"[\"":745,"().":746,"Ġtime":747,"np":748,"._":749,"peline":750,"lection":751,"Ġco":752,"Ġargparse":753,"St":754,"ings":755,">\"\"":756,"uper":757,"opt":758,"Ġu":759,"Ġ4":760,"wor":761,"50":762,"ise":763,"MA":764,"ps":765,"qui":766,"ild":767,"ry":768,"classes":769,"ang":770,"max":771,"by":772,"lock":773,"Ġ[<":774,"function":775,"Ġargs":776,"stance":777,"iter":778,"ener":779,"ĠE":780,"ph":781,"module":782,"ence":783,"ive":784,"mo":785,"Ġsh":786,"reg":787,"ign":788,"RE":789,"ĠTrue":790,"Ġ5":791,"ĠU":792,"elp":793,"range":794,"Ġsc":795,"Ġfrom":796,"Ġlen":797,"output":798,"root":799,"jo":800,"col":801,"Ġjson":802,"rad":803,"av":804,"ug":805,"ind":806,"fiel":807,"Ġun":808,"Ġpro":809,"Ġsuper":810,"Tensor":811,"ersion":812,"ory":813,"Ġname":814,"code":815,"Ġmm":816,"Ġpath":817,"dex":818,"parser":819,"ean":820,"LE":821,"64":822,"hod":823,"Ġ:":824,"ĠN":825,"ern":826,"roup":827,"message":828,"den":829,"ward":830,"ile":831,"Lo":832,"stat":833,"ces":834,"Ġwith":835,"([":836,"//":837,"array":838,"mage":839,"head":840,"item":841,"ĠĠĠĠĠ":842,"ION":843,"ide":844,">)<":845,"PE":846,"20":847,"Ġconfig":848,"conv":849,"ages":850,"tensor":851,"are":852,"vis":853,"cv":854,"Ġra":855,"arn":856,"In":857,"Model":858,"RA":859,"Ġfile":860,"ations":861,"rc":862,"weight":863,"VE":864,"ĠFalse":865,"Ġtf":866,"reate":867,"ister":868,"pipeline":869,"Ġand":870,"16":871,"ĠTuple":872,"Ġhelp":873,"own":874,"pu":875,"ny":876,"Ġbu":877,"://":878,"Ġinput":879,"MO":880,"lections":881,"label":882,"[:,":883,"Ġab":884,"ync":885,"Ar":886,"rop":887,"oder":888,"Ġ@":889,"Ġ..":890,"Ġthe":891,"ok":892,"cu":893,"Ġ'../":894,"ail":895,"CO":896,"append":897,"ools":898,"instance":899,"plit":900,"models":901,"Config":902,"script":903,"Module":904,"min":905,"te":906,"process":907,"iv":908,"fl":909,"bbox":910,"fix":911,"Ġ{<":912,"Ġcollections":913,"float":914,"method":915,"Ġrandom":916,"read":917,"Ġor":918,"Ġdat":919,"Ġresult":920,"Ġ%":921,"ched":922,"info":923,"ml":924,"ib":925,"feat":926,"ĠDict":927,"RO":928,"AL":929,"json":930,"=(":931,"transform":932,"\"]":933,"AS":934,"our":935,"CT":936,"Ġmax":937,"valu":938,"Ġset":939,"Ġparser":940,"db":941,"lot":942,"join":943,"keys":944,"pon":945,"ĠG":946,"ms":947,"default":948,"ARCH":949,"low":950,"ĠAny":951,"Ġtrain":952,"Ġrequi":953,"Ġoutput":954,"IVE":955,"run":956,"quest":957,"format":958,"pen":959,"Res":960,"ec":961,"etime":962,"Ġ>":963,"und":964,"))":965,"ron":966,"ead":967,"Net":968,"ox":969,"checkpoint":970,"imizer":971,"==":972,"ures":973,"ĠĠĠĠĠĠĠĠĠĠĠĠĠĠĠĠĠĠĠ":974,"IL":975,"emb":976,"map":977,"_/":978,"Ġtensor":979,"lob":980,"proto":981,"pos":982,"To":983,"functional":984,"ĠV":985,"ac":986,"Ġraise":987,"PT":988,"poch":989,"ary":990,"ite":991,"lass":992,"Type":993,"ARCHIVE":994,"IT":995,"oog":996,"Norm":997,"Ġmet":998,"ING":999,"lip":1000,"'),<":1001,"oogle":1002,"cont":1003,"56":1004,"params":1005,"idden":1006,"pn":1007,"Ġisinstance":1008,"Ġfun":1009,"ies":1010,"':<":1011,"Ġdataset":1012,"ED":1013,">]<":1014,"ave":1015,"ypes":1016,"scriptor":1017,"Ġth":1018,"pth":1019,"000":1020,"ĠUn":1021,"version":1022,"24":1023,"logger":1024,"tf":1025,"ash":1026,"fil":1027,"Ġ[\"":1028,"Ġ10":1029,"vel":1030,"sample":1031,"date":1032,"ress":1033,"mand":1034,"DEL":1035,"loc":1036,"ir":1037,"ric":1038,"Ġtarget":1039,">\"\"\"<":1040,"Dataset":1041,"AM":1042,"ias":1043,"Pro":1044,"Ġdatetime":1045,"buf":1046,"Ġmmcv":1047,"loat":1048,"state":1049,"sum":1050,"Ġcom":1051,"ĠH":1052,"result":1053,"Ġnorm":1054,"**":1055,"pretrained":1056,"AN":1057,"Ġ[]<":1058,"Ġcopy":1059,"ception":1060,"Par":1061,"det":1062,"ft":1063,"ition":1064,"lect":1065,"sp":1066,"Ġval":1067,"ock":1068,"flow":1069,"gt":1070,"ifi":1071,"batch":1072,"Ġrange":1073,"with":1074,"Ġfl":1075,"Ġof":1076,"nd":1077,"coco":1078,"work":1079,"ract":1080,"Ġ(<":1081,"Ġpass":1082,"Conv":1083,"bone":1084,"aut":1085,"eps":1086,"user":1087,"split":1088,"ner":1089,"Ġpytest":1090,"\":<":1091,"scale":1092,"('--":1093,"ulti":1094,"RI":1095,"index":1096,"cept":1097,"ĠCon":1098,"token":1099,"ated":1100,"lr":1101,"fields":1102,"Dict":1103,"ant":1104,"inter":1105,"equ":1106,"ake":1107,"ĠUnion":1108,"ca":1109,"Ex":1110,"ark":1111,"attr":1112,"CK":1113,"core":1114,"rap":1115,"arm":1116,"protobuf":1117,"ames":1118,"Log":1119,"du":1120,"Ġgoogle":1121,"Ġch":1122,"(__":1123,"layer":1124,"FI":1125,"start":1126,"mean":1127,"Ġrequires":1128,"ute":1129,"htt":1130,"arch":1131,"((":1132,"ernel":1133,"Ġtransform":1134,"Ġ8":1135,"ittest":1136,"api":1137,"')":1138,"Ġforward":1139,"Ġ'../_":1140,"Ġparam":1141,"grad":1142,"MODEL":1143,"tt":1144,"ger":1145,"Ġback":1146,"cuda":1147,"for":1148,"Ġpi":1149,"Ġloss":1150,"ym":1151,"']<":1152,"Ġenum":1153,"SE":1154,"Ġpl":1155,"cor":1156,"YPE":1157,"ID":1158,"ĠPath":1159,"atio":1160,"print":1161,"ctools":1162,"ef":1163,"vision":1164,"LO":1165,"bert":1166,"object":1167,"Ġload":1168,"101":1169,"AD":1170,"idth":1171,"Ġro":1172,"gth":1173,"device":1174,"Message":1175,"ho":1176,"Ġbuild":1177,"Ġimage":1178,"time":1179,"epoch":1180,"ĠĠĠĠĠĠĠĠĠĠĠĠĠĠĠĠĠĠĠĠĠĠĠĠĠĠĠĠĠĠĠĠ":1181,"ree":1182,"alle":1183,"vent":1184,"coder":1185,"Ġ+=":1186,"\")":1187,"].":1188,"Ġfunctools":1189,"Ġ'.":1190,"group":1191,"ource":1192,"plot":1193,"iel":1194,"Base":1195,"\"]<":1196,"level":1197,"pect":1198,"register":1199,"Ġsub":1200,"Ġbatch":1201,"Ġunittest":1202,"view":1203,"().__":1204,"count":1205,"ized":1206,"Ġpretrained":1207,"Ġcfg":1208,"lin":1209,"Image":1210,"ptions":1211,"sched":1212,"ix":1213,"Ġdim":1214,"Ġcv":1215,"Ġkey":1216,"__()<":1217,"ayer":1218,"ield":1219,">__":1220,"Ġ6":1221,"Ġ'__":1222,"CE":1223,"Ġlabel":1224,"block":1225,"ions":1226,"Ġnew":1227,"UL":1228,"fer":1229,"optimizer":1230,"ts":1231,"UT":1232,"gr":1233,".__":1234,"types":1235,"())<":1236,"ient":1237,"Ġsize":1238,"Ġelif":1239,"resnet":1240,"Ġal":1241,"Ġopen":1242,"AB":1243,"Ġabs":1244,"])":1245,"Ġlist":1246,"Load":1247,"Com":1248,"cur":1249,"Ġmask":1250,"open":1251,"zer":1252,"old":1253,"Ġlog":1254,"ilder":1255,"Ġpathlib":1256,"call":1257,"Ġvalue":1258,"its":1259,"Ġmain":1260,"ids":1261,"For":1262,"unc":1263,"backend":1264,"Ġweight":1265,"embed":1266,".<":1267,"uct":1268,"seed":1269,"pec":1270,"ratio":1271,"Re":1272,"use":1273,"env":1274,"target":1275,"armup":1276,"CON":1277,"ango":1278,"place":1279,"actor":1280,"Logger":1281,"error":1282,"resh":1283,"pose":1284,"ual":1285,"ust":1286,"ery":1287,"fut":1288,"Ġcont":1289,"DI":1290,"cation":1291,"Ġob":1292,"features":1293,"Ġopt":1294,"allable":1295,"cat":1296,"Ġmin":1297,"mon":1298,"ampl":1299,"Ġbbox":1300,"rect":1301,"Ġ12":1302,"ĠW":1303,"Ġpo":1304,"ull":1305,"LI":1306,"33":1307,"ponse":1308,">\"\"\"":1309,"Ġurl":1310,"Ġuse":1311,"'].":1312,"arnings":1313,"Ġfloat":1314,"new":1315,"Arch":1316,"Col":1317,"Ġinit":1318,"layers":1319,"File":1320,"Ġdataclasses":1321,"Ġbase":1322,"doc":1323,"future":1324,"adding":1325,"ols":1326,"air":1327,"pb":1328,"ailable":1329,"AP":1330,"Ġ['":1331,"ler":1332,"https":1333,"no":1334,"eta":1335,"ber":1336,"__)<":1337,"datasets":1338,"Ġz":1339,"]:<":1340,"ze":1341,"Ġbox":1342,"chem":1343,"ne":1344,"Ġ\"__":1345,"alize":1346,"ĠImage":1347,"tes":1348,"FA":1349,"----":1350,"strib":1351,"mat":1352,"exp":1353,"Ġdist":1354,"ints":1355,"pol":1356,"Ġglob":1357,"idx":1358,"ags":1359,"annot":1360,"rame":1361,"sub":1362,"fpn":1363,"cls":1364,"jango":1365,"ĠĠĠĠĠĠ":1366,"mark":1367,"create":1368,"rank":1369,"Ġcreate":1370,"Ġbackbone":1371,"stribut":1372,"ns":1373,"raph":1374,"ĠCallable":1375,"__':<":1376,"Ġconv":1377,"otal":1378,").__":1379,"Ġ7":1380,"paramet":1381,"rg":1382,"OT":1383,"Head":1384,"var":1385,"trans":1386,"Loss":1387,"ait":1388,"descriptor":1389,"field":1390,"0000":1391,"Ġdtype":1392,"Ġwarnings":1393,"Ġbool":1394,"40":1395,"Ġtry":1396,"emp":1397,"Ġrun":1398,".,":1399,"RAIN":1400,"Ġstride":1401,"ors":1402,"available":1403,"ld":1404,"node":1405,"numpy":1406,"values":1407,"Ġim":1408,"80":1409,"step":1410,"inear":1411,"tx":1412,"ĠĠĠĠĠĠĠĠĠĠĠĠĠĠĠĠĠĠĠĠĠĠĠĠ":1413,"lient":1414,"wr":1415,"length":1416,"rcnn":1417,"=[<":1418,"copy":1419,"action":1420,"Ġon":1421,"EST":1422,"ly":1423,"ERS":1424,"Ġwor":1425,"gpu":1426,"Ġdataclass":1427,"\"])<":1428,"alue":1429,"schedule":1430,"UM":1431,"(*":1432,"items":1433,"17":1434,"Ġstd":1435,"Ġ)":1436,"'],<":1437,"Ġid":1438,"rel":1439,"update":1440,"prefix":1441,"(),":1442,"Ġadd":1443,"pytorch":1444,"CRI":1445,"rder":1446,"fn":1447,"rapper":1448,"__\":<":1449,"CRIPT":1450,"=['":1451,"Ġmodule":1452,"mp":1453,"labels":1454,"ĠType":1455,"SI":1456,"ret":1457,"PO":1458,"enerator":1459,"ropo":1460,"Ġ]<":1461,"Token":1462,"UN":1463,"AG":1464,"(-":1465,"dist":1466,"yle":1467,"Ġtensorflow":1468,"dm":1469,"andom":1470,"ropout":1471,"df":1472,"Ġtext":1473,"man":1474,"25":1475,"Reg":1476,"mode":1477,"Ġexcept":1478,"ll":1479,"width":1480,"\".":1481,"older":1482,"seq":1483,"tra":1484,"ql":1485,"ach":1486,"ULT":1487,"\"\"\"<":1488,"OC":1489,"PR":1490,"Ġlr":1491,"Ġio":1492,"indow":1493,"filename":1494,"Ġwarmup":1495,"als":1496,"task":1497,"states":1498,"ENT":1499,"ization":1500,"ormat":1501,"untime":1502,"dec":1503,"DAT":1504,"tools":1505,"ĠData":1506,"wait":1507,"andler":1508,"ESCRIPT":1509,"Ġbe":1510,"Ġext":1511,"LM":1512,"Ġinter":1513,"Ġdevice":1514,"Ġiter":1515,"Test":1516,"names":1517,"ook":1518,"amb":1519,"face":1520,"ong":1521,"eval":1522,"her":1523,"Ġ('":1524,">}<":1525,"Ġdjango":1526,"Ġkeys":1527,"save":1528,"Ġ{\"":1529,"Ch":1530,"hidden":1531,"Ġhidden":1532,"={":1533,"Ġ!":1534,"},<":1535,"stract":1536,"Ġmean":1537,"ply":1538,"down":1539,"ampler":1540,"query":1541,"Ġresults":1542,"obj":1543,"FOR":1544,"Ġcontext":1545,"75":1546,"Pre":1547,"Ġscale":1548,"UR":1549,"Ġax":1550,"builder":1551,"Ġasync":1552,"equence":1553,"project":1554,"ey":1555,"Ġ!=":1556,"Ġcl":1557,"Ġkernel":1558,"Ġq":1559,"string":1560,"ESCRIPTOR":1561,"tial":1562,"Ġclass":1563,"Ad":1564,"allel":1565,"qdm":1566,"(_":1567,"ffset":1568,"Ġ'./":1569,"red":1570,"umn":1571,"keep":1572,"bias":1573,"factor":1574,"ention":1575,"pr":1576,"filter":1577,"seg":1578,"rib":1579,"rdered":1580,"sym":1581,"Ġan":1582,"points":1583,"au":1584,"rderedDict":1585,"ref":1586,"Ġreg":1587,"uration":1588,")))<":1589,"uto":1590,"getLogger":1591,"SS":1592,"cs":1593,"PL":1594,"Parser":1595,"100":1596,"ivation":1597,"====":1598,"Ġrequest":1599,"ded":1600,"Ġlogger":1601,"Ġsample":1602,"sys":1603,"rt":1604,"ocab":1605,"prob":1606,"Ġtqdm":1607,"dices":1608,"amp":1609,"func":1610,"ctx":1611,"ference":1612,"ĠX":1613,"Ġ*<":1614,"mb":1615,"istr":1616,"List":1617,"18":1618,"pred":1619,"Ġact":1620,"rent":1621,"ĠOrderedDict":1622,"backends":1623,"Ġdet":1624,"Ġ{}":1625,"viron":1626,"Ġutils":1627,"ambda":1628,"row":1629,"Ġshutil":1630,"Ġparse":1631,"Ġpos":1632,"Ġser":1633,"256":1634,"ME":1635,"Class":1636,"so":1637,"Ġfeat":1638,"Ġ...":1639,"Layer":1640,"annotations":1641,"iss":1642,"Ġabsl":1643,"context":1644,"meta":1645,"Ġmat":1646,"md":1647,"EX":1648,"ins":1649,"Im":1650,"tem":1651,"thr":1652,"thon":1653,"clo":1654,"tings":1655,"xy":1656,"ĠBase":1657,"TO":1658,"ateg":1659,"enter":1660,"=-":1661,"scription":1662,"ord":1663,"ĠEx":1664,"NAM":1665,"]]":1666,"ĠQ":1667,"stributed":1668,"CHE":1669,"ĠIn":1670,"ssion":1671,"ak":1672,"abs":1673,"hor":1674,"Ġgroup":1675,"ĠK":1676,"Ġ16":1677,"ckle":1678,"Ġmessage":1679,"pp":1680,"bn":1681,"ream":1682,"Ġ}<":1683,"raw":1684,"masks":1685,"48":1686,"client":1687,"01":1688,"ott":1689,"pare":1690,"dent":1691,"Ġbias":1692,"Arg":1693,"Ġdescriptor":1694,"Ġ(\"":1695,"Ġcur":1696,"OL":1697,"FAULT":1698,"Path":1699,"of":1700,"lt":1701,"local":1702,"Random":1703,"Ġby":1704,"99":1705,"Ġuser":1706,"ĠSt":1707,"Ġmodels":1708,"DESCRIPTOR":1709,"istry":1710,"gn":1711,"[-":1712,"LU":1713,"results":1714,"plan":1715,"pat":1716,"})<":1717,"ian":1718,"async":1719,"Ent":1720,"uler":1721,"TYPE":1722,"plement":1723,"boxes":1724,"eck":1725,"_(":1726,"ernal":1727,"files":1728,"write":1729,"ification":1730,"icy":1731,"ERT":1732,"af":1733,"fir":1734,"Ġpadding":1735,"ont":1736,"Ġindex":1737,"ange":1738,"clip":1739,"Ġwh":1740,"actory":1741,"Ġdepth":1742,"11":1743,"COM":1744,"MAP":1745,"zeros":1746,".\"\"\"<":1747,"Ġsubprocess":1748,"Ġ],<":1749,"aug":1750,"requi":1751,"Archive":1752,"weights":1753,"ension":1754,"vide":1755,"rgb":1756,"valid":1757,"INT":1758,"quee":1759,"Ġnode":1760,"std":1761,"Ġpartial":1762,"eter":1763,"apping":1764,"Ġ9":1765,"struct":1766,"decay":1767,"inputs":1768,"Ġawait":1769,"Ġ]":1770,"aml":1771,"FIG":1772,"Ġkeep":1773,"ĠRes":1774,"metric":1775,"bboxes":1776,"15":1777,"Ġosp":1778,"Ġaction":1779,"table":1780,"ĠPIL":1781,"queeze":1782,"ding":1783,"Ġcheck":1784,"ound":1785,"Ġapp":1786,"lic":1787,"runtime":1788,"Ġ\"\"":1789,"PRO":1790,"HE":1791,"epochs":1792,"umentParser":1793,"Ġtemp":1794,"dum":1795,"assert":1796,"Ġpol":1797,"ND":1798,"PAT":1799,"parameters":1800,"dtype":1801,"ager":1802,"pack":1803,"alueError":1804,"order":1805,"Ġstart":1806,"Transform":1807,"ross":1808,"perator":1809,"ndarray":1810,"Block":1811,"word":1812,"Ġtra":1813,"itle":1814,"TT":1815,"{}":1816,"folder":1817,"sk":1818,"txt":1819,"eb":1820,"FO":1821,"Ġ//":1822,"ETRAIN":1823,"lation":1824,"interval":1825,"cpu":1826,"ud":1827,"Ġjnp":1828,"Ġredu":1829,"ffer":1830,"rate":1831,"lete":1832,")]<":1833,"pytest":1834,"Field":1835,"gram":1836,"Linear":1837,"ative":1838,"Ġ{}<":1839,"Tokenizer":1840,"Train":1841,".\")<":1842,"Ġjax":1843,"Gener":1844,"post":1845,"From":1846,"pool":1847,"Command":1848,"Set":1849,"amed":1850,"Ġpickle":1851,"DEFAULT":1852,"lement":1853,"environ":1854,"my":1855,"Ġtoken":1856,"patch":1857,"kens":1858,"ĠTF":1859,"PI":1860,"hash":1861,"pad":1862,"Ġitertools":1863,"ĠConv":1864,"ETRAINED":1865,"Ġall":1866,"Ġfield":1867,"Ġline":1868,"ponent":1869,"command":1870,"VI":1871,"Ġatt":1872,"dirname":1873,"Var":1874,"yn":1875,"ATE":1876,"color":1877,"KE":1878,"Ġhas":1879,"score":1880,"CONFIG":1881,"'])<":1882,"uid":1883,"Ġgt":1884,"logging":1885,"sw":1886,"options":1887,"Ġmetric":1888,"erty":1889,"Sc":1890,"src":1891,"linear":1892,"Ġcheckpoint":1893,")),<":1894,"build":1895,"internal":1896,"la":1897,"ores":1898,"'.":1899,"fc":1900,"pk":1901,"stractmethod":1902,"Ġ|":1903,",),<":1904,"Batch":1905,"ker":1906,"rix":1907,"gine":1908,"status":1909,"Ġplt":1910,"BN":1911,"):":1912,"ingle":1913,"ript":1914,"Ġaxis":1915,"Se":1916,"bin":1917,"indices":1918,"Ġitem":1919,"Ġ64":1920,"'):<":1921,"sign":1922,"Ġtorchvision":1923,"modules":1924,"total":1925,"imit":1926,"INE":1927,"arning":1928,"normal":1929,"ATION":1930,"ector":1931,"ops":1932,"oo":1933,"squeeze":1934,"ices":1935,"inal":1936,"Ġmake":1937,"pha":1938,"iou":1939,"pected":1940,"request":1941,"wrapper":1942,"Ġresponse":1943,"Ġpd":1944,"Mask":1945,"kernel":1946,"true":1947,"Ġ20":1948,"prop":1949,"Ġpred":1950,"close":1951,"Ġversion":1952,"Ġfunction":1953,"not":1954,"planes":1955,"CHECK":1956,"ton":1957,"Po":1958,"STR":1959,"sent":1960,"sg":1961,"move":1962,"bytes":1963,"images":1964,"'))<":1965,"rot":1966,"CL":1967,"stem":1968,"ectron":1969,"vocab":1970,"Ġann":1971,"common":1972,"ĠIter":1973,"ĠPy":1974,"evalu":1975,"transforms":1976,"De":1977,"initial":1978,"Ġobj":1979,"arr":1980,"ice":1981,"enc":1982,"Str":1983,"ĠValueError":1984,"Ġparams":1985,"lower":1986,"55":1987,"Ġpatch":1988,"Ġpipeline":1989,"next":1990,"ink":1991,"char":1992,"PRETRAINED":1993,"sig":1994,"idat":1995,"depth":1996,"Flip":1997,"su":1998,"ĠSequence":1999,"asic":2000,"US":2001,"30":2002,"PATH":2003,"vg":2004,"ell":2005,"...,":2006,"ESS":2007,"convert":2008,"fic":2009,"Ġtim":2010,"ugin":2011,"Register":2012,"Ġle":2013,"cache":2014,"arge":2015,"UP":2016,"event":2017,"fast":2018,"ists":2019,"space":2020,"Ġtransforms":2021,"store":2022,"}/":2023,"stride":2024,"entity":2025,"Th":2026,"mlab":2027,"Out":2028,"Ġ512":2029,"ĠNot":2030,"classmethod":2031,"State":2032,"Normalize":2033,"predict":2034,"samples":2035,"mmlab":2036,"[...,":2037,"angle":2038,"Ġhead":2039,"optim":2040,"512":2041,"right":2042,"lta":2043,"Ġnet":2044,"static":2045,"ĠTensor":2046,"\"),<":2047,"me":2048,"Le":2049,"apply":2050,"upport":2051,"Ġboxes":2052,"first":2053,"INFO":2054,"relu":2055,"runner":2056,"tuple":2057,"MAG":2058,"ASS":2059,"NAME":2060,"spec":2061,"Co":2062,"Format":2063,"oment":2064,"reshape":2065,"Ġeps":2066,"serv":2067,"verse":2068,"ropy":2069,"make":2070,"Ġmeta":2071,"ped":2072,"unk":2073,"ART":2074,"Ġmulti":2075,")):<":2076,"ayload":2077,"DIR":2078,"Ġ:<":2079,"Text":2080,"Ġstate":2081,"Ġsk":2082,"ader":2083,"riter":2084,"Ġtask":2085,"ccess":2086,"tim":2087,"match":2088,"'{":2089,"dropout":2090,"plate":2091,"uint":2092,"stant":2093,"Ġpad":2094,".')<":2095,"ones":2096,"Param":2097,"ense":2098,"testing":2099,"Ġtransformers":2100,"iable":2101,"mt":2102,"chema":2103,"Ġmode":2104,"case":2105,"dis":2106,"En":2107,"encoder":2108,"Ġinputs":2109,"Tuple":2110,"19":2111,"IG":2112,"ick":2113,"now":2114,"EL":2115,"Ġconvert":2116,"Ġper":2117,"FF":2118,"ude":2119,"parallel":2120,"plotlib":2121,"frame":2122,"(),<":2123,"Ġflip":2124,"MAND":2125,"plemented":2126,"bug":2127,"Ġasyncio":2128,"Bert":2129,"video":2130,"find":2131,"ance":2132,"mock":2133,"Ġ256":2134,"processing":2135,"try":2136,"Ġ>=":2137,"isc":2138,"SIZ":2139,"ocket":2140,"Ġtempfile":2141,"Ġstep":2142,"esh":2143,"oth":2144,"iters":2145,"Ġgrad":2146,"COMMAND":2147,"Exception":2148,"28":2149,"mult":2150,"Ġstat":2151,"TEST":2152,"BO":2153,"igr":2154,"joints":2155,"cnn":2156,"Sh":2157,"User":2158,"ImageFrom":2159,"Ġtrans":2160,"Ser":2161,"Ġop":2162,"apes":2163,"Ġ\"\"\"<":2164,"Ġabc":2165,"Ġmmdet":2166,"erate":2167,"Ġblock":2168,"\"{":2169,"PN":2170,"sm":2171,"224":2172,"ous":2173,"(\"--":2174,"oding":2175,"large":2176,"wh":2177,"pace":2178,"strip":2179,"Ġkwargs":2180,"Def":2181,"ĠTYPE":2182,"Ġ100":2183,"loader":2184,"glob":2185,"Collect":2186,"21":2187,"BatchNorm":2188,"lines":2189,"Ġ--":2190,"Ġlabels":2191,"Ġsave":2192,"activation":2193,"Ġenv":2194,"CTION":2195,"replace":2196,"dataclass":2197,"cc":2198,"Ġ32":2199,"Ġcolor":2200,"over":2201,"nder":2202,"Ġ,":2203,"Float":2204,"Enum":2205,"aw":2206,"sy":2207,"ĠĠĠĠĠĠĠĠĠĠĠĠĠĠĠĠĠĠĠĠĠĠĠ":2208,"redu":2209,"Hook":2210,"emory":2211,"parent":2212,"SP":2213,"Key":2214,"source":2215,"uff":2216,"Ġ),<":2217,"Ob":2218,"except":2219,"tocol":2220,"example":2221,"ifier":2222,"spect":2223,"Ġ57":2224,"LoadImageFrom":2225,"be":2226,"distributed":2227,"tection":2228,"steps":2229,"Process":2230,"content":2231,"ives":2232,"ithub":2233,"training":2234,"KEY":2235,"\"):<":2236,"ArgumentParser":2237,"ABLE":2238,"CHECKING":2239,"andle":2240,"Un":2241,"Ġmock":2242,"swith":2243,"Ġup":2244,"pty":2245,"Ġcor":2246,"CA":2247,"stances":2248,"][":2249,"round":2250,"REG":2251,"soft":2252,"antic":2253,"76":2254,")[":2255,"Implemented":2256,"zero":2257,"generator":2258,"ipy":2259,"LoadImageFromFile":2260,"search":2261,"ments":2262,"moid":2263,"omentum":2264,"14":2265,"Ġfilename":2266,"ish":2267,"Ġclient":2268,"yg":2269,"Ġenumerate":2270,"dirs":2271,"Node":2272,"Ġrequests":2273,"TH":2274,"Ġdefaultdict":2275,"84":2276,"Ġsql":2277,"Ġnms":2278,"groups":2279,"graph":2280,"Att":2281,"stack":2282,"Ġ])<":2283,"mm":2284,"cord":2285,"NUM":2286,"delete":2287,"decode":2288,"Ġare":2289,"gener":2290,"gress":2291,"Ġcode":2292,"ai":2293,"Enc":2294,"ities":2295,"ImplementedError":2296,"rectory":2297,"SG":2298,"uild":2299,"Ġzip":2300,"stages":2301,"Ġsplit":2302,"ome":2303,"cre":2304,"number":2305,"Ġend":2306,"Loader":2307,"Pool":2308,"Ġdf":2309,"esc":2310,"Ġmatplotlib":2311,"36":2312,"cos":2313,"tokens":2314,"ĠPro":2315,"Ġthread":2316,"Ġidx":2317,"crop":2318,"orted":2319,"omain":2320,"position":2321,"dio":2322,"Ġtraining":2323,"Output":2324,"22":2325,"API":2326,"HEAD":2327,"']),<":2328,"uni":2329,"ution":2330,"Ġrot":2331,"Ġembed":2332,"schedules":2333,"Ġdown":2334,"led":2335,"sq":2336,"Det":2337,"delta":2338,"ustom":2339,"--------":2340,"cle":2341,"Ġwidth":2342,"logits":2343,"ision":2344,"IC":2345,"description":2346,"Ġ{'":2347,"Handler":2348,"Run":2349,"kit":2350,"sv":2351,"olute":2352,"ĠNotImplementedError":2353,"ote":2354,"atform":2355,"RAN":2356,"astype":2357,"dense":2358,"acy":2359,"feature":2360,"Ġsetup":2361,"Ġdetectron":2362,"backbone":2363,"Ġlay":2364,"miss":2365,"multi":2366,"EM":2367,"ning":2368,"RES":2369,"github":2370,"Ġshape":2371,"Ġvar":2372,"ical":2373,"flags":2374,"Ġ128":2375,"title":2376,"zen":2377,"epcopy":2378,"ume":2379,"ograd":2380,"Ġattr":2381,"Ġgroups":2382,"metadata":2383,"lp":2384,"ygon":2385,"axis":2386,"ĠConfig":2387,"host":2388,"Ġ:,":2389,"RegisterMessage":2390,"matrix":2391,"ci":2392,"(**":2393,"Sampler":2394,"39":2395,"Ġca":2396,"izers":2397,"airseq":2398,"Ġinspect":2399,"ify":2400,"ReLU":2401,"Ġwork":2402,"az":2403,"Ġcls":2404,"lication":2405,"world":2406,"ared":2407,"2017":2408,"Ġ<=":2409,"Ġ\".":2410,"Int":2411,"IO":2412,"pan":2413,"unter":2414,"drop":2415,"FORM":2416,"cal":2417,"Ġyield":2418,"igner":2419,"Box":2420,"Resize":2421,"exists":2422,"flip":2423,"atten":2424,"grid":2425,"Multi":2426,"lease":2427,"Ġcontain":2428,"Ġad":2429,"detection":2430,"ential":2431,"ners":2432,"Ġread":2433,"rim":2434,"Ġimportlib":2435,"Ġexpected":2436,"Ġwindow":2437,"Ġ15":2438,"leneck":2439,"ottleneck":2440,"Ġdo":2441,"conf":2442,"board":2443,"Ġserial":2444,"HT":2445,"olve":2446,"vert":2447,"evaluation":2448,"dition":2449,"dims":2450,"ĠCom":2451,"({":2452,"top":2453,"Ġaut":2454,"nms":2455,"quence":2456,"SIZE":2457,"ĠRe":2458,"html":2459,"rozen":2460,"FloatTensor":2461,"server":2462,"andas":2463,"Archives":2464,"../../":2465,"BU":2466,"LA":2467,"ToTensor":2468,"itysc":2469,"pute":2470,"Ġscipy":2471,"VAL":2472,"alo":2473,"ECT":2474,"last":2475,"lambda":2476,"rypt":2477,"imple":2478,"Ġcount":2479,">)":2480,"Ġlib":2481,"Ġreduction":2482,"msg":2483,"forward":2484,"ASET":2485,"}\")<":2486,"LIST":2487,"Ġfind":2488,"attention":2489,"Ġtuple":2490,"heads":2491,"nection":2492,"ĠIterable":2493,"ill":2494,"Ġ11":2495,"ĠException":2496,"NO":2497,"engine":2498,"Ġhash":2499,"bot":2500,"peat":2501,"cam":2502,"clude":2503,"eger":2504,"encode":2505,"ĠIm":2506,"Ġgener":2507,"ORT":2508,"ines":2509,"dev":2510,"height":2511,"'],":2512,"128":2513,"Classification":2514,"ng":2515,"rid":2516,"strings":2517,"Ġcall":2518,"The":2519,"Ġ\\":2520,"http":2521,"Ġ14":2522,"current":2523,"Up":2524,"pair":2525,"erta":2526,"]))<":2527,"DOC":2528,"hook":2529,"fp":2530,"session":2531,"ficient":2532,"pri":2533,"offset":2534,"Input":2535,"git":2536,"CN":2537,"portError":2538,"Ġtotal":2539,"empty":2540,"tr":2541,"Ġ255":2542,"property":2543,"IM":2544,"argv":2545,"metrics":2546,"ityscapes":2547,"34":2548,"autograd":2549,"ĠJ":2550,"CLASS":2551,"Down":2552,"stall":2553,"yper":2554,"Ġlayer":2555,"radi":2556,"exec":2557,"200":2558,"Protocol":2559,"address":2560,"visor":2561,"QU":2562,"96":2563,"ics":2564,"Ġstring":2565,"mentation":2566,"do":2567,"AGE":2568,"VER":2569,"former":2570,"Not":2571,"imal":2572,"Ġct":2573,"Ġsrc":2574,"essages":2575,"Ġstyle":2576,"Ġyaml":2577,"ĠTypeVar":2578,"\"],<":2579,"late":2580,"Ġlayers":2581,"05":2582,"settings":2583,"padding":2584,"angu":2585,"Dec":2586,"Ġoptimizer":2587,"ging":2588,"ORS":2589,"Vi":2590,"rol":2591,"ACK":2592,"agent":2593,"\"))<":2594,"oberta":2595,"blocks":2596,"bl":2597,"handler":2598,"inx":2599,"Ġpandas":2600,"ature":2601,"ffe":2602,"DATA":2603,"EXT":2604,"dot":2605,"ody":2606,"Ġglobal":2607,"Py":2608,"uld":2609,"igh":2610,"thresh":2611,"cust":2612,"PUT":2613,"center":2614,"pass":2615,"staticmethod":2616,"Ġqu":2617,"WOR":2618,"]):<":2619,"icode":2620,"Ġstruct":2621,"custom":2622,"Ġctx":2623,"Ġurllib":2624,"Ġoffset":2625,"Cont":2626,"ters":2627,"Di":2628,"ocal":2629,"========":2630,"Ġfunc":2631,"chemy":2632,"mary":2633,"ear":2634,"location":2635,"used":2636,"upt":2637,"ero":2638,"Default":2639,"::":2640,"unsqueeze":2641,"sed":2642,"Ġregister":2643,"Nt":2644,"lm":2645,"Ġsum":2646,"gen":2647,"ster":2648,"Top":2649,"Ġerror":2650,"BC":2651,"equential":2652,"tmp":2653,"Ġthreading":2654,"dic":2655,"lig":2656,"Ġalpha":2657,"phinx":2658,"Ġsamples":2659,"RandomFlip":2660,"''":2661,"randn":2662,"Ġat":2663,"133":2664,"Ġno":2665,"Ġwhile":2666,"ift":2667,"chat":2668,"LR":2669,"imum":2670,"Object":2671,"Ġ28":2672,"02":2673,"Ġpredict":2674,"mod":2675,"Ġ(_":2676,"left":2677,"DEF":2678,"Ġformat":2679,"cast":2680,"nect":2681,"ost":2682,"auth":2683,"Event":2684,"Options":2685,"1000":2686,"53":2687,"bs":2688,"ĠDataset":2689,"Ġpolicy":2690,"pers":2691,"stream":2692,"Ġgetattr":2693,"exit":2694,"transformer":2695,"Factory":2696,"ASE":2697,"nx":2698,"Ġcontextlib":2699,"sqrt":2700,"ĠY":2701,"001":2702,"Ġsession":2703,"uffle":2704,"wise":2705,"scores":2706,"download":2707,"bit":2708,"show":2709,"Ġ},<":2710,"Ġjo":2711,"cheduler":2712,"ribute":2713,"ĠImportError":2714,"PER":2715,"izes":2716,"Desc":2717,"auss":2718,"},":2719,"Info":2720,"lat":2721,"Ġ&":2722,"COL":2723,"amma":2724,"mooth":2725,"Ġ\"--":2726,"expand":2727,"err":2728,"tree":2729,"Ġ\",":2730,"Ġproject":2731,"Convert":2732,"dump":2733,"utf":2734,"oice":2735,"58":2736,"Adam":2737,"Ro":2738,"Ġmatch":2739,"SH":2740,"ux":2741,"window":2742,"long":2743,"tensors":2744,"Ġarr":2745,"Ġcli":2746,"Name":2747,"ection":2748,"chor":2749,"Ġ\"<":2750,"column":2751,"erge":2752,"KEN":2753,"bool":2754,"press":2755,"select":2756,"Ġdoc":2757,"manager":2758,"Ġhtt":2759,"Ġimages":2760,",),":2761,"play":2762,"Ġflat":2763,"Ġprocess":2764,"Ġdb":2765,"Ġannotations":2766,"ENET":2767,"sl":2768,"abc":2769,"Ne":2770,"ĠCo":2771,"ĠĠĠĠĠĠĠĠĠĠĠĠĠĠ":2772,"Ġfast":2773,"sync":2774,"elper":2775,"addle":2776,"decoder":2777,"Ġstage":2778,"Function":2779,"Ġ`":2780,"entry":2781,"ĠĠĠĠĠĠĠĠĠ":2782,"auto":2783,"Pad":2784,"aces":2785,"paths":2786,"ĠCol":2787,"aloader":2788,"abstractmethod":2789,"anguage":2790,"Encoder":2791,"Generated":2792,"enum":2793,"Tools":2794,"]),<":2795,"Ġdatasets":2796,"jit":2797,"PS":2798,"full":2799,"ffine":2800,"pop":2801,"Ġabsolute":2802,"Ġinitial":2803,"Ġ116":2804,"cityscapes":2805,"Context":2806,"Ġdrop":2807,"verage":2808,"FIL":2809,"Client":2810,"tokenizer":2811,"light":2812,"UB":2813,"ategory":2814,"Ass":2815,"pc":2816,"Ġcurrent":2817,"wd":2818,"Ġbboxes":2819,"sigmoid":2820,"13":2821,"Ġsig":2822,"pyplot":2823,"go":2824,"sampler":2825,"orage":2826,"Ġlambda":2827,"Ġmap":2828,"Ġinference":2829,"avar":2830,"undle":2831,"TF":2832,"Ġeval":2833,"Ġexample":2834,"ou":2835,"docstrings":2836,"LayerNorm":2837,"ĠDe":2838,"Runner":2839,"PAR":2840,"Get":2841,"vid":2842,"fill":2843,"igrations":2844,"ates":2845,"Ġmetavar":2846,"cy":2847,"wer":2848,"Ġroot":2849,"mbed":2850,"configuration":2851,"SET":2852,"email":2853,"Ġdeepcopy":2854,"Result":2855,"alchemy":2856,"MAGENET":2857,"ML":2858,"URL":2859,"pile":2860,"transpose":2861,"book":2862,"Ġfn":2863,"Ġlo":2864,"vec":2865,"lap":2866,"scen":2867,"Ġ'--":2868,"avg":2869,"Ġinterval":2870,"exception":2871,"1333":2872,"675":2873,"Sequential":2874,"Ġ13":2875,"ĠModel":2876,"Ġbytes":2877,"Ġ200":2878,"/'<":2879,"Size":2880,"ĠTest":2881,"tern":2882,"scheduler":2883,"ench":2884,"Ġmsg":2885,"Ġauto":2886,"Ġ\"\\":2887,"medi":2888,"Ġctypes":2889,"ges":2890,"success":2891,"help":2892,"Ġover":2893,"here":2894,"DO":2895,"reflection":2896,"MessageType":2897,"Ġupdate":2898,"ie":2899,"ĠĠĠĠĠĠĠĠĠĠĠĠĠĠĠĠĠĠĠĠ":2900,"mul":2901,"part":2902,"Ġrow":2903,"Man":2904,"}\"<":2905,"ans":2906,"bar":2907,"Ġcontent":2908,"Spec":2909,"comm":2910,"Ġheight":2911,"Ġobject":2912,"ĠBert":2913,"png":2914,"ProtocolMessageType":2915,"ee":2916,"debug":2917,"uous":2918,"Ġmomentum":2919,"Ġseg":2920,"GeneratedProtocolMessageType":2921,"Ġpaddle":2922,"Ext":2923,"TRAIN":2924,"component":2925,"ises":2926,"Case":2927,"org":2928,"author":2929,"keras":2930,"REGI":2931,"Trans":2932,"olution":2933,"DATASET":2934,"arange":2935,"ture":2936,"imgs":2937,"Ġnumber":2938,"berta":2939,"contain":2940,"chain":2941,"##":2942,"sin":2943,"orig":2944,"Ġfunctional":2945,"500":2946,"Ġast":2947,"like":2948,"DA":2949,"1024":2950,"]]<":2951,"MAX":2952,"Ġpoints":2953,"Ġpack":2954,"compat":2955,"iment":2956,"ERSION":2957,"ĠĠĠĠĠĠĠĠĠĠĠĠĠĠĠĠĠĠĠĠĠ":2958,"Ġcommand":2959,"Ġenc":2960,"filters":2961,"ERR":2962,"ffers":2963,"utton":2964,"Ġdescription":2965,"ResNet":2966,"ather":2967,"ession":2968,"ugging":2969,"Ġgraph":2970,"faster":2971,"Qu":2972,"Ġquery":2973,"qual":2974,"0001":2975,"TOKEN":2976,"Ann":2977,"pts":2978,"Torch":2979,"style":2980,"ĠUser":2981,"job":2982,"requires":2983,"LL":2984,"SER":2985,"ank":2986,"ords":2987,"BERT":2988,"Ġvis":2989,"ignore":2990,"ĠReg":2991,"cent":2992,"123":2993,"startswith":2994,"ynam":2995,"idation":2996,"Ġdivision":2997,"Ġnormal":2998,"perm":2999,"Ġ1024":3000,"reduce":3001,"Ġdis":3002,"Entropy":3003,"urls":3004,"****":3005,"caffe":3006,"global":3007,"OUT":3008,"non":3009,"ĠĠĠĠĠĠĠĠĠĠĠĠĠĠĠĠĠĠĠĠĠĠ":3010,"zip":3011,"req":3012,"raises":3013,"Ġsign":3014,"ĠABC":3015,"URE":3016,"Ġ_,":3017,"Sequence":3018,"DEFINE":3019,"aussian":3020,"inator":3021,"roi":3022,"Ġcommon":3023,"PORT":3024,"uggingface":3025,"oft":3026,"plugin":3027,"wrap":3028,"Ġtrace":3029,"Ġign":3030,"idget":3031,"era":3032,"__(<":3033,"Ġsa":3034,"ĠFl":3035,"PreTrain":3036,"Add":3037,"FL":3038,"pell":3039,"Ġac":3040,"DER":3041,"FE":3042,"wo":3043,"factory":3044,"buffers":3045,"STRY":3046,"YLE":3047,"ik":3048,"repr":3049,"enchmark":3050,"inue":3051,"ĠĠĠĠĠĠĠĠĠĠ":3052,"Ġuuid":3053,"sql":3054,"ible":3055,"rossEntropy":3056,"ĠĠĠĠĠĠĠĠĠĠĠĠĠĠĠĠĠ":3057,"Ġscore":3058,"Ġsettings":3059,"instances":3060,"Ġsorted":3061,"REGISTRY":3062,"stants":3063,"This":3064,"remove":3065,"Ġcrop":3066,"concat":3067,"Parameter":3068,"Ġver":3069,"Ġ):<":3070,"buffer":3071,"ĠIMAGENET":3072,"TI":3073,"Ġ'/":3074,"View":3075,"python":3076,"Ġworkers":3077,"ech":3078,"Ġchannel":3079,"Ġevent":3080,"single":3081,"learn":3082,"ilt":3083,"domain":3084,"flake":3085,"link":3086,"small":3087,"Ġmethod":3088,"alled":3089,"PRE":3090,"Group":3091,"}.":3092,"ulator":3093,"Ġrequired":3094,"Ġone":3095,"Ġmultiprocessing":3096,"apt":3097,"PU":3098,"inf":3099,"uth":3100,"iguous":3101,"vect":3102,"acc":3103,"ĠEnum":3104,"/',<":3105,"Frame":3106,"HO":3107,"setup":3108,"Map":3109,"Ġabstractmethod":3110,"track":3111,"Inter":3112,"VOC":3113,"Ġfairseq":3114,"heck":3115,"Ġhasattr":3116,"Element":3117,"cmd":3118,"ould":3119,"ories":3120,"estamp":3121,"Ġbl":3122,"Ġserialized":3123,"Descript":3124,"ffix":3125,"pus":3126,"inference":3127,"ĠĠĠĠĠĠĠĠĠĠĠĠĠĠĠĠĠĠ":3128,"With":3129,"Ġsocket":3130,"Ġdecode":3131,"hot":3132,"String":3133,"Pl":3134,"yaml":3135,"Ġspec":3136,"alog":3137,"Ġhook":3138,"only":3139,"Ġchannels":3140,")),":3141,"gl":3142,"Ġoutputs":3143,"GE":3144,"ram":3145,"flatten":3146,"Meta":3147,"Ġneg":3148,"resume":3149,"objects":3150,")).":3151,"Ġview":3152,"cn":3153,"OP":3154,"Value":3155,"response":3156,"Ġevalu":3157,"resolve":3158,"TopDown":3159,"utes":3160,"align":3161,"VERSION":3162,"Ġlength":3163,"ources":3164,"Ġunicode":3165,"SK":3166,"bose":3167,"huggingface":3168,"Ġbin":3169,"\"],":3170,"Ġsp":3171,"compile":3172,"network":3173,"registry":3174,"cket":3175,"nown":3176,"periment":3177,"Transformer":3178,"else":3179,"IZ":3180,"eras":3181,"Ġ19":3182,"eature":3183,"Descriptor":3184,"bol":3185,"win":3186,"ensions":3187,"60":3188,"Ġsource":3189,"./":3190,"Ġplatform":3191,"Ġstatus":3192,")')<":3193,"Ġepoch":3194,"propos":3195,"ĠCN":3196,"shot":3197,"return":3198,"ynamic":3199,"Entity":3200,"nowflake":3201,"ĠPre":3202,"Ġtargets":3203,"DB":3204,"ENCE":3205,"Ġ'<":3206,"uptools":3207,"Assigner":3208,"Color":3209,"softmax":3210,"ERROR":3211,";<":3212,"elu":3213,"Ġcan":3214,"ampling":3215,"way":3216,"real":3217,"Ġbuilder":3218,"255":3219,"uniform":3220,"csv":3221,"GG":3222,"Ġignore":3223,"rames":3224,"sses":3225,"ĠArg":3226,"queue":3227,"ww":3228,"template":3229,"Num":3230,"Sub":3231,"BOX":3232,"Ġutil":3233,"enet":3234,"Ġseq":3235,"Ġsu":3236,"edge":3237,"Ġdest":3238,"rection":3239,"Ġnext":3240,"Ġflags":3241,"contiguous":3242,"TTP":3243,"has":3244,"Ġdec":3245,"ba":3246,"send":3247,"ublic":3248,"sphinx":3249,"ui":3250,"Ġworld":3251,"randint":3252,"Ġcsv":3253,"ĠĠĠĠĠĠĠĠĠĠĠĠĠ":3254,"Ġthis":3255,"ĠCh":3256,"Ġlevel":3257,"diff":3258,"Level":3259,"Schema":3260,"eed":3261,"Ġflax":3262,"Ġpoint":3263,"Ġtop":3264,"26":3265,"Ġseed":3266,"FILE":3267,"denc":3268,"Ġfont":3269,"Ġoptions":3270,"abspath":3271,"gra":3272,"car":3273,"equal":3274,"prec":3275,"Stat":3276,"reak":3277,"alg":3278,"system":3279,"Embed":3280,"Ġrank":3281,"resnext":3282,"ĠMapping":3283,"Ġsqlalchemy":3284,"ia":3285,"tag":3286,"Ġvalues":3287,"lean":3288,"Ġgym":3289,"375":3290,"Ġlast":3291,"unch":3292,"cade":3293,"corners":3294,"Ġ})<":3295,"configs":3296,"Ġreverse":3297,"Ġneck":3298,"Ġmust":3299,"Ġprefix":3300,"modeling":3301,"til":3302,"Array":3303,"Ġfrozen":3304,"=_":3305,"FPN":3306,"tests":3307,"Io":3308,"Que":3309,"ascade":3310,"bind":3311,"na":3312,"leep":3313,"Ġorig":3314,"quant":3315,"ROI":3316,"Ġthat":3317,"Ġlogits":3318,"Ġiou":3319,"Channel":3320,"yperparams":3321,"uments":3322,"etch":3323,"ntity":3324,"TR":3325,"]),":3326,"Ġcast":3327,"35":3328,"Id":3329,"Table":3330,"Ġus":3331,"divisor":3332,"An":3333,"curacy":3334,"require":3335,"\").":3336,"dd":3337,"itt":3338,"Ġorder":3339,"ride":3340,"Ġdilation":3341,"alf":3342,"constant":3343,"Aug":3344,"workers":3345,"Ġoptim":3346,"outputs":3347,"Ġprogress":3348,"rossEntropyLoss":3349,"SA":3350,"gold":3351,"Ġentity":3352,"CHAN":3353,"Ġcontinue":3354,"aa":3355,"ĠLO":3356,"sizes":3357,"rite":3358,"Ġfeatures":3359,"SGD":3360,"Ġbpy":3361,"Ġport":3362,"fixture":3363,"Bundle":3364,"limit":3365,"Action":3366,"Mix":3367,"Annot":3368,"Ġtraceback":3369,"dataloader":3370,"ĠSet":3371,"manual":3372,"Ġfiles":3373,"Messages":3374,"Xt":3375,"TestCase":3376,"Ġap":3377,"hr":3378,"Ġtx":3379,"service":3380,"__<":3381,"STD":3382,"Ġfull":3383,"Converter":3384,"inds":3385,"Ġselect":3386,"Ġpytorch":3387,"ĠSh":3388,"sentence":3389,"ALL":3390,"(\"/":3391,"Ġresnet":3392,"Ġcompute":3393,"google":3394,"aly":3395,"App":3396,"90":3397,"ĠZ":3398,"warmup":3399,"Ġactivation":3400,"let":3401,"gb":3402,"Ġ24":3403,"emplate":3404,"Max":3405,"etric":3406,"Val":3407,"ther":3408,"embedding":3409,"allback":3410,"ulate":3411,"AGS":3412,"xel":3413,"ump":3414,"idate":3415,"vo":3416,"Ġrel":3417,"mix":3418,"lier":3419,"Ġflatbuffers":3420,"ware":3421,"efficient":3422,"Generator":3423,"())":3424,"Ġgenerate":3425,"body":3426,"ĠTh":3427,"CLASSES":3428,"pg":3429,"395":3430,"BBox":3431,"rout":3432,"STYLE":3433,"={\"":3434,"Per":3435,"agg":3436,"memory":3437,"cond":3438,"stats":3439,"Ġ103":3440,"']['":3441,"Scale":3442,"','":3443,"ĠRegistry":3444,".\"<":3445,"Ġtimedelta":3446,"Ġscores":3447,"riterion":3448,"\"),":3449,"Ġclasses":3450,"skip":3451,"UID":3452,"segment":3453,"Ġposition":3454,"Ġfilter":3455,"SC":3456,"contrib":3457,"Ġraw":3458,"Manager":3459,"Ġexist":3460,"NET":3461,"ummy":3462,"SPMessages":3463,"proj":3464,"Al":3465,"PEC":3466,"Ġnormalize":3467,"Mock":3468,"eric":3469,"ĠPar":3470,"Ġclick":3471,"ele":3472,"math":3473,"sort":3474,"ptimizer":3475,"Ġ%(":3476,"Ġjoin":3477,"FER":3478,"cp":3479,"dings":3480,"Ġsent":3481,"POINT":3482,"mapping":3483,"nccl":3484,"LIN":3485,"Ġ::":3486,"=[\"":3487,"[[":3488,"mail":3489,"Ġframe":3490,"eters":3491,"CODE":3492,"Ġfeature":3493,"ĠResNet":3494,"NeXt":3495,"Ġsetuptools":3496,"Start":3497,"Ġweights":3498,"upported":3499,"assign":3500,"sequence":3501,"ROOT":3502,"Ġtable":3503,"Ġ\"\"<":3504,"targets":3505,"Ġextra":3506,"FormatBundle":3507,"anet":3508,"ĠAuto":3509,"Ġter":3510,"radient":3511,"Based":3512,"Ġexec":3513,"ĠKey":3514,"dk":3515,"tri":3516,"Ġtmp":3517,"IP":3518,"Ġ\"/":3519,"AA":3520,"pil":3521,"avi":3522,"Ġ\"-":3523,"after":3524,"By":3525,"CHART":3526,"Point":3527,"ĠTSPMessages":3528,"activ":3529,"converter":3530,"ested":3531,"Ġcal":3532,"extra":3533,"Bu":3534,"amedtuple":3535,"IoU":3536,"cr":3537,"Ġ'../../":3538,"payload":3539,"Ġfactor":3540,"Ġmo":3541,"master":3542,"Any":3543,"FUN":3544,"Ġ((":3545,"agenet":3546,"voc":3547,"IGHT":3548,"dnn":3549,"Ġpri":3550,"Ġvalid":3551,"Bottleneck":3552,"SAM":3553,"itect":3554,"fit":3555,"ences":3556,"alar":3557,"ĠAl":3558,"No":3559,"Ġexp":3560,"best":3561,"pie":3562,"ting":3563,"Roberta":3564,"threshold":3565,"rec":3566,"Ġencoder":3567,"ottom":3568,"inplace":3569,"sec":3570,"connect":3571,"packages":3572,"Ġlocal":3573,"mesh":3574,"iga":3575,"anc":3576,"iteral":3577,"web":3578,"AIL":3579,"})":3580,"Masks":3581,"Operator":3582,"Ġscript":3583,"efore":3584,"Column":3585,"idual":3586,"Ġprob":3587,"policy":3588,"fin":3589,"Ġmod":3590,"ĠField":3591,"ĠTo":3592,"INPUT":3593,"IES":3594,"Ġapi":3595,"Item":3596,"attn":3597,"Ġ800":3598,":]":3599,"Ġta":3600,"Annotations":3601,"vars":3602,"area":3603,"ember":3604,"Util":3605,"Ġshould":3606,"roberta":3607,"ranch":3608,"misc":3609,"_=":3610,"PROP":3611,"DefaultFormatBundle":3612,"rary":3613,"zoo":3614,"Ġmigrations":3615,"cope":3616,"__'":3617,"MET":3618,"ich":3619,"ount":3620,"iplier":3621,"abled":3622,"lab":3623,"Ġinstall":3624,"Ġoperator":3625,"Ġmetadata":3626,"hist":3627,"agic":3628,"Ġreduce":3629,"ios":3630,"GB":3631,"Iter":3632,"SPL":3633,"Wrapper":3634,"Decoder":3635,"ili":3636,"Ġ40":3637,"ĠĠĠĠĠĠĠĠĠĠĠĠ":3638,"END":3639,"%(":3640,"extract":3641,"optic":3642,"BACK":3643,"Ġflow":3644,"Ġbot":3645,"Parallel":3646,"POS":3647,"zz":3648,"admin":3649,"audio":3650,"afe":3651,"GN":3652,"MIN":3653,"isode":3654,"Ġdel":3655,"Ġtypes":3656,"binary":3657,"Ġtimm":3658,"AU":3659,"BASE":3660,"').":3661,"Ġparameter":3662,":]<":3663,"}')<":3664,"ĠQt":3665,"ush":3666,"READ":3667,"roperty":3668,"Ġrunner":3669,"Ġdisc":3670,"Ġpost":3671,"Task":3672,"WN":3673,"amount":3674,"neg":3675,"Ġit":3676,"peration":3677,"ystem":3678,"very":3679,"swer":3680,"Ġhashlib":3681,"stribution":3682,"IS":3683,"rize":3684,"Ġnull":3685,"ĠFile":3686,"Fl":3687,"handle":3688,"trainer":3689,"Ġtests":3690,"('/":3691,"egr":3692,"Check":3693,"TS":3694,"vit":3695,"stone":3696,"Ġsigma":3697,"\"}<":3698,"vate":3699,"Ġother":3700,"Ġ36":3701,"parametrize":3702,"Found":3703,"serial":3704,"ĠDE":3705,"[:-":3706,"ĠDi":3707,"udio":3708,"nodes":3709,"Ġerr":3710,"Fil":3711,"alpha":3712,"entropy":3713,"Op":3714,"BON":3715,"insert":3716,"CONT":3717,"Ġabsltest":3718,"Ġencoding":3719,"clamp":3720,"polation":3721,"AV":3722,"Ġcu":3723,"plt":3724,"ĠMO":3725,"directory":3726,"ĠTransform":3727,"Tree":3728,"ws":3729,"NAMES":3730,"FEAT":3731,"MENT":3732,"SOL":3733,"Crop":3734,"eme":3735,"ness":3736,"Ġbreak":3737,"Ġinfo":3738,"Ġcam":3739,"AND":3740,"omet":3741,"TRAN":3742,"Ġarch":3743,"Ġ1000":3744,"extension":3745,"bound":3746,"Style":3747,"LoadAnnotations":3748,"ĠConvModule":3749,"vector":3750,"Ġfound":3751,"ĠTrain":3752,"ĠAtt":3753,"person":3754,"PING":3755,"Seg":3756,"ade":3757,"hex":3758,"flag":3759,"enate":3760,"__.":3761,"itecture":3762,"comple":3763,"imagenet":3764,"Ġpool":3765,"Ġ30":3766,"Ġ224":3767,"termin":3768,"torchvision":3769,"rypto":3770,"sim":3771,"aved":3772,"Ġtokenizer":3773,"Response":3774,"SPLIT":3775,"Ġavg":3776,"ls":3777,"ring":3778,"Qt":3779,"stion":3780,"bers":3781,"database":3782,"ased":3783,"rotation":3784,"WE":3785,"Ġfp":3786,"Ġflash":3787,"ĠDataLoader":3788,"Ġattrs":3789,"_{":3790,"application":3791,"idator":3792,"SPEC":3793,"pendenc":3794,"Ġnetwork":3795,"Ġfirst":3796,"makedirs":3797,"Core":3798,"none":3799,"Ġinstance":3800,"datetime":3801,"ĠĠĠĠĠĠĠĠĠĠĠĠĠĠĠĠĠĠĠĠĠĠĠĠĠĠĠ":3802,"basic":3803,"augment":3804,"Ġhooks":3805,"CC":3806,"ocument":3807,"Form":3808,"UE":3809,"cross":3810,"ĠOb":3811,"DET":3812,"Ġroi":3813,"LoggerHook":3814,"errors":3815,"MEAN":3816,"Ġmetrics":3817,"section":3818,"ails":3819,"FILES":3820,"ground":3821,"Ġcenter":3822,"utor":3823,"tokenization":3824,"icle":3825,"ĠEntity":3826,"Ġli":3827,"Ġ[('":3828,"ĠArgumentParser":3829,"UDA":3830,"Ġremove":3831,"cii":3832,"resize":3833,"ĠGener":3834,"ĠXLM":3835,"element":3836,"obile":3837,"ĠVar":3838,"amespace":3839,"SON":3840,"Ġclip":3841,"episode":3842,"Ġ{}\".":3843,"piece":3844,"record":3845,"preds":3846,"Ġattention":3847,"Auto":3848,"rompt":3849,"lish":3850,"Ġdiff":3851,"CNN":3852,"78":3853,"HR":3854,"structure":3855,"GRO":3856,"Ġ'_":3857,"achine":3858,"65":3859,"Ġrender":3860,"Attention":3861,"cer":3862,"Ġet":3863,"Dist":3864,"Ġdropout":3865,"MAPPING":3866,"merge":3867,"render":3868,"stage":3869,"leg":3870,"Ġpk":3871,"Ġratio":3872,"backward":3873,"FERENCE":3874,"lang":3875,"disc":3876,"68":3877,">''":3878,"posit":3879,"_,":3880,"ater":3881,"atter":3882,"functions":3883,"Ġshuffle":3884,"Ġchar":3885,"ĠĠĠĠĠĠĠĠĠĠĠĠĠĠĠĠĠĠĠĠĠĠĠĠĠ":3886,"trace":3887,"riminator":3888,"cascade":3889,"ĠClient":3890,"VICE":3891,"04":3892,"Act":3893,"ĠPol":3894,"ific":3895,"384":3896,"Equal":3897,"reset":3898,"'),":3899,"Time":3900,"servation":3901,"456":3902,"uster":3903,"ĠTS":3904,"Ġaug":3905,"headers":3906,"Ġfastapi":3907,"Dropout":3908,"ane":3909,"ENS":3910,"PY":3911,"dantic":3912,"umns":3913,"Ġdownload":3914,"ren":3915,"Ġcustom":3916,"(\"\\":3917,"Ġmp":3918,"ally":3919,"()[":3920,"ators":3921,"aws":3922,"\"\\":3923,"ĠLog":3924,"detector":3925,"initializer":3926,"Fast":3927,"gg":3928,"Ġinplace":3929,"MOD":3930,"kdir":3931,"tk":3932,"Feature":3933,"router":3934,"FT":3935,"IST":3936,"rep":3937,"Ġvocab":3938,"72":3939,"ello":3940,"Ġtitle":3941,"Request":3942,"MP":3943,"super":3944,"export":3945,"ular":3946,"Ca":3947,"Ġ[[":3948,"emo":3949,"scene":3950,"Pos":3951,"ndim":3952,"Ġfields":3953,"child":3954,"Ġwrite":3955,"ARG":3956,"embers":3957,"Ġused":3958,"ĠColumn":3959,"efficientnet":3960,"BasedRunner":3961,"225":3962,"extend":3963,"769":3964,"exceptions":3965,"Ġ'\\":3966,"thread":3967,"Ġjob":3968,"iled":3969,"Processor":3970,"NOR":3971,"Rec":3972,"we":3973,"where":3974,"sem":3975,"Ġbn":3976,"workflow":3977,"Ġma":3978,"const":3979,"ributes":3980,"istic":3981,"lectra":3982,"Ġverbose":3983,"PROPERT":3984,"DS":3985,"ĠMeta":3986,"pairs":3987,"Mode":3988,"485":3989,"Ġfake":3990,"ĠMulti":3991,"Ġcache":3992,"('-":3993,"runc":3994,"Lib":3995,"Sync":3996,"benchmark":3997,"edModel":3998,"active":3999,"components":4000,"fs":4001,"iod":4002,"Ġfi":4003,"Ġ18":4004,"ĠInt":4005,"ird":4006,"Ġaux":4007,"\"][\"":4008,"406":4009,"Ġextract":4010,"QL":4011,"LIC":4012,"aky":4013,"resource":4014,"profile":4015,"Ġallow":4016,"Ġtokens":4017,"Ġyou":4018,"reen":4019,"229":4020,"getenv":4021,"div":4022,"dp":4023,"Ġkeepdim":4024,"tol":4025,"ubert":4026,"concatenate":4027,"ffff":4028,"usion":4029,"Question":4030,"gather":4031,"Ġstream":4032,"pkl":4033,"azy":4034,"dapt":4035,"examples":4036,">):<":4037,"bstract":4038,"Ġdate":4039,"tasks":4040,"multiplier":4041,"Ġsklearn":4042,"vider":4043,"LD":4044,"Ġindices":4045,"ility":4046,"GROUP":4047,"Ġalign":4048,"Ġxy":4049,"temp":4050,"ascii":4051,"Ġbeta":4052,"timestamp":4053,"noise":4054,"poly":4055,"29":4056,"Ans":4057,"eq":4058,"repeat":4059,"Detector":4060,"ĠDec":4061,"normalize":4062,"ilon":4063,"mission":4064,"Cat":4065,"tot":4066,"constants":4067,"ĠAPI":4068,"TextLoggerHook":4069,"Ġskip":4070,"Ġkeras":4071,"LOCK":4072,"Ġplot":4073,"Ġthresh":4074,"LINES":4075,"]).":4076,"dDict":4077,"gest":4078,"hand":4079,"helper":4080,"Ġcat":4081,"oxel":4082,"ailed":4083,"peech":4084,"Ġcmd":4085,"('\\":4086,"ACTION":4087,"UNet":4088,"pend":4089,"probs":4090,"LP":4091,"Mo":4092,"stdout":4093,"dar":4094,"coords":4095,"edi":4096,"ved":4097,"ĠLiteral":4098,"font":4099,"Ġuint":4100,"Ġhttp":4101,"Ġsix":4102,"cudnn":4103,"Ġparameters":4104,"xyz":4105,"sa":4106,"olver":4107,"Ġhero":4108,"Ġgamma":4109,"Ġ80":4110,"FLAGS":4111,"epl":4112,"mn":4113,"agicMock":4114,"entions":4115,"(\".":4116,"free":4117,"Ġflask":4118,"uncased":4119,"calc":4120,"Back":4121,"Ġreplace":4122,"distance":4123,"STATE":4124,"BaseModel":4125,"sor":4126,"iskit":4127,"ializer":4128,"Ġsequence":4129,"Read":4130,"ues":4131,"SOLVER":4132,"Ġpayload":4133,"IMAG":4134,"Optional":4135,"the":4136,"ĠRandom":4137,"pellEntity":4138,"Ġida":4139,"Ġdecoder":4140,"generate":4141,":,":4142,"stop":4143,"allet":4144,"overlap":4145,"facebook":4146,"cut":4147,"ĠFunction":4148,"PARAM":4149,"conds":4150,"PreTrainedModel":4151,"Ġ'-":4152,"Ġwill":4153,"ResNeXt":4154,"package":4155,"Masked":4156,"category":4157,"beta":4158,"LOG":4159,"AX":4160,"Ġmy":4161,"header":4162,"variable":4163,"ategy":4164,"Dis":4165,"orith":4166,"ason":4167,"dri":4168,"('.":4169,"NotFound":4170,"rb":4171,"ckpt":4172,"flax":4173,"grade":4174,"Ġbound":4175,"andard":4176,"pression":4177,"Ġsoft":4178,"]])<":4179,"Ġfin":4180,"endswith":4181,"ĠPyTorch":4182,"predictions":4183,"Ġarea":4184,"Ġvideo":4185,"loop":4186,"direct":4187,"ATCH":4188,"fun":4189,"olo":4190,"squ":4191,"prox":4192,"LAY":4193,"COMMANDARCHIVE":4194,"OPT":4195,"can":4196,"hip":4197,"ĠQu":4198,"half":4199,"page":4200,"Ġ*=":4201,"lice":4202,"Ġlines":4203,"Embedding":4204,"chunk":4205,"Ġscheduler":4206,"counter":4207,"Ġshow":4208,"SSES":4209,"password":4210,"activations":4211,"Answer":4212,"44":4213,"aded":4214,"Ġ\"_":4215,"detach":4216,"TTk":4217,"EG":4218,"ĠPY":4219,"ITION":4220,"Formatter":4221,"jpg":4222,"ks":4223,"Ġdst":4224,"ĠSession":4225,"ditional":4226,"70":4227,"Ġcre":4228,"Ġbet":4229,"TRANS":4230,"fy":4231,"\"].":4232,"Ġtrainer":4233,"option":4234,"operator":4235,"permute":4236,"150":4237,"diction":4238,"fgNode":4239,"Epoch":4240,"WAR":4241,"cb":4242,"iny":4243,"Stream":4244,"processor":4245,"Ġ'../../_":4246,"Ġ50":4247,"86":4248,"ination":4249,"anh":4250,"embeddings":4251,"BUG":4252,"ario":4253,")))":4254,"JECT":4255,"Ġnamedtuple":4256,"integer":4257,"Ġpydantic":4258,"Ġnon":4259,"DEN":4260,"Basic":4261,"ENER":4262,"callback":4263,"slot":4264,"Ġman":4265,"Ġold":4266,"([<":4267,"OB":4268,"sn":4269,"Ġsearch":4270,"asy":4271,"ĠSnowflake":4272,"Filter":4273,"socket":4274,"Ġinst":4275,"validation":4276,"ĠCO":4277,"schema":4278,"mid":4279,"diag":4280,"lender":4281,"Stage":4282,"Ġbackend":4283,"igration":4284,"Status":4285,"dynamic":4286,"dumps":4287,"Extension":4288,"Ġcalc":4289,"itch":4290,"Ġ23":4291,"home":4292,"ression":4293,"Ġsm":4294,"ĠModule":4295,"ĠfontTools":4296,"Answering":4297,"derr":4298,"dn":4299,"Ġpython":4300,"PELINES":4301,"actions":4302,"rat":4303,"ĠText":4304,"partial":4305,"ĠSc":4306,":-":4307,"dr":4308,"road":4309,"Ġprec":4310,"Ġshift":4311,"CTYPE":4312,"Char":4313,"icro":4314,"ugins":4315,"proposals":4316,"ForSequence":4317,"ĠIterator":4318,"ForSequenceClassification":4319,"onnx":4320,"alys":4321,"Ġgrid":4322,"ĠMessage":4323,"Ġtaiga":4324,"oices":4325,"click":4326,"owner":4327,"Ġany":4328,"ĠCrypto":4329,"Env":4330,"Ġusing":4331,"Ġ''<":4332,"duct":4333,"alysis":4334,"/{":4335,"23":4336,"war":4337,"edit":4338,"cli":4339,"theme":4340,"account":4341,"ĠVariable":4342,"frames":4343,"scope":4344,"release":4345,"Ġdirectory":4346,"tags":4347,"experiment":4348,"Ġmult":4349,"iki":4350,")]":4351,"route":4352,"entities":4353,"clone":4354,"shared":4355,"Ġ\\<":4356,"mediate":4357,"DATASETS":4358,"ĠCrossEntropyLoss":4359,"flops":4360,"words":4361,"REFERENCE":4362,"ĠNamed":4363,"Ġonnx":4364,"eplab":4365,"vm":4366,"Ġclo":4367,"Ġassign":4368,"INTER":4369,"Tra":4370,"other":4371,"retin":4372,"suffix":4373,"warning":4374,"Ġacc":4375,"TER":4376,"indic":4377,"ower":4378,"Ġ>>":4379,"COLOR":4380,"uri":4381,"End":4382,"]],":4383,")])<":4384,"Optimizer":4385,"SO":4386,"ECTORS":4387,"ESET":4388,"osp":4389,"Ġht":4390,"ayout":4391,"dl":4392,"initialized":4393,"OK":4394,"colors":4395,"ating":4396,"itmap":4397,"Ġcorrect":4398,"ĠCounter":4399,"CM":4400,"vcore":4401,"-%":4402,"Rot":4403,"zzle":4404,"uble":4405,"mlp":4406,"Ġactual":4407,"lem":4408,"DataFrame":4409,"hoice":4410,"QuestionAnswering":4411,",)<":4412,"Of":4413,"Widget":4414,"symbol":4415,"dentity":4416,"Ġhttps":4417,"iliary":4418,"change":4419,"plus":4420,"imitive":4421,"servable":4422,"FUNCTYPE":4423,"distil":4424,"Ġscen":4425,"----------------":4426,"utable":4427,"LMHead":4428,":%":4429,"MT":4430,"rng":4431,"ava":4432,"ISS":4433,"learning":4434,"choice":4435,"clean":4436,"IZER":4437,"Affine":4438,"dle":4439,"peed":4440,"Ġ[-":4441,"79":4442,"xml":4443,"ries":4444,"lers":4445,"ĠCfgNode":4446,"Index":4447,"Target":4448,"bb":4449,"Ġ\"\"\"":4450,"dummy":4451,"Catalog":4452,"ĠMy":4453,"RY":4454,"RCNN":4455,"gpt":4456,"gamma":4457,"ega":4458,"ĠBaseModel":4459,"FC":4460,"Ġref":4461,"ĠMagicMock":4462,"hi":4463,"Ġmlp":4464,"ĠFlax":4465,"pendencies":4466,"FIX":4467,"Ġcontainer":4468,"Label":4469,"MS":4470,"mit":4471,"LOW":4472,"retinanet":4473,"Ġ22":4474,"foo":4475,"hrnet":4476,"Ġrate":4477,"flat":4478,"iltin":4479,"polygon":4480,"reduction":4481,"TE":4482,"Ġsg":4483,"summary":4484,"74":4485,"plates":4486,"CLI":4487,"inp":4488,"ea":4489,"Ġloc":4490,"ĠĠĠĠĠĠĠĠĠĠĠĠĠĠĠĠĠĠĠĠĠĠĠĠĠĠ":4491,"STRING":4492,"'t":4493,"projects":4494,"ESSION":4495,"ĠLo":4496,"parameter":4497,"sigma":4498,"BOT":4499,"cpp":4500,"dilation":4501,"assertEqual":4502,"Ġfunctions":4503,"Mixin":4504,"As":4505,"dest":4506,"django":4507,"ji":4508,"login":4509,"Ġsignal":4510,"tokenizers":4511,"polate":4512,"untimeError":4513,"inv":4514,"losses":4515,"Ġpdb":4516,"Ġdt":4517,")(":4518,"MM":4519,"answer":4520,"loy":4521,"mble":4522,"Property":4523,"Ref":4524,"fficient":4525,"unittest":4526,"rl":4527,"storage":4528,"ideo":4529,"Ġbuf":4530,")}":4531,"Custom":4532,"Ġarray":4533,"([[":4534,"vgg":4535,"Ġfvcore":4536,"expected":4537,"WS":4538,"hparams":4539,"rig":4540,"sampling":4541,"logs":4542,"ITH":4543,"control":4544,"linalg":4545,"wn":4546,"Ġnb":4547,"andb":4548,"ĠRoberta":4549,"arent":4550,"MODE":4551,"RL":4552,"uction":4553,"Ġtag":4554,"Ġserver":4555,"Ġhandle":4556,"loads":4557,"branch":4558,"START":4559,"Ġdir":4560,"ema":4561,"ĠPo":4562,"Ġ:]":4563,"encoding":4564,"containing":4565,"totype":4566,"Graph":4567,"ForQuestionAnswering":4568,"Long":4569,"difi":4570,"Ġhost":4571,"Ġden":4572,"ImageToTensor":4573,"raps":4574,"addr":4575,"Ġtrack":4576,"vs":4577,"__.__":4578,"peg":4579,"Ġmark":4580,"aggreg":4581,"ITY":4582,"ĠTypeError":4583,"VOCAB":4584,"RGB":4585,"]+":4586,"ty":4587,".\",<":4588,"obs":4589,"Ġheaders":4590,"ti":4591,"ĠOpen":4592,"Ġ60":4593,"MIT":4594,"gent":4595,"asset":4596,"roadcast":4597,".*":4598,"dam":4599,"pid":4600,"ĠĠĠĠĠĠĠĠĠĠĠĠĠĠĠĠĠĠĠĠĠĠĠĠĠĠĠĠĠĠĠĠĠ":4601,"categ":4602,"less":4603,"neck":4604,"88":4605,"CS":4606,"allow":4607,"03":4608,"Ġdebug":4609,"Ġconstruct":4610,"Number":4611,"Ġnullable":4612,"side":4613,"sorted":4614,"Ġangle":4615,"Ġtri":4616,"umeric":4617,"ĠNo":4618,"999":4619,"signal":4620,"================":4621,"border":4622,"MaskedLM":4623,"ĠSer":4624,"Ġextension":4625,"Adapt":4626,"extensions":4627,"EpochBasedRunner":4628,"IF":4629,"tab":4630,"typ":4631,"atron":4632,"Ġhtml":4633,"Metric":4634,"Ac":4635,"support":4636,"GR":4637,"Writer":4638,"dt":4639,"DEBUG":4640,"RET":4641,"sleep":4642,"required":4643,"({\"":4644,"eam":4645,"Ġwrap":4646,"Ġrgb":4647,"GRA":4648,"Ġtp":4649,"ForMaskedLM":4650,"Ġbs":4651,"camera":4652,"TIME":4653,"_<":4654,"momentum":4655,"Ġav":4656,"ĠMODEL":4657,"fname":4658,"allen":4659,"Ġrequire":4660,"document":4661,"Serializer":4662,"pixel":4663,"missions":4664,"ĠĠĠĠĠĠĠĠĠĠĠĠĠĠĠĠĠĠĠĠĠĠĠĠĠĠĠĠĠĠĠ":4665,"Ġvert":4666,"IONS":4667,"10000":4668,"XL":4669,"day":4670,"ves":4671,"Ġstem":4672,"Ġconfiguration":4673,"160":4674,"Ġcorners":4675,"ACT":4676,"]]:<":4677,"aunch":4678,"Ġapply":4679,"Ġsym":4680,"ĠRo":4681,"worker":4682,"USE":4683,"izont":4684,"Ġweb":4685,"ADD":4686,"cloud":4687,"yph":4688,"ĠApp":4689,"Ġprototype":4690,"sity":4691,"atom":4692,"ainer":4693,"Ġuni":4694,"ETER":4695,"egatron":4696,"Ġword":4697,"ere":4698,"otion":4699,"series":4700,"pow":4701,"Ġconf":4702,"ABC":4703,"192":4704,"izontal":4705,"aim":4706,"setLevel":4707,"CAL":4708,"si":4709,"Generation":4710,"sens":4711,"ĠBatch":4712,"gelu":4713,"known":4714,"Ġsw":4715,"ĠSE":4716,"Ġauthor":4717,"ori":4718,"role":4719,"erties":4720,"Ġright":4721,"ĠPolygon":4722,"Ġauxiliary":4723,"Create":4724,"gpus":4725,"Ġsim":4726,"Ġyour":4727,"freq":4728,"levels":4729,"Ġpose":4730,"liter":4731,"question":4732,"Project":4733,"commands":4734,"SELoss":4735,"regnet":4736,"Ġonly":4737,"TokenizerFast":4738,"Ġcontaining":4739,"filepath":4740,"allclose":4741,"Ġ384":4742,"Ġheat":4743,"FORMAT":4744,"PROPERTY":4745,"cd":4746,"tar":4747,"renc":4748,"Ġlat":4749,"ĠST":4750,"layout":4751,"Code":4752,"NE":4753,"ural":4754,"Ġleft":4755,"execute":4756,"RoI":4757,"54":4758,"Ġpt":4759,"exe":4760,"connection":4761,"ĠPool":4762,"Ġexport":4763,"just":4764,"off":4765,"aling":4766,"Ġ[(":4767,"erg":4768,"ocr":4769,"ived":4770,"VIS":4771,"events":4772,"77":4773,"EPS":4774,"Ġcos":4775,"maximum":4776,"nan":4777,"06":4778,"wb":4779,"zone":4780,"ĠClass":4781,"COCO":4782,"Entry":4783,"033":4784,"Ġsmooth":4785,"Ġgen":4786,"Ġlink":4787,"shift":4788,"ĠBasic":4789,"pa":4790,"152":4791,"Ġfig":4792,"Ġmesh":4793,"uman":4794,"compute":4795,"On":4796,"phet":4797,"IMAGE":4798,"perations":4799,"WEIGHT":4800,"ummary":4801,"Ġdummy":4802,"Ġvalidate":4803,"cased":4804,"HTTP":4805,"enu":4806,"ĠDocument":4807,"Ġwrapper":4808,"detectron":4809,"Ġhave":4810,"ĠDAT":4811,"architecture":4812,"unique":4813,"####":4814,"avier":4815,"warnings":4816,"__))<":4817,"BUIL":4818,"literals":4819,"AUT":4820,"Ġreset":4821,"Coco":4822,"ULE":4823,"rogram":4824,"Ġrpn":4825,"Integer":4826,"commit":4827,"UUID":4828,"sparse":4829,"Ġentry":4830,"Pol":4831,"fter":4832,"mkdir":4833,"Ġrepeat":4834,"bi":4835,"xx":4836,"columns":4837,"2000":4838,"Ġds":4839,"fold":4840,"yd":4841,"Ġpair":4842,"Ġimgs":4843,"INGS":4844,"Ġencode":4845,"Device":4846,"panoptic":4847,"anchor":4848,"rows":4849,"sole":4850,"Ġattn":4851,"Bot":4852,"bil":4853,"ĠTrans":4854,"Ġparent":4855,"Ġcy":4856,"ofs":4857,"ency":4858,"lightning":4859,"Ġtree":4860,"ials":4861,"WORLD":4862,"AST":4863,"FM":4864,"ĠRuntimeError":4865,"rency":4866,"Ġcolors":4867,"byte":4868,"username":4869,"Service":4870,"Query":4871,"Choice":4872,"Ret":4873,"Ġnumbers":4874,"VEL":4875,"terministic":4876,"42":4877,"wav":4878,"override":4879,"BACKBON":4880,"Dense":4881,"aler":4882,"chedule":4883,"ĠGPT":4884,"anced":4885,"Ġheatmap":4886,"atern":4887,"FIC":4888,"73":4889,"Ġrecord":4890,"Init":4891,"Ġbucket":4892,"newton":4893,"HEADS":4894,">'''<":4895,"ta":4896,"getitem":4897,"ĠBox":4898,"Ġsend":4899,"Multiple":4900,"AY":4901,"NN":4902,"nv":4903,"ĠAT":4904,"Instance":4905,"Ġchunk":4906,"Ġlong":4907,"USER":4908,"',),<":4909,"coin":4910,"ĠDep":4911,"ĠHTTP":4912,"users":4913,"ĠĠĠĠĠĠĠĠĠĠĠĠĠĠĠĠĠĠĠĠĠĠĠĠĠĠĠĠ":4914,"ĠRequest":4915,"gan":4916,"simple":4917,"uuid":4918,"ublish":4919,"recall":4920,"...":4921,"ĠCON":4922,"nums":4923,"Ġelement":4924,"dst":4925,"keypoints":4926,"ĠBottleneck":4927,"FN":4928,"Sample":4929,"rpn":4930,"vironment":4931,"ĠString":4932,"Params":4933,"strain":4934,"Ġ:]<":4935,"Classifier":4936,"ĠThread":4937,"SAMPL":4938,"Vector":4939,"ateway":4940,"IoUAssigner":4941,"indicator":4942,"etun":4943,"Ġsy":4944,"AVAIL":4945,"Ġpts":4946,"__,":4947,"MASK":4948,"Ġpropos":4949,"visible":4950,"Ġchild":4951,"ORCH":4952,"requirements":4953,"Pretrained":4954,"structures":4955,"Trainer":4956,"EAD":4957,"final":4958,"ua":4959,"Ġedge":4960,"ĠPl":4961,"templates":4962,"Ġnoise":4963,"NOT":4964,"same":4965,"Ġpart":4966,"Session":4967,"raper":4968,"ĠFast":4969,"STAGE":4970,"DataParallel":4971,"Component":4972,"fcn":4973,"GGER":4974,"NING":4975,"Ġhigh":4976,"Ġdoes":4977,"95":4978,"game":4979,"orn":4980,"ĠLinear":4981,"span":4982,"********":4983,"sqlite":4984,"Ġcuda":4985,"SyncBN":4986,"Source":4987,"include":4988,"platform":4989,"contract":4990,"LOAD":4991,"hero":4992,"PARAMETER":4993,"Pi":4994,"Ġfilters":4995,"__).":4996,"=[],<":4997,"www":4998,"cot":4999,"eff":5000,"mi":5001,"Ġmerge":5002,"ĠForm":5003,"Ġ96":5004,"ĠParam":5005,"VENT":5006,"poser":5007,"listdir":5008,"Ġdigit":5009,"Ġevaluate":5010,"NotFoundError":5011,"mar":5012,"Ġsupport":5013,"Ġ17":5014,"dll":5015,"rest":5016,"matmul":5017,"EMB":5018,"31":5019,"Coder":5020,"DOT":5021,"Min":5022,"lst":5023,"coord":5024,"(\"-":5025,"price":5026,"repo":5027,"'][":5028,"GENER":5029,"install":5030,"ONG":5031,"Ġradi":5032,"pattern":5033,"numel":5034,"Ġ]),<":5035,"attern":5036,"topk":5037,"ĠIs":5038,"STAT":5039,"Ġsec":5040,"lobal":5041,"LEN":5042,"()))<":5043,"opts":5044,"Ġbackward":5045,"ĠĠĠĠĠĠĠĠĠĠĠĠĠĠĠĠĠĠĠĠĠĠĠĠĠĠĠĠĠĠ":5046,"Ġauth":5047,"38":5048,"CES":5049,"Version":5050,"}:":5051,"(?":5052,"short":5053,"Ġpkg":5054,"='',":5055,"tolist":5056,"cell":5057,"unumeric":5058,"running":5059,"ĠKeyError":5060,"named":5061,"yb":5062,"Ġexit":5063,"issing":5064,"ĠLOSSES":5065,"NEL":5066,"ethod":5067,"ORY":5068,"Ġdivisor":5069,"Ġ'../../../":5070,"patial":5071,"Ġprecision":5072,"300":5073,"invalid":5074,"ĠDET":5075,"Ġdistributed":5076,"DataLoader":5077,"Ġmatrix":5078,"Ġpackage":5079,"Window":5080,"\\\\":5081,"cost":5082,"artial":5083,"Ġchat":5084,"correct":5085,"TRANSFORM":5086,"TY":5087,"okup":5088,"FIEL":5089,"ISSING":5090,"AVAILABLE":5091,"BY":5092,"Scheduler":5093,"seconds":5094,"ulation":5095,"ĠToken":5096,"embership":5097,"roll":5098,"Ġclean":5099,"unit":5100,"INIT":5101,"103":5102,"RESH":5103,":.":5104,"nel":5105,"ĠDESCRIPTOR":5106,"ĠGenerator":5107,"Ġmodules":5108,"rightness":5109,"CHANG":5110,"Ġcriterion":5111,"Ġexc":5112,"')))<":5113,"ĠĠĠĠĠĠĠĠĠĠĠĠĠĠĠĠĠĠĠĠĠĠĠĠĠĠĠĠĠ":5114,"46":5115,"tte":5116,"Ġpreds":5117,"Ġengine":5118,"ĠPython":5119,"Struct":5120,"xl":5121,"puzzle":5122,"Ġpoly":5123,"iant":5124,"Ġfolder":5125,"00000000":5126,"writer":5127,"([\"":5128,"icon":5129,"annotation":5130,"NormalizeTensor":5131,"ĠAlbert":5132,"StageDetector":5133,"EC":5134,"cm":5135,"fake":5136,"jnp":5137,"micro":5138,"direction":5139,"Ġmu":5140,"Ġ123":5141,"Tests":5142,"Admin":5143,"lope":5144,"disp":5145,"rast":5146,"private":5147,"ĠTransformer":5148,"ayes":5149,"alette":5150,"handlers":5151,"Ġdp":5152,"ModelOutput":5153,"feats":5154,"timeout":5155,"BLOCK":5156,"vers":5157,"Program":5158,"FEATURE":5159,"]['":5160,"Ġ+<":5161,"pipe":5162,"Ġmasks":5163,"PC":5164,"jection":5165,"mega":5166,"}'<":5167,"region":5168,"768":5169,"struction":5170,"Ġrng":5171,"Ġcodecs":5172,"ae":5173,"high":5174,"tool":5175,"ender":5176,"Ġsuffix":5177,"BATCH":5178,"Ġtr":5179,"Ġtimeout":5180,"Chart":5181,"mAP":5182,"mote":5183,"lex":5184,"ĠAttribute":5185,"language":5186,"Ġ320":5187,"Ġpassword":5188,"partition":5189,"Ġdecay":5190,"hrnetv":5191,"Ġot":5192,"ATT":5193,"OUTPUT":5194,"public":5195,"inition":5196,"safe":5197,"Ġinp":5198,"Ġunicodedata":5199,")],<":5200,"Lazy":5201,"cwd":5202,"report":5203,"Ġnargs":5204,"Ġstrides":5205,"Ġparameterized":5206,"*.":5207,"Auth":5208,"Ops":5209,"hance":5210,"tanh":5211,"ĠPI":5212,"Ġplan":5213,"Ġgl":5214,"formation":5215,"corator":5216,"helpers":5217,"\",\"":5218,"']:<":5219,"ONE":5220,"apps":5221,"gre":5222,"lvis":5223,"sing":5224,"resources":5225,"\"]:<":5226,"chors":5227,"itor":5228,"mach":5229,"Ġpolygon":5230,"ĠCommand":5231,"Ġstop":5232,"history":5233,"Ġdiscord":5234,"original":5235,"BBoxCoder":5236,"dleware":5237,"TABLE":5238,"upper":5239,"WORD":5240,"Ali":5241,"HAS":5242,"br":5243,"oun":5244,"adam":5245,"entic":5246,"lenet":5247,"'s":5248,"69":5249,"Len":5250,"_()<":5251,"cocot":5252,"POSITION":5253,"Callback":5254,"OM":5255,"Single":5256,"ascal":5257,"classifier":5258,"PreTraining":5259,"45":5260,"Gdi":5261,"Ġts":5262,"alk":5263,"()):<":5264,"egin":5265,"Control":5266,"BBoxHead":5267,"ĠPolygonMasks":5268,"cocotools":5269,"dence":5270,"linen":5271,"tables":5272,"GHT":5273,"LINE":5274,"Payload":5275,"builtin":5276,"mlink":5277,"MultiScale":5278,"NtGdi":5279,"ĠGeneric":5280,"schem":5281,"reward":5282,"Ġresize":5283,"Ġxml":5284,"))))<":5285,"apter":5286,"EMBED":5287,"Ġlaunch":5288,"Ġservice":5289,"Ġembedding":5290,"NODE":5291,"AI":5292,"MY":5293,"called":5294,"mem":5295,"Ġforce":5296,"Ġprev":5297,"={'":5298,"kv":5299,"Ġps":5300,"Ġcunumeric":5301,"pytransform":5302,"shuffle":5303,"()}<":5304,"OperatorConverter":5305,"PLE":5306,"]],<":5307,"icense":5308,"63":5309,"smooth":5310,"Ġbut":5311,"utilities":5312,"Ġwhich":5313,"Server":5314,"entries":5315,"Store":5316,"ĠDecimal":5317,"ESETARCHIVE":5318,"deeplab":5319,"Ġmix":5320,"Ġdelete":5321,"acter":5322,"BertConfig":5323,"ike":5324,"lite":5325,"Ġqueue":5326,"exist":5327,"Ġbuffer":5328,"ready":5329,"hub":5330,"Ġnames":5331,"rie":5332,"ĠSe":5333,"Ġexists":5334,"2021":5335,"QUEST":5336,"Ġ#":5337,"ability":5338,"aster":5339,"Exec":5340,"inner":5341,"ified":5342,"Ġprediction":5343,"Ġlinear":5344,"theta":5345,"ATOR":5346,"Ġresource":5347,"LAB":5348,"Ġ<<":5349,"CESS":5350,"Do":5351,"acher":5352,"mmcv":5353,"ĠATen":5354,"All":5355,"~~":5356,"anner":5357,"__(**":5358,"aiming":5359,"OS":5360,"sos":5361,"transaction":5362,"Ġimplement":5363,"Ġquant":5364,"Ġcommands":5365,"Ġthreshold":5366,"MultipleChoice":5367,":\",":5368,"Ġtar":5369,"CELL":5370,"azon":5371,"orithm":5372,"DF":5373,"Ġtgt":5374,"Ġ',":5375,"Ġsin":5376,"CACHE":5377,">=":5378,"Mapping":5379,"big":5380,"amazon":5381,"Ġbayes":5382,"Ġconstant":5383,"Connection":5384,"TypedDict":5385,"LMHeadModel":5386,"Ġray":5387,"stderr":5388,"pex":5389,"Ġcp":5390,"Ġcar":5391,"ceived":5392,"ittor":5393,"\\.":5394,"][\"":5395,"guild":5396,"uv":5397,"Ġmango":5398,"edges":5399,"Ġafter":5400,"MAIN":5401,"reader":5402,"Plugin":5403,"AC":5404,"PH":5405,"Ġinclude":5406,"ĠDist":5407,"semantic":5408,"Button":5409,"Cell":5410,"tick":5411,"ĠAsync":5412,"07":5413,"CUR":5414,"Pack":5415,"oled":5416,"Ġdeque":5417,"Ġein":5418,"xyxy":5419,"iance":5420,"edu":5421,"mac":5422,"ĠĠĠĠĠĠĠĠĠĠĠĠĠĠĠĠĠĠĠĠĠĠĠĠĠĠĠĠĠĠĠĠĠĠĠĠĠĠ":5423,"Ġzipfile":5424,"ĠPYFUNCTYPE":5425,"08":5426,"Ġwe":5427,"Ġ{}'.":5428,"Update":5429,"Results":5430,"AUG":5431,"CocoDataset":5432,"66":5433,"itive":5434,"esis":5435,"Ġcud":5436,"exc":5437,"ends":5438,"Ġresidual":5439,"arguments":5440,"itional":5441,"Ġoriginal":5442,"Local":5443,"Warning":5444,"sur":5445,"Ġrand":5446,"Ġpprint":5447,"progress":5448,"Ġjittor":5449,"Ġtopk":5450,"fixed":5451,"blockchain":5452,"ForPreTraining":5453,"TokenClassification":5454,"ForTokenClassification":5455,"APP":5456,"BasicBlock":5457,"mstrain":5458,"story":5459,"outs":5460,"Normal":5461,"proposal":5462,"NORM":5463,"two":5464,"arx":5465,"Ġgenerator":5466,"Ġaccount":5467,"Ġ192":5468,"Open":5469,"Ġobs":5470,"relation":5471,"symlink":5472,"Bl":5473,"amem":5474,"Ġbest":5475,"Ġ-=":5476,"TORCH":5477,"stra":5478,"LOSS":5479,"WORK":5480,"Ġbayesnewton":5481,"JSON":5482,"ored":5483,"orical":5484,"comp":5485,"ral":5486,"deepcopy":5487,"itter":5488,"Ġip":5489,"linspace":5490,"27":5491,"Agent":5492,"Slot":5493,"fmt":5494,"saved":5495,"selection":5496,"Ġslow":5497,"Ġsingle":5498,"Ġgpu":5499,"accuracy":5500,"empor":5501,"tiny":5502,"estim":5503,"ĠĠĠĠĠĠĠĠĠĠĠĠĠĠĠĠĠĠĠĠĠĠĠĠĠĠĠĠĠĠĠĠĠĠĠ":5504,"ĠEvent":5505,"TopDownAffine":5506,"button":5507,"rule":5508,"Ġitems":5509,"proc":5510,"maps":5511,"ForMultipleChoice":5512,"THRESH":5513,"egration":5514,"MultiScaleFlip":5515,"ao":5516,"classification":5517,"Ġresp":5518,"ydra":5519,"98":5520,"Memory":5521,"Ġrest":5522,"lfunc":5523,"power":5524,"regex":5525,"ACE":5526,"SM":5527,"Ġdomain":5528,"Ġstack":5529,"170":5530,"Ġinitialize":5531,"Ġbetas":5532,"ĠPoint":5533,"xception":5534,"NtUser":5535,"slots":5536,"Ġmon":5537,"secret":5538,"fra":5539,"}\".":5540,"vals":5541,"this":5542,"eye":5543,"Bytes":5544,"blob":5545,"dep":5546,"Ġsleep":5547,"Ġlimit":5548,"ĠDet":5549,"Ġcontextmanager":5550,"fetch":5551,"ping":5552,"sr":5553,"Ġdlfunc":5554,"ĠMSELoss":5555,"MultiScaleFlipAug":5556,"prediction":5557,"ometry":5558,"basicConfig":5559,"DArchives":5560,"Ġdirname":5561,"rou":5562,"ollow":5563,"Ġinterpolation":5564,"amazonaws":5565,"PES":5566,"vol":5567,"Ġdelta":5568,"ĠHEAD":5569,"extractor":5570,"ĠNamedTuple":5571,"94":5572,"_.":5573,"slope":5574,"Ġhyperparams":5575,"scatter":5576,"Is":5577,"npy":5578,"Conditional":5579,"dit":5580,"migrations":5581,"spell":5582,"xm":5583,"Ġfinal":5584,"cogn":5585,"prod":5586,"spat":5587,"Registry":5588,"ĠInter":5589,"GPT":5590,"iate":5591,"oro":5592,"ĠSimple":5593,"perature":5594,"Ġpaths":5595,"PREFIX":5596,"ĠTrainer":5597,"/%":5598,"intermediate":5599,"Example":5600,"Ġregistry":5601,"VALID":5602,"VALUE":5603,"}\"":5604,"Ġform":5605,"omaly":5606,"masked":5607,"licate":5608,"iltins":5609,"Ġxyz":5610,"'\\":5611,"Ġ))<":5612,"Ġcomm":5613,"angles":5614,"vertices":5615,"BUT":5616,"Ġ}":5617,"second":5618,"Ġ210":5619,"hooks":5620,"sentencepiece":5621,"NS":5622,"RPN":5623,"usal":5624,"Ġround":5625,"Ġsentence":5626,"xlm":5627,"enabled":5628,"missing":5629,"spatial":5630,"XLM":5631,"bal":5632,"before":5633,"Record":5634,"LongTensor":5635,"Video":5636,"cap":5637,"wiki":5638,"Ġlocation":5639,"Ġ'{":5640,"Ġmemory":5641,"period":5642,"ocker":5643,"Ġchoices":5644,"unknown":5645,"Ġsecret":5646,"Order":5647,"cesses":5648,"overlaps":5649,"asarray":5650,"PROPERTYCHANG":5651,"PROPERTYCHANGESETARCHIVE":5652,")}<":5653,"Rout":5654,"tom":5655,"Ġ\"{":5656,"istant":5657,"ship":5658,"erged":5659,")/":5660,"ined":5661,"Ġ25":5662,"ifar":5663,"Ġ/=":5664,"ENABLE":5665,"docs":5666,"velo":5667,"precision":5668,"Aut":5669,"Ġdirection":5670,"radius":5671,"Hparams":5672,"vt":5673,"Ġrepr":5674,"respon":5675,"Ġdraw":5676,"(\"#":5677,"Ġ56":5678,"cols":5679,"license":5680,"Self":5681,"vgPool":5682,"Ġepsilon":5683,"Container":5684,"Cur":5685,"IAL":5686,"mer":5687,"}_":5688,"Ġsha":5689,"URATION":5690,"achineState":5691,"OI":5692,"RC":5693,"blender":5694,"Ġzero":5695,"ider":5696,"Compose":5697,"Detection":5698,"Application":5699,"Web":5700,"impl":5701,"any":5702,"translation":5703,"ĠObservable":5704,"dcn":5705,"apis":5706,"ĠAbstract":5707,"contact":5708,"Ġskimage":5709,"Union":5710,"FIELD":5711,"lan":5712,"Ġempty":5713,"reply":5714,"ensure":5715,"atcher":5716,"tun":5717,"Ġagent":5718,"Ġwin":5719,"ĠSingle":5720,"ifest":5721,"Ġcoord":5722,"SIZES":5723,"Extract":5724,"ĠDEFAULT":5725,"warn":5726,"Ġindent":5727,"()]<":5728,"Ġcoords":5729,"iven":5730,"CUDA":5731,"affine":5732,"css":5733,"POST":5734,"latest":5735,"OLO":5736,"draw":5737,"Ġemail":5738,"Ġsq":5739,"basename":5740,"attributes":5741,"Ġchex":5742,"ĠInput":5743,"Ġsglib":5744,"hole":5745,"wt":5746,"chron":5747,"ites":5748,"ilar":5749,"Ġcached":5750,"\"},<":5751,")],":5752,"frozen":5753,"nb":5754,"Ġpage":5755,"Ġsupported":5756,"ĠCustom":5757,"sha":5758,"ASSI":5759,"Ġpixel":5760,"Leaky":5761,"Ġtasks":5762,"Ġsegment":5763,"TOKENIZER":5764,"categories":5765,"Ap":5766,"gmail":5767,"Ġreport":5768,"ube":5769,"ĠNorm":5770,"arknet":5771,"absolute":5772,"Ġph":5773,"dates":5774,"istory":5775,"vious":5776,"__(*":5777,"Ġbyte":5778,"Scen":5779,"ĠQtCore":5780,"gradient":5781,"ctime":5782,"Ġbefore":5783,"pii":5784,"precated":5785,"Please":5786,"syn":5787,"ĠDef":5788,"Invalid":5789,"Seq":5790,"Builder":5791,"ĠTask":5792,"bindings":5793,"CP":5794,"Handle":5795,"Layout":5796,"Sw":5797,"Ġur":5798,"Ġpc":5799,"plugins":5800,"pointer":5801,"ITE":5802,"Ġterra":5803,"average":5804,"aging":5805,"Ġnumba":5806,"!\")<":5807,"Ġmay":5808,"Ġlm":5809,"ARD":5810,"Ġvdk":5811,"Thread":5812,"(['":5813,"Line":5814,"mu":5815,"scalar":5816,"Ġlang":5817,"Ġcollect":5818,"LEVEL":5819,"Ġflatten":5820,"currency":5821,"calls":5822,"patter":5823,"PROCESS":5824,"09":5825,"Wh":5826,"conn":5827,"ĠDump":5828,"convs":5829,"ĠHEADS":5830,"Pri":5831,"jax":5832,"ven":5833,"ĠCUDA":5834,"ipher":5835,"Ġcost":5836,"FAIL":5837,"UNT":5838,"ĠFastAPI":5839,"albert":5840,"transformers":5841,"truth":5842,"void":5843,"400":5844,"Flow":5845,"Pr":5846,"WID":5847,"desc":5848,"Ġconnect":5849,"Ġtensors":5850,"splits":5851,"CTOR":5852,"={<":5853,"Search":5854,"Content":5855,"EP":5856,"Like":5857,"Ġflo":5858,"Ġgit":5859,"ĠTime":5860,"ĠPer":5861,"interpolate":5862,"patterns":5863,"ful":5864,"Ġtrt":5865,"ASK":5866,"ĠHTT":5867,"Ġchain":5868,"ForConditional":5869,"fferent":5870,"ForConditionalGeneration":5871,"Ġplay":5872,"Ġfmt":5873,"obi":5874,"Ġlearning":5875,"general":5876,"cardi":5877,"TYPES":5878,"URES":5879,"PF":5880,"bols":5881,"arrange":5882,"Ġiss":5883,"isual":5884,"asyncio":5885,"Ġ640":5886,"Ġmaze":5887,"ĠCOCO":5888,"Option":5889,"rins":5890,"Ġtemplate":5891,"Ġdcn":5892,"ĠEX":5893,"laubert":5894,"multiple":5895,"(\\":5896,"XX":5897,"Ġ'%":5898,"ckoo":5899,"emantic":5900,"readlines":5901,"ressor":5902,"')[":5903,"ĠState":5904,"Ġaccuracy":5905,"Port":5906,"rotated":5907,"kitti":5908,"infos":5909,"GAN":5910,"ValueError":5911,"criterion":5912,"yolo":5913,"scall":5914,"NetV":5915,"typing":5916,"ling":5917,"ranges":5918,"Ġvisual":5919,"piler":5920,"deeplabv":5921,"hs":5922,"ĠIN":5923,"ĠAr":5924,"Ġrv":5925,"FCBBoxHead":5926,"ĠDETECTORS":5927,":])<":5928,"oid":5929,"emon":5930,"EMBEDD":5931,"Job":5932,"}\",":5933,"erc":5934,"lear":5935,"argmax":5936,"Ġwriter":5937,"Ġprior":5938,"nvml":5939,"}{":5940,"del":5941,"sertion":5942,"ubic":5943,"Ġpycocotools":5944,"({'":5945,"prior":5946,"57":5947,"duration":5948,"pascal":5949,"Ġtrue":5950,"Ġcpu":5951,"validate":5952,"ĠNum":5953,"ATEG":5954,"Ġerrno":5955,"Rel":5956,"Ġml":5957,"Ġ\"#":5958,"Ġiaa":5959,"bucket":5960,"Ġflag":5961,"ĠQue":5962,"faces":5963,"Ġck":5964,"spaces":5965,"dentials":5966,"voke":5967,"amembert":5968,"obilenet":5969,"ets":5970,"Ġgot":5971,"provider":5972,"ĠMock":5973,"note":5974,":\\":5975,"gaussian":5976,"ru":5977,"Ġri":5978,"observation":5979,"\"]._":5980,"ĠXL":5981,"framework":5982,"Ġunique":5983,"MB":5984,"uln":5985,"sets":5986,"Ġhard":5987,"127":5988,"RAY":5989,"ANG":5990,"launch":5991,"GET":5992,"SW":5993,"ior":5994,"Ġ).":5995,"Ġlower":5996,"fidence":5997,"Ġcore":5998,"ANCE":5999,"Ġregex":6000,"Ġpredictions":6001,"Quant":6002,"MULT":6003,"udent":6004,"vices":6005,"assigner":6006,"Conf":6007,"Ġpyrogram":6008,"\"][":6009,"LeakyReLU":6010,"</":6011,"aint":6012,"amodule":6013,"serve":6014,"Ġ[{":6015,"Ġ(-":6016,"ĠTX":6017,"isfile":6018,"()).":6019,"ĠBBOX":6020,"ident":6021,"ivity":6022,"Count":6023,"square":6024,"+=":6025,"bones":6026,"prompt":6027,"bosity":6028,"rimary":6029,"earth":6030,"finetun":6031,"Mark":6032,"digest":6033,"Ġhparams":6034,"scan":6035,"Ġconnection":6036,"percent":6037,"Ġplanes":6038,"Over":6039,"ov":6040,"RAW":6041,"Ġanchor":6042,"fers":6043,"fail":6044,"null":6045,"sequ":6046,"Ġsampler":6047,"Ġargument":6048,"Ġvariable":6049,"ĠDumpulator":6050,"earthstone":6051,"Ġneed":6052,"__),":6053,"lify":6054,"Ġaudio":6055,"details":6056,"SELE":6057,"Interface":6058,"Ġavailable":6059,"CrossEntropyLoss":6060,"Fix":6061,"cx":6062,"slow":6063,"Ġme":6064,"Ġhearthstone":6065,"Ġcolumn":6066,"ĠGroup":6067,"counts":6068,"lengths":6069,"complex":6070,"mag":6071,"Ġ),":6072,"inst":6073,"Ġids":6074,"Ġdependencies":6075,"Ġsem":6076,"PException":6077,"COD":6078,"Network":6079,"filled":6080,"CommandArchive":6081,"Select":6082,"ĠProcess":6083,"Ġrotate":6084,"negative":6085,"hyperparams":6086,"mse":6087,"Ġpip":6088,"apshot":6089,"program":6090,"udo":6091,"Ġmid":6092,"present":6093,"minimum":6094,"relative":6095,"Argument":6096,"ARGET":6097,"Align":6098,"TAB":6099,"itk":6100,"Ġdot":6101,"ĠMax":6102,"ĠMISSING":6103,"TENS":6104,"des":6105,"library":6106,"Ġtextwrap":6107,"Ġqiskit":6108,"Ġans":6109,"Ġdense":6110,"ĠDATASET":6111,"(\"_":6112,"thing":6113,"AME":6114,"levelname":6115,"itmapMasks":6116,"Bottom":6117,"Sign":6118,"roker":6119,"Ġgame":6120,"attribute":6121,"rowd":6122,"Ġwhen":6123,"icker":6124,"CHANNEL":6125,"POSITIONAL":6126,"LABEL":6127,"Evalu":6128,"fb":6129,"exclude":6130,"ĠCont":6131,"Ġ2048":6132,"Ġtimes":6133,"devices":6134,"bic":6135,"messages":6136,"inary":6137,"ERY":6138,"Ġ...<":6139,"UPPORT":6140,"Validator":6141,"ced":6142,"js":6143,"nr":6144,"Ġtem":6145,"asctime":6146,"Ġframes":6147,"Ġlanguage":6148,"collections":6149,"defaults":6150,"transfer":6151,"hashes":6152,"Ġcallback":6153,"Former":6154,"Ġar":6155,"eng":6156,"Ġred":6157,"Ġfreq":6158,"olar":6159,"isy":6160,"Ġshort":6161,"Attribute":6162,"latent":6163,"cycle":6164,"280":6165,"SUB":6166,"SpellEntity":6167,"]*":6168,"cifar":6169,"itude":6170,"Ġpower":6171,"Ġbody":6172,"(\"%":6173,"ĠSpellEntity":6174,"access":6175,"Ġworker":6176,"sertionError":6177,"focal":6178,"hello":6179,"LIMIT":6180,"trast":6181,"ĠPIPELINES":6182,".)<":6183,"Ġmegatron":6184,"ORE":6185,"PTION":6186,"CONF":6187,"firdn":6188,"Ġcontains":6189,"pository":6190,"Length":6191,"MAR":6192,"TEXT":6193,"}\\":6194,"reverse":6195,"erson":6196,"Ġwraps":6197,"ensemble":6198,"Ġlosses":6199,"Gaussian":6200,"aper":6201,"ĠLabel":6202,"README":6203,"ratios":6204,"aternion":6205,"Wor":6206,"bins":6207,"qa":6208,"Ġnested":6209,"Ġhome":6210,"ĠSESSION":6211,"Ġ300":6212,"rays":6213,"prev":6214,"axes":6215,"checkpoints":6216,"Ġtracardi":6217,"DOCSTRING":6218,"Python":6219,"49":6220,"batchnorm":6221,"ENTRY":6222,"{}\".":6223,"Ġcreated":6224,"DD":6225,"Simple":6226,"Ġdone":6227,"proxy":6228,"ĠSub":6229,"Region":6230,"Img":6231,"evaluate":6232,"Ġperm":6233,"container":6234,"ĠPretrained":6235,"STYLEPROPERTYCHANGESETARCHIVE":6236,"Reader":6237,"dified":6238,"'}<":6239,"/\"<":6240,"oup":6241,"ina":6242,"sen":6243,"deform":6244,"Ġ({":6245,"Ġapex":6246,"\":\"":6247,"pickle":6248,"Ġalph":6249,"downsample":6250,"structor":6251,"origin":6252,"Ġtarfile":6253,"CF":6254,"EW":6255,"hicle":6256,"tein":6257,"OLD":6258,"Ġnodes":6259,"special":6260,"Pen":6261,"condition":6262,"cfgs":6263,"ETL":6264,"Ġ160":6265,"ĠResponse":6266,"CHECKPOINT":6267,"ĠAutoModel":6268,"AIG":6269,"CRO":6270,"revision":6271,"Ġoverride":6272,"ĠDepends":6273,"LY":6274,"enable":6275,"subprocess":6276,"achines":6277,"bilinear":6278,"SY":6279,"Tk":6280,"Ġmedi":6281,"Ġspatial":6282,"permissions":6283,"DEVICE":6284,")*":6285,"AIN":6286,"Build":6287,"CRE":6288,"requ":6289,"ulated":6290,"ĠAdd":6291,"floor":6292,"interpolation":6293,"Args":6294,"EnumDescriptor":6295,"Ġvars":6296,"SQL":6297,"[<":6298,"bart":6299,"ality":6300,"ĠSQL":6301,"LOCAL":6302,"xywh":6303,"emporary":6304,"59":6305,"NON":6306,"New":6307,"SUM":6308,"ble":6309,"mpty":6310,"Ġvol":6311,"interface":6312,"')),<":6313,"rotate":6314,"Draw":6315,"TEM":6316,"urable":6317,"ĠTra":6318,"envs":6319,"mbic":6320,"clear":6321,"Ġbinascii":6322,"Dep":6323,"oot":6324,"rpc":6325,"xs":6326,"Ġttk":6327,"ĠSw":6328,"LED":6329,"Ġlibrary":6330,"EMBEDDINGS":6331,"term":6332,"Ġloader":6333,"Pose":6334,"Enhance":6335,"ĠProgram":6336,"Extractor":6337,"BottomUp":6338,"cf":6339,"Ġtrunc":6340,"anoptic":6341,"Ġhelper":6342,"she":6343,"Ġsteps":6344,"pip":6345,"ĠEnc":6346,"localhost":6347,"Ġerrors":6348,"Ke":6349,"vas":6350,"Ġprompt":6351,"Ġcap":6352,"Ġfree":6353,"Ġeach":6354,"Ġnegative":6355,"freeze":6356,"TRA":6357,"cluster":6358,"iling":6359,"comment":6360,"Storage":6361,"Ġshared":6362,"ween":6363,"regnetx":6364,"Author":6365,"One":6366,"wallet":6367,"ily":6368,"istics":6369,"ntax":6370,"CCESS":6371,"Ġallowed":6372,"BLE":6373,"voxel":6374,"Ġmd":6375,"Ġhex":6376,"ĠLETL":6377,"Ġscalar":6378,"Ġsetattr":6379,"Post":6380,"Ġdownsample":6381,"discriminator":6382,"children":6383,"](":6384,"pod":6385,"tre":6386,"2048":6387,"visual":6388,"ĠVi":6389,"swap":6390,"isionTransformer":6391,"(('":6392,":`":6393,"Tim":6394,"\\<":6395,"Ġ;<":6396,"deep":6397,"ĠPost":6398,"ĠBack":6399,"Ġprepare":6400,"Ġcurr":6401,"Ġadmin":6402,"Date":6403,"Ġreward":6404,"Ġind":6405,"ĠCli":6406,"lists":6407,"Abstract":6408,"lems":6409,"Ġpattern":6410,"Ġinner":6411,"Ġstar":6412,"PIPE":6413,"ĠShape":6414,"LAYERS":6415,"AIGPT":6416,"broadcast":6417,"ha":6418,"tp":6419,"asure":6420,"Ġconstants":6421,"ORDER":6422,"ULL":6423,"tmpdir":6424,"Primitive":6425,"37":6426,"bgr":6427,"native":6428,"pdf":6429,"Ġ[],":6430,"Ġdnn":6431,"ĠLanguage":6432,"Ġtransformer":6433,"newaxis":6434,"properties":6435,"ĠChannel":6436,"Hor":6437,"Smooth":6438,"Use":6439,"ni":6440,"rs":6441,"wi":6442,"sep":6443,"Ġ\")<":6444,"ĠBitmapMasks":6445,"Ġpreprocess":6446,"cached":6447,"bounding":6448,"electra":6449,"member":6450,"Ġrearrange":6451,"ATED":6452,"Ġexpan":6453,"Ġargv":6454,"oolean":6455,"Ġcalculate":6456,"ja":6457,"ended":6458,"Ġpe":6459,"Ġ\"{}":6460,"ueprint":6461,"('_":6462,"ĠGuild":6463,"created":6464,"Buffer":6465,"ĠDistributed":6466,"FAILURE":6467,"AvgPool":6468,"Rep":6469,"hour":6470,"Ġvi":6471,"Ġschema":6472,"Ġinv":6473,"Ġaio":6474,"ĠAct":6475,"ĠNamespace":6476,"Change":6477,"Ġattentions":6478,"Directory":6479,"tracker":6480,"FICATION":6481,"ĠPretrainedConfig":6482,"_%":6483,"assistant":6484,"CHAR":6485,"ENC":6486,"MLP":6487,"MaxIoUAssigner":6488,"operators":6489,"RUN":6490,"='./":6491,"1234":6492,"SEG":6493,"variance":6494,"operation":6495,"site":6496,"ĠET":6497,"Ġ'{}":6498,"Ġdump":6499,"river":6500,"ĠDense":6501,"ĠEn":6502,"CODER":6503,"ĠImageOps":6504,"segmentation":6505,"wrappers":6506,"Interaction":6507,"Ġcamera":6508,"ĠParameter":6509,"ĠDefault":6510,"DK":6511,"Ġtele":6512,"Ġrepo":6513,"Ġparamwise":6514,"Ġaddress":6515,"EXTRA":6516,"Ġblank":6517,"HRNET":6518,"dc":6519,"wner":6520,"rax":6521,"Ġfc":6522,"cover":6523,"display":6524,"STYLEARCHIVE":6525,"My":6526,"bpe":6527,"lembic":6528,"ether":6529,"eli":6530,"verbose":6531,"Ġshell":6532,"Metadata":6533,"Anchor":6534,"480":6535,"Fore":6536,"Named":6537,"Ġconcurrent":6538,"Ġmmocr":6539,"Ġexamples":6540,"Ġexecute":6541,"Track":6542,"Only":6543,"Light":6544,"bits":6545,"sli":6546,"quote":6547,"ĠAn":6548,"Prediction":6549,"AdamW":6550,"PCK":6551,"etree":6552,"una":6553,"Ġdeform":6554,"parsers":6555,"force":6556,"ĠĠĠĠĠĠĠĠĠĠĠĠĠĠĠĠĠĠĠĠĠĠĠĠĠĠĠĠĠĠĠĠĠĠ":6557,"variant":6558,"Segmentation":6559,"ĠTSDArchives":6560,"Ġradius":6561,"bp":6562,"loaded":6563,"figure":6564,"Ġ21":6565,"emachines":6566,"Ġcomponent":6567,"times":6568,"LICEN":6569,"ĠPlugin":6570,">>":6571,"every":6572,"Ġtl":6573,"Ġtrim":6574,"Ġcase":6575,"Resource":6576,"Ġtimemachines":6577,"}/{":6578,"variables":6579,"CharField":6580,"Clo":6581,"}'":6582,"inception":6583,"Ġinstances":6584,"unet":6585,"ĠAs":6586,"ĠMobile":6587,"locals":6588,"catDataset":6589,"Ġ768":6590,"namespace":6591,"dentifier":6592,"black":6593,"SU":6594,"igmoid":6595,"ĠLayer":6596,"ferences":6597,"Ġboto":6598,"Ġinstalled":6599,"bc":6600,"Ġ''":6601,"Ġalembic":6602,"ĠFL":6603,"push":6604,"horizontal":6605,"ĠPyQt":6606,"CALE":6607,"dicate":6608,"KNO":6609,"XY":6610,"}'.":6611,"Ġnv":6612,"Ġssl":6613,"Ġurlparse":6614,"Ġloop":6615,",'":6616,"Async":6617,"Space":6618,"ving":6619,"anchors":6620,"Ġne":6621,"Ġreal":6622,"unnel":6623,"RIGHT":6624,"SGBOT":6625,"Distributed":6626,"Ġevaluation":6627,"CMSGBOT":6628,"distilbert":6629,"WORLDSTATE":6630,"HASH":6631,"CMSGBOTWORLDSTATE":6632,"____":6633,"Ġcategory":6634,"Ġ\"%":6635,"Ġoperations":6636,"cook":6637,"collate":6638,"4096":6639,"UND":6640,"strides":6641,"ĠJSON":6642,"ĠHTTPException":6643,"530":6644,"Ġsystem":6645,"dated":6646,"Ġwandb":6647,"Ġhandler":6648,"Ġparallel":6649,"Ġrcnn":6650,"ttk":6651,"ficial":6652,"Ġproposals":6653,"ted":6654,"widget":6655,"uplan":6656,"ĠGet":6657,"Ġplugin":6658,"\")]<":6659,"plots":6660,"47":6661,"Ġmem":6662,"Ġge":6663,"parts":6664,"Engine":6665,"Ġeinops":6666,"fe":6667,"gy":6668,"gray":6669,"aturation":6670,"Ġdy":6671,"ĠFeature":6672,"Ġdatabase":6673,"Ġtools":6674,"stributions":6675,"bined":6676,"shots":6677,"feed":6678,"tl":6679,"Ġlow":6680,"Ġoption":6681,"Ġaverage":6682,"ĠBy":6683,"verbosity":6684,"Ġexception":6685,"Ġcoco":6686,"Ġunit":6687,"filer":6688,"Exp":6689,"FEATURES":6690,"fa":6691,"mot":6692,"rst":6693,"Ġfname":6694,"uppress":6695,"covery":6696,"RED":6697,"Ġbuiltins":6698,"aux":6699,"Deform":6700,"Encoding":6701,"Grid":6702,"bet":6703,"gf":6704,"alib":6705,"shapes":6706,"Ġparsed":6707,"Utils":6708,"DCN":6709,"Template":6710,"fd":6711,"Ġce":6712,"oneofs":6713,"ious":6714,"320":6715,"Ġdataloader":6716,"PIPELINES":6717,"Ġobjax":6718,"PyTorch":6719,"Ġsummary":6720,"calculator":6721,"}}<":6722,"Ġfill":6723,"Ġprimary":6724,"tsv":6725,"many":6726,"positions":6727,"fr":6728,"gz":6729,"sion":6730,"tgt":6731,"Ġfetch":6732,"lik":6733,"ĠACT":6734,"ĠCompose":6735,"xmert":6736,"WITH":6737,"supported":6738,"ĠDPR":6739,"fft":6740,"Step":6741,"ropPath":6742,"Ġcomple":6743,"ducer":6744,"translate":6745,"Ġclassification":6746,"ĠIndex":6747,"phetNet":6748,"GPU":6749,"RF":6750,"oders":6751,"Contrast":6752,"Ġdims":6753,"ĠWeb":6754,"expr":6755,"OCR":6756,"ANDLE":6757,"Font":6758,"bt":6759,"trunc":6760,"analysis":6761,"Ġspace":6762,"based":6763,"ĠMigration":6764,"=[(":6765,"cessed":6766,"firm":6767,"smpl":6768,"Ġdocument":6769,"microsoft":6770,"ĠArray":6771,"67":6772,">\"":6773,"jor":6774,"utc":6775,"Ġpin":6776,"='+":6777,"ĠBart":6778,"CONV":6779,"Ġ\"\"\",<":6780,"ĠColor":6781,"IA":6782,"dpath":6783,"dpr":6784,"imes":6785,"Ġops":6786,"icorn":6787,"ĠPR":6788,"ured":6789,"jectory":6790,"iterator":6791,"Ġ['_":6792,"Ġstats":6793,"escape":6794,"CLO":6795,"UST":6796,"gs":6797,"nest":6798,"lidar":6799,"\"\"\"":6800,"Ġglobals":6801,"Ġrotation":6802,"MODULE":6803,"threads":6804,"Ġsmall":6805,"Widgets":6806,"Cre":6807,"Tag":6808,"ffic":6809,"rupt":6810,"erm":6811,"Ġreason":6812,"Ġfh":6813,"Ġws":6814,"ĠPos":6815,"Ġdistance":6816,"crement":6817,"Ġoverload":6818,"realpath":6819,"-{":6820,"XML":6821,"slice":6822,"les":6823,"POOL":6824,"vectors":6825,"damage":6826,"Account":6827,"Callable":6828,"Eval":6829,"TARGET":6830,"eline":6831,"Ġsame":6832,"Ġgc":6833,"Ġgelu":6834,"addon":6835,"STER":6836,"ashboard":6837,"PROJECT":6838,"Ġclose":6839,"Ġvertices":6840,"ilarity":6841,"recv":6842,"Ġgo":6843,"Ġhydra":6844,"ĠPartial":6845,"ugh":6846,"formatter":6847,"Ġusername":6848,"allenge":6849,"GP":6850,"MESS":6851,"Ġreq":6852,"Ġoks":6853,"shard":6854,"perms":6855,"article":6856,"joint":6857,"Ġprofile":6858,"ilestone":6859,"RIBUT":6860,"ĠPathManager":6861,"8080":6862,"ished":6863,"HOME":6864,"Semantic":6865,"invoke":6866,"arp":6867,"lev":6868,"alized":6869,"Ġmisc":6870,"Ġgain":6871,"POCH":6872,"Ġfinally":6873,"gres":6874,"pct":6875,"aries":6876,"dice":6877,"Ġrl":6878,"640":6879,"LOB":6880,"segments":6881,"Ġtxinfo":6882,"Failed":6883,"You":6884,"Ġvec":6885,"imports":6886,"roke":6887,"Ġmapping":6888,"lossal":6889,"hood":6890,"environment":6891,"Inputs":6892,"Ġpackages":6893,"Ġterm":6894,"dictionary":6895,"AUTH":6896,"\"/":6897,":',":6898,"ipe":6899,"chart":6900,"Ġbenchmark":6901,"Ġgs":6902,"Ġstandard":6903,"ĠBN":6904,"Ġcomposer":6905,"ttp":6906,"issue":6907,"Ġperiod":6908,"generators":6909,"ĠXLNet":6910,"85":6911,"Bart":6912,"dicts":6913,"ĠThe":6914,"quad":6915,"Ġcollate":6916,"Ġ*,":6917,"HOST":6918,"nake":6919,"Ġsimple":6920,"anged":6921,"Ġdistutils":6922,"ĠABCMeta":6923,"Ġdecimal":6924,"Operation":6925,"human":6926,"tile":6927,"Ġpen":6928,"Ġsizes":6929,"Prepend":6930,"multiprocessing":6931,"SERIES":6932,"ards":6933,"anel":6934,"ĠCheck":6935,"Ġimageio":6936,"Ġheader":6937,"constra":6938,"ĠMetadata":6939,"MI":6940,"WH":6941,"WR":6942,"begin":6943,"mobilenet":6944,"rit":6945,"imread":6946,"inc":6947,"asis":6948,"Ġfollow":6949,"Ġinds":6950,"ENV":6951,"detail":6952,"initialize":6953,"predictor":6954,"parents":6955,"drive":6956,"Ġcudnn":6957,"vie":6958,"ĠOptimizer":6959,"ORD":6960,"Lock":6961,"ĠContext":6962,"MODELS":6963,"1111":6964,"OBJECT":6965,":],":6966,"Sp":6967,"false":6968,"kl":6969,"ras":6970,"Ġensure":6971,"inverse":6972,"Ġtags":6973,"andmark":6974,"ssl":6975,"ATORS":6976,"ĠRet":6977,"scribe":6978,"weighted":6979,"DIS":6980,"Ġsuccess":6981,"elements":6982,"52":6983,"Ġmaster":6984,"isdir":6985,"ĠLong":6986,"tty":6987,"SEQ":6988,"Ġ72":6989,"requests":6990,"generation":6991,"double":6992,"COLUM":6993,"Role":6994,"driver":6995,"LAYER":6996,"asyDict":6997,"holder":6998,"lator":6999,"imshow":7000,"Ġmpu":7001,"ModuleList":7002,"ĠHero":7003,"DICT":7004,"Ġextensions":7005,"Arguments":7006,"Ġheads":7007,"Ġ\"./":7008,",-":7009,"Call":7010,"MAT":7011,"oul":7012,"deterministic":7013,"Ġsort":7014,"Ġwb":7015,"hee":7016,"Ġvoxel":7017,"detections":7018,"Ġaiohttp":7019,"Ġty":7020,"props":7021,"ARRAY":7022,"Settings":7023,"ADDR":7024,"lossalai":7025,"Center":7026,"DES":7027,"zh":7028,"onal":7029,"lend":7030,"iff":7031,"ĠRel":7032,"Ġuv":7033,"isect":7034,"[:,:,":7035,"batches":7036,"800":7037,"Offset":7038,"pub":7039,"olds":7040,"bow":7041,"Logits":7042,"Collection":7043,"Keys":7044,"Soft":7045,"Ġmore":7046,"geometry":7047,"COUNT":7048,"UTION":7049,"URCE":7050,"symbols":7051,"CONFIGURATION":7052,"ocalLoss":7053,"emoji":7054,"ĠQueue":7055,"And":7056,"Su":7057,"cum":7058,"Ġfallback":7059,"ulk":7060,"...\")<":7061,"DEX":7062,"parsed":7063,"Ġenable":7064,"ĠEfficient":7065,"CTRL":7066,"ftime":7067,"404":7068,"Training":7069,"Ġhttpx":7070,"/\",":7071,"Bar":7072,"EPOCH":7073,"Gui":7074,"SV":7075,"usage":7076,"Ġtheta":7077,"cords":7078,"Ġjoints":7079,"DOWN":7080,"Ġepochs":7081,"ĠDistil":7082,"CURR":7083,"tw":7084,"alt":7085,"agua":7086,"ents":7087,"preprocess":7088,"collect":7089,"codes":7090,"attrs":7091,"DIM":7092,"Generate":7093,"Router":7094,"watch":7095,"inate":7096,"ĠIO":7097,"Ġdiag":7098,"curs":7099,"Iterator":7100,"Ġsemantic":7101,"721":7102,"Migration":7103,"gain":7104,"once":7105,"Ġnd":7106,"Ġmerged":7107,"Ġsync":7108,"Ġsources":7109,"Ġstore":7110,"osine":7111,"eatures":7112,"character":7113,"Ġblocks":7114,"hostname":7115,">\\":7116,"Helper":7117,"Hello":7118,"qt":7119,"uture":7120,"INST":7121,"ĠLe":7122,"protocol":7123,"Ġpooled":7124,"hyp":7125,"year":7126,"Ġgi":7127,"Ġaffine":7128,"ĠDis":7129,"ENG":7130,"cursor":7131,"ĠTypedDict":7132,"primitive":7133,"Pooling":7134,"Ġhomeassistant":7135,"+)":7136,".):<":7137,"Ġ\"\")<":7138,"Ġgaussian":7139,"epsilon":7140,"ĠStat":7141,"KEYPOINT":7142,"ViT":7143,"longformer":7144,"positive":7145,"kern":7146,"palette":7147,"delay":7148,"vehicle":7149,"ĠDummy":7150,"ĠGPU":7151,"Transpose":7152,"ummaryWriter":7153,"92":7154,"ming":7155,"arian":7156,"ingest":7157,"Ġguild":7158,"Ġgzip":7159,"Ġdx":7160,"ogram":7161,"Ġkaiming":7162,"Ġ:-":7163,"acs":7164,"views":7165,"ixel":7166,"])))<":7167,"Repeat":7168,"disable":7169,"Ġfnmatch":7170,"ĠScale":7171,"Policy":7172,"Ax":7173,"dw":7174,"rstrip":7175,"Ġfix":7176,"Ġreference":7177,"Ġprop":7178,"ĠNet":7179,"teacher":7180,"Ġstdout":7181,"SSArchives":7182,"Scan":7183,"Root":7184,"Ġrect":7185,"resolution":7186,"nnx":7187,"[::-":7188,"Ġcolossalai":7189,"Ġconfigs":7190,"sendline":7191,"CHARTSERIES":7192,"Ġ'../../../_":7193,"ein":7194,"Ġ'\"":7195,"Ġbert":7196,"ĠTim":7197,"Ġhyp":7198,"Ġlab":7199,"segm":7200,"windows":7201,"media":7202,"CATEG":7203,"bottom":7204,"fore":7205,"hp":7206,"nlp":7207,"leaky":7208,"adapt":7209,"Ġwas":7210,"CHED":7211,"Ġarguments":7212,"Ġcomp":7213,"ĠĠĠĠĠĠĠĠĠĠĠĠĠĠĠĠĠĠĠĠĠĠĠĠĠĠĠĠĠĠĠĠĠĠĠĠ":7214,"documents":7215,"Ġqkv":7216,"evaluator":7217,"Unknown":7218,"Ġatol":7219,"Ġpsutil":7220,"Ġdnnlib":7221,"elihood":7222,"If":7223,"alty":7224,"poses":7225,"verity":7226,"Ġmethods":7227,"requency":7228,"ĠShapeSpec":7229,"ĠError":7230,"dia":7231,"=\"/":7232,"Ġdistribution":7233,"ĠNode":7234,"msra":7235,"LIP":7236,"markdown":7237,"rowser":7238,"Ġtimestamp":7239,"Adapter":7240,"days":7241,".),<":7242,">{":7243,"Sent":7244,"Ġinf":7245,"odoc":7246,"INS":7247,"ĠBlock":7248,"foXL":7249,"methods":7250,"mapper":7251,"000000":7252,"MEM":7253,"timer":7254,"NUMB":7255,"Ġbinary":7256,"Causal":7257,"Backend":7258,"Ġckpt":7259,"CR":7260,"OF":7261,"Or":7262,"rev":7263,"dify":7264,"Ġwait":7265,"Ġrays":7266,"COS":7267,"LOGGER":7268,"Points":7269,"Ġetna":7270,"fu":7271,"mel":7272,"Ġep":7273,"strategy":7274,"Ġdesc":7275,"Ġimgaug":7276,"Ġprobs":7277,"\")),<":7278,"Ġscales":7279,"Ġregion":7280,"SSL":7281,"services":7282,"Segment":7283,"Adaptive":7284,"tz":7285,"reference":7286,"asus":7287,"distributions":7288,"console":7289,"screen":7290,"getattr":7291,"rong":7292,"ĠĠĠĠĠĠĠĠĠĠĠĠĠĠĠĠĠĠĠĠĠĠĠĠĠĠĠĠĠĠĠĠĠĠĠĠĠĠĠĠĠĠĠĠĠĠĠĠ":7293,"othesis":7294,"ElementTree":7295,"SAMPLE":7296,"WARNING":7297,"BACKBONES":7298,"Ġamp":7299,"Ġside":7300,"Ġomega":7301,"strftime":7302,"background":7303,"moves":7304,"Ġunion":7305,"\")[":7306,"DATE":7307,"when":7308,"IMG":7309,"ENABLED":7310,"Face":7311,"Global":7312,"nested":7313,"}]":7314,"Ġcut":7315,"endor":7316,"ego":7317,"collection":7318,"2020":7319,"ront":7320,"nonzero":7321,"Queue":7322,"middleware":7323,"ĠBatchNorm":7324,"WIDTH":7325,"Fine":7326,"System":7327,"ino":7328,"Ġbisect":7329,"('%":7330,"Ġdecorator":7331,"Ġeasy":7332,"tensorboard":7333,"scaled":7334,"Selection":7335,"panel":7336,"Decimal":7337,"augmenters":7338,"Cache":7339,"Refer":7340,")\"<":7341,"CV":7342,"Meter":7343,"Ġxavier":7344,"Configuration":7345,"ĠGraph":7346,"detect":7347,"Ġrunning":7348,"RegisterEnumDescriptor":7349,"DETECTORS":7350,"ĠXLMRoberta":7351,"'/":7352,"97":7353,"IV":7354,"``":7355,"orient":7356,"Ġfused":7357,"Ġrat":7358,"Ġchange":7359,"FFFF":7360,"serialize":7361,"rieve":7362,"Cl":7363,"gate":7364,"hm":7365,"pd":7366,"sdk":7367,"ĠMask":7368,"Ġthan":7369,"Ġvalidation":7370,"Ġchoice":7371,"Ġdimension":7372,",))<":7373,"Guild":7374,"LONG":7375,"Method":7376,"SCALE":7377,"px":7378,"ration":7379,"sz":7380,"sink":7381,"demo":7382,"Ġsecond":7383,"swers":7384,"iscale":7385,"THON":7386,"AutoModel":7387,"51":7388,"Full":7389,"Identity":7390,"Ġamount":7391,"fromarray":7392,"dater":7393,"',)<":7394,"Ġbottom":7395,"futures":7396,"Ġclassifier":7397,"syscall":7398,"ĠAttributeError":7399,"bad":7400,"cnt":7401,"mc":7402,"Ġconn":7403,"Ġstorage":7404,"ĠRE":7405,"Pointer":7406,"BACKBONE":7407,"CODERS":7408,"81":7409,":{":7410,"aubert":7411,"vq":7412,"xc":7413,"dependencies":7414,"rag":7415,"Ġbar":7416,"Ġbasic":7417,"Ġwallet":7418,"cov":7419,"product":7420,"ORAGE":7421,"ocus":7422,"REMO":7423,"flaubert":7424,"TypeError":7425,"cosine":7426,"DOMAIN":7427,"Main":7428,"iver":7429,"Ġnuplan":7430,"Ġinto":7431,"ĠRun":7432,"Ġenn":7433,"until":7434,"backbones":7435,"Ġ42":7436,"ĠEasyDict":7437,"))]<":7438,"ottle":7439,"Ġverify":7440,"OPTIM":7441,"pipelines":7442,"educe":7443,"ĠPRETRAINED":7444,"BBOX":7445,"TASK":7446,"Vec":7447,"bg":7448,"ali":7449,"units":7450,"Ġdm":7451,"ĠSH":7452,"ocation":7453,"Ġelem":7454,"Information":7455,"signature":7456,"Ġsqlmodel":7457,"Address":7458,"Ġrelative":7459,"legend":7460,"Ġaugment":7461,",)":7462,"done":7463,"lim":7464,"oom":7465,"elery":7466,"logical":7467,"external":7468,"CEPTION":7469,"Ġcontrast":7470,"Ġobservation":7471,"nee":7472,"cases":7473,"ĠLogger":7474,"IFAR":7475,"Disc":7476,"Sm":7477,"Ġcontrol":7478,"achment":7479,"INTEG":7480,"VISI":7481,"PAN":7482,"Sum":7483,"Temporary":7484,"semble":7485,"reci":7486,"roy":7487,"digit":7488,"Ġsampling":7489,"(\"[":7490,"Ġconcat":7491,"ĠBl":7492,"Ġproc":7493,"curve":7494,"idxs":7495,"Predict":7496,"ATIONS":7497,"IGH":7498,"ĠThis":7499,"olarize":7500,"_)<":7501,"Ġerc":7502,"cho":7503,"Ġcross":7504,"ceil":7505,"addHandler":7506,"ĠSummaryWriter":7507,"lencode":7508,"ĠOS":7509,"Ġvit":7510,"Ġdisp":7511,"PEG":7512,"Ġord":7513,"autodoc":7514,"Deep":7515,"ĠObject":7516,"IR":7517,"Ġinception":7518,"htc":7519,"ĠMin":7520,"rices":7521,"openai":7522,"augmentation":7523,"ynchron":7524,"Ġcheckpoints":7525,"crets":7526,"ĠZw":7527,"ĠCliRunner":7528,"\"})<":7529,"BE":7530,"lsp":7531,"strap":7532,"Ġsaved":7533,"Ġsuppress":7534,"ĠFairseq":7535,"quat":7536,"vecs":7537,"ĠElectra":7538,"workspace":7539,"ĠExt":7540,"ĠInvalid":7541,"Ġcursor":7542,"Rotation":7543,"41":7544,"ĠDropPath":7545,"Ġpygame":7546,"dbscript":7547,"prefixed":7548,"beam":7549,"Ġratios":7550,")\")<":7551,"Non":7552,"gorithm":7553,"remote":7554,"rase":7555,"argin":7556,"Ġgradient":7557,"ases":7558,"inese":7559,"ĠProperty":7560,"ĠRec":7561,"Ġ48":7562,"arest":7563,"Ġsigmoid":7564,"ĠDeep":7565,"ometimes":7566,"ĠSQLModel":7567,"Document":7568,"xavier":7569,"atrix":7570,"ifts":7571,"Ġ500":7572,"Ġusers":7573,"VICES":7574,"ancel":7575,"orithms":7576,"DOTA":7577,"machine":7578,"Ġfreeze":7579,"Help":7580,"PRI":7581,"hard":7582,"mpeg":7583,"rosa":7584,"Ġrec":7585,"Ġfs":7586,"ĠFlaubert":7587,"erts":7588,"ĠMsg":7589,"ĠEmbed":7590,"ĠUp":7591,"ROM":7592,"selected":7593,"ĠFlask":7594,"ĠMetadataCatalog":7595,"Pass":7596,"WIN":7597,"fcos":7598,"gu":7599,"vendor":7600,"ctr":7601,"ĠBe":7602,"swish":7603,"Delete":7604,"Ġtranslate":7605,"RANK":7606,"CI":7607,"Msg":7608,"Rect":7609,"RAT":7610,"wmt":7611,"Ġage":7612,"Ġlin":7613,"Ġjt":7614,"moji":7615,"transformation":7616,"ifiers":7617,"straint":7618,"ĠLongformer":7619,"MON":7620,"Range":7621,"Sec":7622,"URI":7623,"Ġbitmap":7624,"intel":7625,"ĠTSSArchives":7626,"('./":7627,"ĠCTR":7628,"ips":7629,"psample":7630,"ForCausal":7631,"expans":7632,"EXEC":7633,"Import":7634,"hoto":7635,"Ġscene":7636,"WEIGHTS":7637,"Structure":7638,"namedtuple":7639,"sage":7640,"roid":7641,"Ġnow":7642,"defined":7643,"Ġfailed":7644,"Condition":7645,"MAN":7646,"ALLE":7647,"tokenize":7648,"licit":7649,"Ġcolored":7650,"ĠCTRL":7651,"expansion":7652,"UCT":7653,"hw":7654,"ire":7655,"sess":7656,"distribution":7657,"datamodule":7658,"ĠTemplate":7659,"ERARCHIVE":7660,"Ġchia":7661,"ULES":7662,"Shape":7663,"selector":7664,"Ġrows":7665,"deploy":7666,"rouped":7667,"LS":7668,"irc":7669,"snowflake":7670,"ortion":7671,"clu":7672,"ĠAP":7673,"anges":7674,"ITEM":7675,"polys":7676,"Ġupgrade":7677,"Ġquote":7678,"Ġimplementation":7679,"ForCausalLM":7680,"Mean":7681,"Namespace":7682,"havi":7683,"vided":7684,"ĠGateway":7685,"RandomCrop":7686,"ĠResult":7687,"ĠTFRoberta":7688,"rinsics":7689,"Weight":7690,"Ġpop":7691,"Ġschedule":7692,"Ġ\"[":7693,"ressed":7694,"rier":7695,"endpoint":7696,"']))<":7697,"ĠMAX":7698,"Ġprogram":7699,"ĠConnection":7700,"Export":7701,"({<":7702,"AssertionError":7703,"Ġtemperature":7704,"/',":7705,"FOL":7706,"lations":7707,"zy":7708,"disk":7709,"Ġfon":7710,"idue":7711,"validator":7712,"Constant":7713,"apex":7714,"bust":7715,"DEVENT":7716,"Ġanswer":7717,"Ġfeats":7718,"posts":7719,"Uni":7720,"tracking":7721,"Ġorigin":7722,"BUILDEVENT":7723,"Category":7724,"DY":7725,"hing":7726,"Ġcpp":7727,"abstract":7728,"Ġdeterministic":7729,"Ġsep":7730,"PROTO":7731,"mnli":7732,"functools":7733,"lace":7734,"deg":7735,"Ġpwn":7736,"hear":7737,"ending":7738,"contextmanager":7739,"MaxPool":7740,"DETAIL":7741,"ublisher":7742,"->":7743,"OW":7744,"vot":7745,"Ġ$":7746,"Ġbb":7747,"Ġdgl":7748,"ĠPri":7749,"preprocessing":7750,"compose":7751,"Ġequ":7752,"))[":7753,"ĠĠĠĠĠĠĠĠĠĠĠĠĠĠĠĠĠĠĠĠĠĠĠĠĠĠĠĠĠĠĠĠĠĠĠĠĠĠĠĠĠĠĠĠĠ":7754,"UMMY":7755,"RANGE":7756,"=(\"":7757,"Features":7758,"RS":7759,"RON":7760,"Row":7761,"choices":7762,"Ġrecall":7763,"ysql":7764,"ĠOut":7765,"waitable":7766,"findall":7767,"EXTENS":7768,"ĠQuant":7769,"########":7770,"Blur":7771,"Sigmoid":7772,"eled":7773,"Ġ~":7774,"Ġvector":7775,"delet":7776,"arse":7777,"abet":7778,"irds":7779,"sensus":7780,"93":7781,"Del":7782,"lane":7783,"see":7784,"ĠCOL":7785,"terra":7786,"ĠBertConfig":7787,"jobs":7788,"Ġnextcord":7789,"Permission":7790,"aggregate":7791,"dllmethod":7792,"merges":7793,">#":7794,"MD":7795,"bird":7796,"fused":7797,"mut":7798,"Ġbit":7799,"Ġdetection":7800,"ĠMachineState":7801,"ARE":7802,"dets":7803,"ybirds":7804,"Ġtrimesh":7805,"Hash":7806,"ier":7807,"Ġhp":7808,"ĠLicense":7809,"Ġmmseg":7810,"flint":7811,"Ġopts":7812,"udit":7813,"Ġsqlite":7814,"agents":7815,"Ġcarla":7816,"ĠDetection":7817,"LF":7818,"NG":7819,"UD":7820,"nitude":7821,"vae":7822,"Ġcallable":7823,"Ġborder":7824,"ERE":7825,"ĠNew":7826,"means":7827,"Ġdetails":7828,"USD":7829,"SHA":7830,"mnist":7831,"ĠDATASETS":7832,"LES":7833,"Split":7834,"jpeg":7835,"kip":7836,"eno":7837,"Ġcent":7838,"Ġcard":7839,"ptr":7840,"setdefault":7841,"Ġxs":7842,"ignKey":7843,"LEFT":7844,"joinpath":7845,"Ġdisplay":7846,"Ġdestination":7847,"hat":7848,"mpii":7849,"Ġtow":7850,"clvm":7851,"STRO":7852,"matplotlib":7853,"TOP":7854,"Ġexpand":7855,"ĠInteger":7856,"ĠBytes":7857,"wraps":7858,"chr":7859,"loit":7860,"adv":7861,"Ġbranch":7862,"Ġ_<":7863,"Ġdev":7864,"ĠGlobal":7865,"FileHandler":7866,"assertTrue":7867,"Ġassigner":7868,"Ġscenario":7869,"relationship":7870,"\"}":7871,"=%":7872,"DRAW":7873,"Member":7874,"PASS":7875,"Ġsur":7876,"unds":7877,"inite":7878,"ĠCor":7879,"ĠAp":7880,"ĠBERT":7881,"Ġexpr":7882,"scales":7883,"Ġweighted":7884,"catalog":7885,"POSE":7886,"Gl":7887,"walk":7888,"Ġsparse":7889,"ĠImageEnhance":7890,"ĠQiskit":7891,"hashcat":7892,"Ġmultiple":7893,"stantiate":7894,"SERVICE":7895,"KNOWN":7896,"cursive":7897,"Ġmissing":7898,"unic":7899,"bus":7900,"ĠID":7901,"Ġresolution":7902,"mlm":7903,"armer":7904,"SEED":7905,"Ġperform":7906,"links":7907,"fontTools":7908,"Ġ\"\"\"\\<":7909,"ĠClassVar":7910,"cognition":7911,"DRO":7912,"Func":7913,"FocalLoss":7914,"PACK":7915,"infer":7916,"Ġcondition":7917,"Ġ34":7918,"Ġproduct":7919,"identity":7920,"Ġconfigparser":7921,"mini":7922,"flare":7923,"transformed":7924,"normalized":7925,"Series":7926,"Ġlibrosa":7927,"releases":7928,"STATUS":7929,"Clip":7930,"Ed":7931,"bundle":7932,"tpu":7933,"Ġtwo":7934,"exog":7935,"ĠTEST":7936,"rive":7937,"ĠAction":7938,"ATA":7939,"ĠRot":7940,"texture":7941,"iteration":7942,"ĠDatasetCatalog":7943,"SERVER":7944,"Ġsyntax":7945,"BIC":7946,"FRA":7947,"OFF":7948,"indent":7949,"adj":7950,"Ġground":7951,"Ġyolo":7952,"Ġtimezone":7953,"Ġ400":7954,"ĠVal":7955,"Ġqvec":7956,"Ġclassname":7957,"akes":7958,"Shared":7959,"bitmap":7960,"callbacks":7961,"CLIP":7962,"MPL":7963,"past":7964,"prun":7965,"separ":7966,"anomaly":7967,"different":7968,"Ġgiven":7969,"Ġ([":7970,"ctionary":7971,"ĠScheduler":7972,"getcwd":7973,"conversion":7974,"centers":7975,"ddp":7976,"Ġrich":7977,"/*":7978,"GT":7979,"Mobile":7980,"Side":7981,"SUPPORT":7982,"tcp":7983,"erator":7984,"Ġsome":7985,"Ġunpack":7986,"ITS":7987,"ĠUni":7988,"SEC":7989,"SIGN":7990,"horn":7991,"poster":7992,"swin":7993,"awn":7994,"Ġgenerated":7995,"Position":7996,"lenderbot":7997,"rigger":7998,"Ġsymbol":7999,"Evaluator":8000,")**":8001,"Big":8002,"GO":8003,"VAR":8004,"gi":8005,"gits":8006,"yml":8007,"Ġemb":8008,"alph":8009,"Ġnx":8010,"splitext":8011,"Ġ127":8012,"Ġwords":8013,"PLY":8014,"Shar":8015,"scenario":8016,"Fixed":8017,"RATE":8018,"Sometimes":8019,"rend":8020,"stuff":8021,"inger":8022,"DEVICES":8023,"ĠBACK":8024,"REGEX":8025,"PARALLE":8026,"Ġ>>>":8027,"RoIHead":8028,"ĠBasicBlock":8029,"Ġomegaconf":8030,">\"<":8031,"CD":8032,"Inc":8033,"Visual":8034,"dx":8035,"kpi":8036,"Ġtk":8037,"clar":8038,"Ġwhere":8039,"ĠSample":8040,"Ġshard":8041,"Ġapps":8042,"binding":8043,"Ġsqrt":8044,"NamedTuple":8045,"Gradient":8046,"fan":8047,"moment":8048,"Ġmkdir":8049,"ĠTFA":8050,"ĠSystem":8051,"ĠMM":8052,"Ġrt":8053,"120":8054,"Ġenvironment":8055,"vertex":8056,"dota":8057,"Distribution":8058,"complete":8059,"ĠEncoder":8060,"Ġtowhee":8061,">'":8062,"Membership":8063,"Ġmachine":8064,"Ġgather":8065,"Ġimp":8066,"manifest":8067,"videos":8068,"ĠComponent":8069,"glue":8070,"Return":8071,"AF":8072,"EMA":8073,"EVAL":8074,"HIGH":8075,"MSG":8076,"Part":8077,"menu":8078,"oard":8079,"Ġsn":8080,"='/":8081,"ĠFore":8082,"ĠMethod":8083,"CHOR":8084,"circ":8085,"Ġmany":8086,"allenai":8087,"Folder":8088,"Paint":8089,"sender":8090,"Ġreader":8091,"prepare":8092,"usic":8093,"ĠWor":8094,"trial":8095,"Flax":8096,"CLIENT":8097,"CAM":8098,"NIST":8099,"gym":8100,"amfer":8101,"Ġdiction":8102,"keyp":8103,"plane":8104,"timm":8105,"utorial":8106,"snapshot":8107,"Ġlatent":8108,"RT":8109,"SRC":8110,"dy":8111,"fee":8112,"green":8113,"lookup":8114,"resp":8115,"pole":8116,"lens":8117,"Ġtextflint":8118,"official":8119,"udy":8120,"pooling":8121,"Ġwindows":8122,"ĠTSDataset":8123,"pods":8124,"71":8125,"Agg":8126,"License":8127,"eig":8128,"nli":8129,"rete":8130,"decor":8131,"yson":8132,"Ġstrict":8133,"Ġexperiment":8134,"npz":8135,"Ġ480":8136,"([])<":8137,"cvt":8138,"scripts":8139,"ĠĠĠĠĠĠĠĠĠĠĠĠĠĠĠĠĠĠĠĠĠĠĠĠĠĠĠĠĠĠĠĠĠĠĠĠĠĠĠ":8140,"refresh":8141,"patches":8142,"enums":8143,"cywh":8144,"schemas":8145,"slide":8146,"Doc":8147,"ealing":8148,"uit":8149,"Ġnamespace":8150,"Ġremote":8151,"ĠCenter":8152,"Ġprovide":8153,"ibility":8154,"without":8155,"intersection":8156,"Ġmultiscale":8157,"CHANNELS":8158,"FLO":8159,"ycb":8160,"ĠFused":8161,"astic":8162,"Ġ{},":8163,"CAY":8164,"ramid":8165,"LazyModule":8166,"VISIBLE":8167,"Free":8168,"TC":8169,"hass":8170,"seudo":8171,"arrow":8172,"Ġsr":8173,"Ġhand":8174,"102":8175,"ĠeError":8176,"Ġsepar":8177,"linux":8178,"Ġintersection":8179,"Ġattribute":8180,"Ġobjects":8181,"})'<":8182,"ĠTraining":8183,"vc":8184,"Ġclear":8185,"Ġsl":8186,"Ġ\"\",":8187,"ĠCamembert":8188,"psp":8189,"discovery":8190,"domains":8191,"Ġrelu":8192,"PYTHON":8193,".\",":8194,"Me":8195,"Mod":8196,"iation":8197,"Ġpr":8198,"Ġaccess":8199,"ĠSign":8200,"'])":8201,"metas":8202,"Ġmmpose":8203,"Ġpipe":8204,"skater":8205,"ĠOpenAIGPT":8206,"HY":8207,"SCHED":8208,"pag":8209,"orator":8210,"imiter":8211,"uplicate":8212,"pix":8213,"Ġactions":8214,"sgi":8215,"Ġlayout":8216,"Ġnormalized":8217,"Ġevaluator":8218,"wards":8219,"Ġvisualize":8220,"MESSAGE":8221,"'))":8222,"BGR":8223,"sol":8224,"Ġ27":8225,"keypoint":8226,"prim":8227,"thrs":8228,"9999":8229,"effect":8230,"\"))":8231,"sock":8232,"residual":8233,"tok":8234,"share":8235,"iful":8236,"compiler":8237,"inding":8238,"contrast":8239,"Ġflybirds":8240,"autiful":8241,"Ġplugins":8242,"inspect":8243,"temon":8244,"ĠConfiguration":8245,"Ġatom":8246,"FILL":8247,"grads":8248,"projection":8249,"Ġdiscriminator":8250,"Ġcuckoo":8251,"BUILD":8252,"entication":8253,")+":8254,".\"":8255,"8000":8256,"Cannot":8257,"crowd":8258,"alanced":8259,"Ġbutton":8260,"tour":8261,"ĠSparse":8262,"configure":8263,"()])<":8264,"Ġexclude":8265,"ANT":8266,"ymbol":8267,"modes":8268,"Ġcluster":8269,"Ġpadded":8270,"networks":8271,"quantization":8272,"Distil":8273,"ĠCONFIG":8274,"EVENT":8275,"fed":8276,"whole":8277,"stories":8278,"Ġwant":8279,"ĠPi":8280,"heat":8281,"ffn":8282,"Ġsearx":8283,"REF":8284,"acing":8285,"Ġposter":8286,"Ġdistar":8287,"subset":8288,"ĠStr":8289,"signals":8290,"mtree":8291,"Download":8292,"ways":8293,"Ġfid":8294,"ATTRIBUT":8295,"scheme":8296,"Executor":8297,"ĠBytesIO":8298,")\\":8299,"AK":8300,"band":8301,"}\",<":8302,"uring":8303,"logy":8304,"Ġdeprecated":8305,"urllib":8306,"Ġcoin":8307,"REAM":8308,"Ġscatter":8309,"SEQU":8310,"ski":8311,"CommandArchives":8312,"suite":8313,"optimizers":8314,"Ġflipped":8315,"ĠProtocol":8316,"BERTA":8317,"warp":8318,"cxcywh":8319,"82":8320,"Rule":8321,"Schedule":8322,"cert":8323,"uc":8324,"Ġsafe":8325,"Ġfg":8326,"INDEX":8327,"ĠAdam":8328,"numbers":8329,"ĠMo":8330,"using":8331,"ENCODER":8332,"DIST":8333,"DIRE":8334,"AGES":8335,"credentials":8336,"verted":8337,"Ġapprox":8338,"crit":8339,"Ġceil":8340,"Ġrlstructures":8341,"/<":8342,"]:":8343,"fpath":8344,"pin":8345,"wandb":8346,"repository":8347,"('../":8348,"ĠAd":8349,"Ġprevious":8350,"Ġcopyfile":8351,"ategorical":8352,"optimize":8353,"Checkpointer":8354,"(?:":8355,"keypatch":8356,"Dat":8357,"EB":8358,"Hyper":8359,"PIL":8360,"VGG":8361,"erial":8362,"Ġpa":8363,"__\":":8364,"fid":8365,"Ġ'..":8366,"ula":8367,"ConcatDataset":8368,"Ġpylsp":8369,"Ġproto":8370,"corr":8371,"Ġdepths":8372,"squeezebert":8373,"inality":8374,"Ġserializers":8375,"Ġquat":8376,"Ġsignature":8377,"Augmentation":8378,"SACTION":8379,"Ġdenom":8380,"FAILUREDETAIL":8381,"sendlineafter":8382,"Reference":8383,"TST":8384,"Types":8385,"got":8386,"Ġsitk":8387,"unused":8388,"scraper":8389,"shell":8390,"2019":8391,"Ġrole":8392,"trade":8393,"funcs":8394,"Decode":8395,"Ġstatic":8396,"ridge":8397,"lineno":8398,"THRESHOLD":8399,"ĠBACKBON":8400,"89":8401,"Boolean":8402,"_):<":8403,"Ġpid":8404,"Ġgold":8405,"ĠTop":8406,"Ġstderr":8407,"flush":8408,"Common":8409,"BertTokenizer":8410,"Unit":8411,"generic":8412,"slug":8413,"GELU":8414,"Ġviews":8415,"ĠAPIRouter":8416,"Ġtrial":8417,"CURRENT":8418,"RATIO":8419,"*(":8420,"Rate":8421,"six":8422,"fromfile":8423,"Ġsqu":8424,"ĠFor":8425,"Ġconst":8426,"Ġflush":8427,"Ġlogs":8428,"Learn":8429,"360":8430,"Ġevents":8431,"aligned":8432,"Augment":8433,"Activation":8434,"assets":8435,"SAMPLER":8436,"DPR":8437,"FP":8438,"rnn":8439,"td":8440,"xpath":8441,"decorator":8442,"answers":8443,"adow":8444,"Ġgra":8445,"istent":8446,"anning":8447,"ĠOperator":8448,"ĠMLP":8449,"()),":8450,"Ġdirect":8451,"acity":8452,"subject":8453,"ĠResource":8454,"../../../../":8455,"ViewSet":8456,"ĠLOG":8457,"ĠAutoTokenizer":8458,"Ġshifted":8459,"NtGdiD":8460,"kind":8461,"endenc":8462,"Ġdynamic":8463,"ĠPO":8464,"ĠMetric":8465,"Ġ._":8466,"Ġprotein":8467,"Ġmaskrcnn":8468,"copyright":8469,"Ġscaled":8470,"mmdet":8471,"CLOSE":8472,"61":8473,"aisy":8474,"pot":8475,"rf":8476,"orer":8477,"iton":8478,"argparse":8479,"pysc":8480,"ĠTorch":8481,"Ġhalf":8482,"ĠLayout":8483,"heel":8484,"outine":8485,"MALL":8486,"REE":8487,"REEN":8488,"uggest":8489,"2015":8490,"Provider":8491,"')[-":8492,"ĠĠĠĠĠĠĠĠĠĠĠĠĠĠĠĠĠĠĠĠĠĠĠĠĠĠĠĠĠĠĠĠĠĠĠĠĠĠĠĠ":8493,"IESARCHIVE":8494,"proxMaxIoUAssigner":8495,"FOLDER":8496,"OWN":8497,"SL":8498,"Tri":8499,"Uns":8500,"docker":8501,"pages":8502,"aten":8503,"anp":8504,"Ġfactory":8505,"Ġ120":8506,"setting":8507,"aps":8508,"Ġhass":8509,"coef":8510,"Ġdep":8511,"ĠAverage":8512,"Ġparts":8513,"ETE":8514,"jector":8515,"ĠURL":8516,"Ġleg":8517,"EncoderDecoder":8518,"}.{":8519,"METHO":8520,"fraction":8521,"ĠNumber":8522,"Ġ'''<":8523,"LOBAL":8524,"Ġfontemon":8525,"43":8526,"91":8527,"DP":8528,"Dim":8529,"lb":8530,"tb":8531,"rough":8532,"Ġmn":8533,"unicode":8534,"anno":8535,"ĠVOC":8536,"CLASSI":8537,"OptimizerHook":8538,"Double":8539,"LICENSE":8540,"STROKE":8541,"Ġdictionary":8542,"pspnet":8543,"LET":8544,"Mid":8545,"SN":8546,"chs":8547,"Ġpanoptic":8548,"elist":8549,"major":8550,"pretrain":8551,"DECAY":8552,"ARY":8553,"atted":8554,"iterations":8555,"Ġbasename":8556,"Ġlru":8557,"calculate":8558,"At":8559,"IME":8560,"Match":8561,"Opt":8562,"lg":8563,"onic":8564,"abase":8565,"Ġhist":8566,"ĠFunnel":8567,"=\"\",":8568,"Ġ./":8569,"CKS":8570,"calib":8571,"ĠBertTokenizer":8572,"Ġspecific":8573,"Ġproposal":8574,"tomic":8575,"++":8576,"Fairseq":8577,"]])":8578,"hd":8579,"sect":8580,"ari":8581,"Ġschem":8582,"Ġstrategy":8583,"ĠgetLogger":8584,"iterable":8585,"moved":8586,"gtFine":8587,"Ġdowngrade":8588,"ighb":8589,"META":8590,"DENTI":8591,"finetuned":8592,"+]":8593,"62":8594,">`":8595,"Pair":8596,"YOLO":8597,"atic":8598,"didate":8599,"energy":8600,"phrase":8601,"Ġsetting":8602,"\")(":8603,"Ġoptuna":8604,"transfers":8605,"Ġactive":8606,"Ġkeepdims":8607,"Attributes":8608,"ĠLOGGER":8609,"Byte":8610,"GENERATOR":8611,"Horizontal":8612,"=='":8613,"Has":8614,"java":8615,"Ġmx":8616,"elif":8617,"Ġbrightness":8618,"INCEPTION":8619,"getter":8620,"uber":8621,"come":8622,"across":8623,"Ġcompare":8624,"Ġvalidator":8625,"DIO":8626,"postgres":8627,"kernels":8628,"EnumValue":8629,"ICAL":8630,"blur":8631,"SAVE":8632,"Ġselected":8633,"Ġbetween":8634,"rules":8635,"bicubic":8636,"=\"\"":8637,"NER":8638,"nf":8639,"optional":8640,"expi":8641,"ulum":8642,"parable":8643,"...')<":8644,"phase":8645,"aving":8646,"Ġalready":8647,"Variable":8648,"executable":8649,"medium":8650,"Ġpositional":8651,"ratic":8652,"GenerateTarget":8653,"Ġpp":8654,"Ġmember":8655,"unpack":8656,"uli":8657,"attentions":8658,"Ġcounter":8659,"Ġprocesses":8660,"market":8661,"afold":8662,"Mapper":8663,"Distortion":8664,"'(":8665,")-":8666,"=('":8667,"Cosine":8668,"DR":8669,"student":8670,"asing":8671,"amera":8672,"Ġredirect":8673,"Ġlg":8674,"ĠAN":8675,"actual":8676,"Ġseconds":8677,"eanie":8678,"Ġwithout":8679,"team":8680,"rtd":8681,"Ġ4096":8682,"Positional":8683,"ĠModuleNotFoundError":8684,"Ġwrapped":8685,"TIMEOUT":8686,"overrides":8687,"~~~~":8688,"SELECTION":8689,"Socket":8690,"Soup":8691,"vuln":8692,"Ġ^":8693,"aters":8694,"chans":8695,"upsample":8696,"Ġyacs":8697,"filtered":8698,"Ġconverted":8699,"Ġpackaging":8700,"Values":8701,"SOURCE":8702,"PARALLEL":8703,"(\",":8704,"Empty":8705,"PEN":8706,"Photo":8707,"Usage":8708,"dla":8709,"members":8710,"wsgi":8711,"alias":8712,"iso":8713,"ĠPRO":8714,"Ġdiv":8715,"most":8716,"Ġprotocol":8717,"([-":8718,"Ġthese":8719,"ĠDictConfig":8720,"mongo":8721,"Ġloaded":8722,"Whether":8723,"autifulSoup":8724,"/'":8725,"Matrix":8726,"Page":8727,"Partial":8728,"cro":8729,"uses":8730,"Ġedit":8731,"stroke":8732,"Ġpast":8733,"abil":8734,"005":8735,"Ġ33":8736,"Ġnote":8737,"egasus":8738,"PTH":8739,"Ġservices":8740,"blank":8741,"algorithm":8742,"ĠApplication":8743,"Word":8744,"apy":8745,"Ġepisode":8746,"rename":8747,"Ġ')<":8748,"adjust":8749,"strict":8750,"DED":8751,"STORAGE":8752,"egacy":8753,"Ġmaximum":8754,"eca":8755,"Ġqid":8756,"redun":8757,"TESTING":8758,"Ġdisnake":8759,"experimental":8760,"================================":8761,"AUTO":8762,"Ġpartition":8763,"Ġredun":8764,"Sentence":8765,"DUMMY":8766,"Fn":8767,"Remo":8768,"mobile":8769,"Ġ'')<":8770,"Ġfold":8771,"ĠCa":8772,"Ġproj":8773,"ĠVideo":8774,"{}'.":8775,"AAAA":8776,"Ġlatest":8777,"Ġglyph":8778,"FX":8779,"LAT":8780,"PP":8781,"Prop":8782,"chinese":8783,"Ġreceived":8784,"Ġcdll":8785,"Ġowner":8786,"cog":8787,"ription":8788,"Ġefficient":8789,"idators":8790,"UserFactory":8791,"bev":8792,"Ġupfirdn":8793,"SKAT":8794,"ĠQtWidgets":8795,"Flags":8796,"controller":8797,"ĠSelect":8798,"OICE":8799,"yolov":8800,"CREATE":8801,"Limit":8802,"]))":8803,"Ġrelease":8804,"Ġ\"$":8805,"ĠLocal":8806,"ĠDictAction":8807,"ANET":8808,"Ġmasked":8809,"utoff":8810,"plementation":8811,"signed":8812,"Strategy":8813,"RESNET":8814,"StartObject":8815,"Cascade":8816,"FS":8817,"Location":8818,"Reduce":8819,"umb":8820,"Ġbg":8821,"Ġbroadcast":8822,"='../../../../":8823,"upload":8824,"ĠNUM":8825,"ĠGaussian":8826,"ADER":8827,"])[":8828,"Ġadj":8829,"QUERY":8830,"Ġurlencode":8831,"ĠBeautifulSoup":8832,"Bird":8833,"Dir":8834,"Link":8835,"dtypes":8836,"fns":8837,"ij":8838,"Ġmag":8839,"Ġoff":8840,"unct":8841,"ida":8842,"ĠDC":8843,"regression":8844,"tensorflow":8845,"Ġloads":8846,"tsch":8847,"Header":8848,"ltk":8849,"ĠTFBert":8850,"ĠPytorch":8851,"optimization":8852,"viders":8853,"OPEN":8854,"INPUTS":8855,"METRI":8856,"exporter":8857,"ĠQuery":8858,"EndObject":8859,"identifier":8860,"EXTENSIONS":8861,"UG":8862,"pet":8863,"inates":8864,"eries":8865,"Ġgin":8866,"Ġhistory":8867,"Ġdpi":8868,"ĠROI":8869,"Ġtensorboard":8870,"LOSSES":8871,"nearest":8872,"expression":8873,"LUE":8874,"Ġpolys":8875,"servations":8876,"Parameters":8877,"Ġsplits":8878,"Ġadjust":8879,"cython":8880,"pends":8881,"ĠLoader":8882,"ITHUB":8883,"volume":8884,"presentation":8885,"Predictor":8886,"SKATERS":8887,"BIL":8888,"LANG":8889,"ball":8890,"elf":8891,"operations":8892,"amily":8893,"Ġpush":8894,"Ġsock":8895,"owski":8896,"ĠIdentity":8897,"Ġeod":8898,"ĠNe":8899,"Ġfilepath":8900,"\"])":8901,"Ġbatched":8902,"pkg":8903,"timeline":8904,"2007":8905,"QUI":8906,"Ġinitializer":8907,"scenes":8908,"contains":8909,"Programming":8910,"5000":8911,":\")<":8912,"]{":8913,"browser":8914,"focus":8915,"tor":8916,"wide":8917,"lout":8918,"Ġcmap":8919,"Ġcannot":8920,"Ġsphinx":8921,"emote":8922,"INANET":8923,"boot":8924,"ĠSeg":8925,"ĠSoft":8926,"Ġstages":8927,"penalty":8928,"epspeed":8929,"Ġatexit":8930,"CONTEXT":8931,"Ġlik":8932,"ificate":8933,"RETINANET":8934,"Pipeline":8935,"USTOM":8936,"recipe":8937,"cvtColor":8938,".'<":8939,"Identifier":8940,"Plot":8941,"Sim":8942,"_|":8943,"bold":8944,"gp":8945,"lv":8946,"landmark":8947,"ye":8948,"Ġlight":8949,"standard":8950,"ctypes":8951,"Ġ</":8952,"Ġedict":8953,"ĠEmail":8954,"((-":8955,"Ġqt":8956,"Ġpositive":8957,"encrypt":8958,"Learning":8959,"Ġupsample":8960,"fully":8961,"decorators":8962,">-":8963,"CG":8964,"Red":8965,"Url":8966,"ood":8967,"va":8968,"records":8969,"utter":8970,"dataframe":8971,"Ġway":8972,"initorch":8973,"ffect":8974,"()),<":8975,"dimension":8976,"Story":8977,"Ġconfigurable":8978,"ĠHANDLE":8979,"gts":8980,"Ġbeen":8981,"issues":8982,"Ġ]))<":8983,"Scaler":8984,"blue":8985,"ĠPreTrain":8986,"pendency":8987,"extendable":8988,"LENG":8989,"Windows":8990,"ĠMaxIoUAssigner":8991,"Softmax":8992,"EnumValueDescriptor":8993,"XEL":8994,"sd":8995,"}',":8996,"}_{":8997,"Ġmc":8998,"Ġcell":8999,"Ġfa":9000,"',)),<":9001,"ulner":9002,"setFormatter":9003,"empt":9004,"ĠCallback":9005,"Ġrule":9006,"ĠBot":9007,"ĠGym":9008,"Ġupper":9009,"RESET":9010,"Ġoneofs":9011,"Ġnvflare":9012,"NtGdiDd":9013,"BI":9014,"CENT":9015,"GITHUB":9016,"Mon":9017,"NT":9018,"\\'":9019,"hom":9020,"Ġag":9021,"definition":9022,"__,<":9023,"Ġ\"\".":9024,"Ġbits":9025,"ssim":9026,"=[],":9027,"Ġ....":9028,"Proxy":9029,"ESTYLE":9030,"Script":9031,"discord":9032,"Ġcloud":9033,"Initial":9034,"ĠLayerNorm":9035,"LENGTH":9036,"LAR":9037,"eos":9038,"reason":9039,"anim":9040,"ceiver":9041,"confidence":9042,"igger":9043,"Ġhe":9044,"Ġxm":9045,"Ġlxml":9046,"Ġ{{":9047,"ĠLi":9048,"Ġgetpass":9049,"Ġscraper":9050,"ĠNOT":9051,"Ġ%.":9052,"ĠHttp":9053,"txinfo":9054,"inkowski":9055,"Copy":9056,"UBIC":9057,"Ġencoded":9058,"MARK":9059,"Super":9060,"VID":9061,"rw":9062,"Ġem":9063,"integr":9064,"Ġduration":9065,"player":9066,"Ġcvpods":9067,"month":9068,"Ġposes":9069,"FieldDescriptor":9070,"idationError":9071,"ybrid":9072,"trees":9073,"WINDO":9074,"UI":9075,"card":9076,"pic":9077,"pitch":9078,"trt":9079,"Ġsaturation":9080,"Ġidentity":9081,"datadir":9082,"Ġ180":9083,"odb":9084,"ĠNested":9085,"splitlines":9086,"uality":9087,"Regressor":9088,"aker":9089,"woStageDetector":9090,"Ġlengths":9091,"Ġarchitecture":9092,"Ġpkl":9093,"****************":9094,"cumsum":9095,"NUMBER":9096,"MembershipFactory":9097,">',":9098,"CLU":9099,"GL":9100,"tion":9101,"rott":9102,"ctest":9103,"Ġcalled":9104,"constructor":9105,"ĠCFUNCTYPE":9106,"Ġxx":9107,"ĠBuild":9108,"mouse":9109,"Ġunits":9110,"DATAB":9111,"mbart":9112,"Keyboard":9113,"lmdb":9114,"ĠCoin":9115,"Ġqueryset":9116,"accum":9117,"Ġweak":9118,"tschchart":9119,"Driver":9120,"hu":9121,"inplanes":9122,"deprecated":9123,"uru":9124,"cks":9125,"ĠAc":9126,"Ġ31":9127,"ENAME":9128,"filt":9129,"Requi":9130,"nost":9131,"Ġanp":9132,"Ġspaces":9133,"diagram":9134,"distilled":9135,"Ġbuckets":9136,"Ġ'../../../../":9137,"megaConf":9138,"toolkit":9139,"RepeatDataset":9140,"havior":9141,"AE":9142,"BIN":9143,"Medi":9144,"Sl":9145,"WP":9146,"]\"":9147,"sources":9148,"Ġtw":9149,"Ġfit":9150,"oneof":9151,"maze":9152,"maker":9153,"Ġlam":9154,"bounds":9155,"ĠSqueeze":9156,"ERO":9157,"ĠME":9158,"DEPTH":9159,"Ġcook":9160,"Ġscan":9161,"flash":9162,"LIB":9163,"ĠDataFrame":9164,"normalization":9165,"Could":9166,"wrapped":9167,"ARGS":9168,"Backbone":9169,"aggregation":9170,"MetricDistortion":9171,"87":9172,"Api":9173,"Can":9174,"VisionTransformer":9175,"]/":9176,"aive":9177,"hq":9178,"membership":9179,"Ġnamed":9180,"utation":9181,"utdown":9182,"ĠCoro":9183,"ipes":9184,"Ġsee":9185,"Ġ70":9186,"Ġdetect":9187,"{}.":9188,"timest":9189,"Definition":9190,"HTML":9191,"surface":9192,"Ġissub":9193,"(\"<":9194,")[:,":9195,"Cor":9196,"OPER":9197,"vite":9198,"yes":9199,"Ġam":9200,"deit":9201,"clic":9202,"formers":9203,"ĠLazy":9204,"ĠMutable":9205,"horse":9206,"PROB":9207,"skaters":9208,"Scalar":9209,"generated":9210,"ĠDeform":9211,"ĠQtGui":9212,"ĠRobertaConfig":9213,"Ġpairs":9214,"sequences":9215,"Bad":9216,"FCOS":9217,"Lab":9218,"bmp":9219,"cale":9220,"front":9221,"redis":9222,"Ġreply":9223,"='.":9224,"trainval":9225,"Ġlp":9226,"perf":9227,"msa":9228,"chars":9229,"KEYS":9230,"algorithms":9231,"ĠDEVICE":9232,"categorical":9233,"Ġswish":9234,"motor":9235,".,<":9236,"CB":9237,"Hard":9238,"Jitter":9239,"oh":9240,"spy":9241,"xla":9242,"Ġlike":9243,"increment":9244,"Ġbi":9245,"ensity":9246,"scaling":9247,"Ġdelay":9248,"ashion":9249,"riculum":9250,"ĠWord":9251,"Ġworkspace":9252,"leftImg":9253,"barrier":9254,"boundary":9255,"renderer":9256,"OPTIONS":9257,"ounds":9258,"Ġcomponents":9259,"ĠRelated":9260,"Ġeasydict":9261,"Edge":9262,"ycbv":9263,"PhotoMetricDistortion":9264,"(',":9265,"FLIP":9266,"Score":9267,"VO":9268,"analy":9269,"__[":9270,"omial":9271,"Ġgr":9272,"ĠFS":9273,"Ġdeeplab":9274,"ĠSim":9275,"ĠSeq":9276,"():":9277,"CHOICE":9278,"ĠBu":9279,"Ġshlex":9280,"REQUEST":9281,"RAND":9282,"Prob":9283,"***":9284,"ĠĠĠĠĠĠĠĠĠĠĠĠĠĠĠĠĠĠĠĠĠĠĠĠĠĠĠĠĠĠĠĠĠĠĠĠĠ":9285,"Ġimpl":9286,"SIG":9287,"Ġadapt":9288,"encoded":9289,"streamable":9290,"eek":9291,"glyph":9292,"Ġinstead":9293,"OKS":9294,"dispatcher":9295,"ĠViT":9296,"TemporaryFile":9297,"AWS":9298,"WI":9299,"solver":9300,"speed":9301,"Ġannotation":9302,"Ġte":9303,"alloc":9304,"ormap":9305,"Ġloading":9306,"need":9307,"Paths":9308,"Detect":9309,"quality":9310,"BERTa":9311,"Ġmove":9312,"SPLITS":9313,"ĠService":9314,"ĠEXTENS":9315,"='+',":9316,"ĠEXTENSION":9317,"180":9318,"Fin":9319,"star":9320,"Ġfaces":9321,"pylib":9322,"Ġ*,<":9323,"filenames":9324,"ĠIt":9325,"Ġvgg":9326,"ipFile":9327,"ĠVersion":9328,"Ġthing":9329,"lru":9330,"COMMANDSET":9331,"SKArchives":9332,"Iterable":9333,"Checkpoint":9334,"Ġaugmentation":9335,"ffffffff":9336,"StreamHandler":9337,"ĠDocumentation":9338,"ĠFLAGS":9339,"uditLog":9340,"Ġcardinality":9341,"primary":9342,"aisyX":9343,"STROKEARCHIVE":9344,"!')<":9345,"Dyn":9346,"Electra":9347,"Host":9348,"Ids":9349,"Jit":9350,"TIM":9351,"\\\"":9352,"rm":9353,"Ġface":9354,"Ġ10000":9355,"ĠFake":9356,"ĠBinary":9357,"Ġcolumns":9358,"scriber":9359,"timezone":9360,"Ġaxes":9361,"EXAM":9362,"closed":9363,"Depth":9364,"softplus":9365,"IZE":9366,"hexlify":9367,"allowed":9368,"ĠCUDAExtension":9369,"CFG":9370,"Ġissubclass":9371,"Emoji":9372,"aos":9373,"speech":9374,"uop":9375,"divisible":9376,"illa":9377,"resized":9378,"proved":9379,"ssible":9380,"STREAM":9381,"Ġbased":9382,"BOOL":9383,"Ġpredicted":9384,"Ġformatter":9385,"Ġdateutil":9386,"rouge":9387,"ApplicationCommand":9388,"SECRET":9389,".],":9390,"CPU":9391,"EY":9392,"JPEG":9393,"SCRIPT":9394,"ga":9395,"gc":9396,"hf":9397,"kp":9398,"tail":9399,"uro":9400,"ini":9401,"inja":9402,"ellow":9403,"izon":9404,"processes":9405,"ised":9406,"processors":9407,"ibili":9408,"ALO":9409,"ĠGtk":9410,"Parse":9411,"Ġbatchgenerators":9412,"sentences":9413,"Ġpercent":9414,"Observable":9415,"contents":9416,"Ġadv":9417,"Ġoverlap":9418,"elem":9419,"synth":9420,"notebook":9421,"TABL":9422,"SmoothL":9423,"Small":9424,"MED":9425,"yaw":9426,"ifact":9427,"STEM":9428,"ales":9429,"regressor":9430,"pness":9431,"userstory":9432,"corpus":9433,"UNKNOWN":9434,"Environment":9435,"CONTENT":9436,"Ġpkgutil":9437,"Ġfollowing":9438,"ADDRESS":9439,"Audio":9440,"Sparse":9441,"few":9442,"Ġso":9443,"Ġinvalid":9444,"ĠDB":9445,"should":9446,"ĠOR":9447,"ither":9448,"Ġsender":9449,"iles":9450,"versions":9451,"Proto":9452,"capt":9453,"Expression":9454,"ĠInit":9455,"Ġapplication":9456,"ĠYOLO":9457,"Translate":9458,"labeled":9459,"QtCore":9460,"TENSOR":9461,"ĠBackbone":9462,"Delta":9463,"LAN":9464,"[(":9465,"iam":9466,"some":9467,"yu":9468,"ports":9469,"sel":9470,"depends":9471,"etic":9472,"Ġmpre":9473,"Ġsd":9474,"icies":9475,"Ġ201":9476,").<":9477,"ĠCH":9478,"ĠAwaitable":9479,"Ġenabled":9480,"Sticker":9481,"maxsize":9482,"Regression":9483,"ynth":9484,"skipif":9485,"meshgrid":9486,"similarity":9487,"/_":9488,"Average":9489,"History":9490,"Next":9491,"Panel":9492,"dart":9493,"pvt":9494,"Ġ()<":9495,"prophet":9496,"vised":9497,"ĠIS":9498,"ITCH":9499,"ĠHT":9500,"ĠHyperparams":9501,"ESCRIPTION":9502,"OptionsAdd":9503,"SAMPLERS":9504,"ApproxMaxIoUAssigner":9505,"Scenario":9506,"RegionAssigner":9507,"ingerprint":9508,"Access":9509,"BAS":9510,"Kernel":9511,"Popen":9512,"Save":9513,"Ver":9514,"We":9515,"beat":9516,"tv":9517,"Ġsolve":9518,"Ġfocal":9519,"ilu":9520,"ĠDo":9521,"phi":9522,"ĠUUID":9523,"Ġvals":9524,"news":9525,"Ġinterpolate":9526,"filterwarnings":9527,"CTIONS":9528,"crete":9529,"RESULT":9530,"Ġ144":9531,"echo":9532,"STDAPI":9533,"Ġtmpdir":9534,"IterBasedRunner":9535,"Pipe":9536,"shortcut":9537,"=\"\"):<":9538,"Language":9539,"gdbscript":9540,"imm":9541,"ename":9542,"ctl":9543,"></":9544,"ĠSequential":9545,"ITER":9546,"indexes":9547,"ĠBaseModule":9548,"Shot":9549,"Topic":9550,"bilibili":9551,"balance":9552,"itespace":9553,"123456":9554,"CATEGOR":9555,"endency":9556,"METHOD":9557,"210":9558,"Quality":9559,"]}":9560,"utions":9561,"Ġdets":9562,"Ġmodeling":9563,"compress":9564,"netes":9565,"phere":9566,"SEARCH":9567,"Ġloguru":9568,"Ġiteration":9569,"lazy":9570,"served":9571,"BOARD":9572,"Ġtransaction":9573,"FORMUL":9574,"Ġmatches":9575,"Annealing":9576,"INTERVAL":9577,"Glyph":9578,"ubernetes":9579,"Be":9580,"MachineState":9581,"Raw":9582,"Speech":9583,"cons":9584,"STM":9585,"Ġkp":9586,"MASTER":9587,"0005":9588,"spawn":9589,"ĠmaskUtils":9590,"VIEW":9591,"encoders":9592,"measure":9593,"RESOL":9594,"executor":9595,"OptionsStart":9596,"jitter":9597,"Stats":9598,"lette":9599,"ĠParallel":9600,"arxiv":9601,"abilities":9602,"bulk":9603,"gin":9604,"pw":9605,"paper":9606,"Ġquestion":9607,"une":9608,"ung":9609,"ĠPlease":9610,"ĠPublic":9611,"baseline":9612,"aves":9613,"UTE":9614,"ĠBaseDataset":9615,"Ġtokenize":9616,"padded":9617,"Ġgradcheck":9618,"anguages":9619,"expanduser":9620,"quantize":9621,"assignment":9622,"StyleArchive":9623,"structions":9624,"ĠAttributeDict":9625,"smoothing":9626,"paste":9627,"600":9628,">..":9629,"FIN":9630,"GLOBAL":9631,"VT":9632,"ii":9633,"Ġys":9634,"ats":9635,"digits":9636,"agement":9637,"rained":9638,"Ġdeep":9639,"boo":9640,"ĠAL":9641,"ĠAug":9642,"---":9643,"compression":9644,"Ġyy":9645,"backup":9646,"Ġtimeit":9647,"Ġdetail":9648,"authorized":9649,"Ġcropped":9650,"Ġfactories":9651,"PROPERTIESARCHIVE":9652,"UNetTrainer":9653,"Ġpythonapi":9654,"ku":9655,"tau":9656,"Ġlicense":9657,"Ġpublic":9658,"ĠFloat":9659,"ssd":9660,"Ġxformers":9661,"ĠPatch":9662,"ĠBO":9663,"found":9664,"avail":9665,"ĠExample":9666,"TEMPL":9667,"MIX":9668,"Ġhypothesis":9669,"Cy":9670,"It":9671,"cdf":9672,"nq":9673,"nu":9674,"tod":9675,"Ġestim":9676,"starknet":9677,"ama":9678,"ota":9679,"construct":9680,"ĠOmegaConf":9681,"ĠMod":9682,"verify":9683,"Ġ[\"_":9684,"ProphetNet":9685,"Reply":9686,"monitor":9687,"Ġdistrax":9688,"reddit":9689,"Ġanaly":9690,"icycle":9691,"execution":9692,"Ġspecified":9693,"Rotate":9694,"destination":9695,"Ġtelegram":9696,"SCHEDUL":9697,"Cal":9698,"PG":9699,"[_":9700,"bine":9701,"ngram":9702,"tex":9703,"van":9704,"stones":9705,"Ġremain":9706,"iof":9707,"iodic":9708,"ĠName":9709,"2012":9710,"jsonl":9711,"0002":9712,"Ġrois":9713,"Comple":9714,"cameras":9715,"serializers":9716,"Ġsoftmax":9717,"ĠLoad":9718,"bleu":9719,"Ġexpansion":9720,"differentiable":9721,"ĠPipeline":9722,"83":9723,"DESCRIPTION":9724,"Ph":9725,"Scor":9726,"fx":9727,"kaiming":9728,"orth":9729,"loo":9730,"Ġprun":9731,"Ġinverse":9732,"Ġinstantiate":9733,"Ġbins":9734,"comput":9735,"Images":9736,"Coord":9737,"matching":9738,"Integration":9739,"Ġstructure":9740,"ternal":9741,"Flag":9742,"SELECT":9743,"magma":9744,"COLUMN":9745,"ĠBACKBONES":9746,"ĠAverageMeter":9747,")\",":9748,"cancel":9749,"nature":9750,"svg":9751,"asm":9752,"__)":9753,"__}":9754,"apas":9755,"apsed":9756,"ĠEvalu":9757,"ĠULONG":9758,"Ġproxy":9759,"archive":9760,"devkit":9761,"Description":9762,"Ġexporter":9763,"constraint":9764,"DOWNLOAD":9765,"AdaptiveAvgPool":9766,"BUILDEVENTID":9767,"SEQUENCE":9768,"Binary":9769,"Menu":9770,"finite":9771,"mk":9772,"Ġ[])<":9773,"ĠTO":9774,"Ġwav":9775,"Ġ26":9776,"Ġlst":9777,"libc":9778,"Ġresolve":9779,"embd":9780,"trajectory":9781,"fference":9782,"Sets":9783,"normalizer":9784,"Ġutilities":9785,"quantum":9786,"}:{":9787,"sheet":9788,"ermTk":9789,"PASSWORD":9790,"/.":9791,"OSC":9792,"soc":9793,"reload":9794,"Ġcnt":9795,"Ġfps":9796,"adapter":9797,"Ġ[(\"":9798,"Ġhere":9799,"scaler":9800,"ĠOnnx":9801,"ĠMlp":9802,"ocast":9803,"ĠBASE":9804,"ROW":9805,"Profile":9806,"ADATA":9807,"UMENT":9808,"Generic":9809,"Ġprivate":9810,"secure":9811,"replicate":9812,"XLNet":9813,"ĠStringIO":9814,"AnchorGenerator":9815,"'},<":9816,"ACCESS":9817,"SMALL":9818,"mv":9819,"rr":9820,"olation":9821,"upfirdn":9822,"ĠFil":9823,"Ġlava":9824,"ĠLine":9825,"predicate":9826,"SEM":9827,"RegNet":9828,"MAPARCHIVE":9829,"Enter":9830,"Ġembeddings":9831,"verts":9832,"OptionsEnd":9833,"Ġcycle":9834,"Ġalphafold":9835,"btn":9836,"ĠOSError":9837,"130":9838,"Bi":9839,"ln":9840,"voice":9841,"reid":9842,"Ġtq":9843,"exact":9844,"ĠMemory":9845,"FACTOR":9846,"VIDE":9847,"matched":9848,"IntEnum":9849,"illing":9850,"CONTAIN":9851,"chunks":9852,"tuning":9853,"ASSIGN":9854,"ĠDensePose":9855,"CenterCrop":9856,"Middleware":9857,"far":9858,"asnet":9859,"union":9860,"aplace":9861,"(\"{}":9862,"ĠOption":9863,"Ġstrings":9864,"ograph":9865,"Ġresidue":9866,"ĠBig":9867,"Stack":9868,"Ġcomput":9869,"Left":9870,"Ġdoctr":9871,"communic":9872,"Numeric":9873,"itti":9874,"Ġrelated":9875,"Filters":9876,"Ġjoblib":9877,"Ġfigsize":9878,"BufferHas":9879,"REMOTE":9880,"HYPER":9881,"nostic":9882,"BufferHasIdentifier":9883,"Grad":9884,"IDENTI":9885,"JO":9886,"Ġtab":9887,"ctrl":9888,"Ġmessages":9889,"about":9890,"upgrade":9891,"Ġgray":9892,"enspeech":9893,"ĠCL":9894,"pick":9895,"Ġprovided":9896,"readline":9897,"ConvTranspose":9898,"ambdaLR":9899,"ĠStyle":9900,"Ġautograd":9901,"Ġhashes":9902,"Direct":9903,"GroupNorm":9904,"Ġswap":9905,"Ġpairwise":9906,"SingleStageDetector":9907,"BytesIO":9908,"Ġmedia":9909,"TRACK":9910,"XYWH":9911,".))<":9912,"uation":9913,"Ġappend":9914,"Ġfoo":9915,"olved":9916,"='',<":9917,"(\"./":9918,"ĠCPU":9919,"quaternion":9920,"shoul":9921,"outube":9922,"=\"[":9923,"ĠId":9924,"Ġ58":9925,"ĠĠĠĠĠĠĠĠĠĠĠĠĠĠĠĠĠĠĠĠĠĠĠĠĠĠĠĠĠĠĠĠĠĠĠĠĠĠĠĠĠĠĠĠĠĠĠĠĠ":9926,"COND":9927,"PLACE":9928,"matches":9929,"while":9930,"topic":9931,"Ġmaps":9932,"TopDownM":9933,"napole":9934,">'''":9935,"Ġfire":9936,"Ġlmdb":9937,"ĠSwish":9938,"napoleon":9939,"Note":9940,"suggest":9941,"reed":9942,"Ġscope":9943,"Ġff":9944,"ĠTermTk":9945,"processed":9946,"occ":9947,"ĠRaw":9948,"foot":9949,"DataModule":9950,"MOMENT":9951,"ĠsetUp":9952,"Ġkeypoints":9953,"Ġinterface":9954,"slvs":9955,"ĠIntEnum":9956,"Dispatch":9957,"ĠLoss":9958,"ĠInteraction":9959,"Ġpixels":9960,"Ġissue":9961,"PACKAGE":9962,"Unsupported":9963,".)":9964,"Right":9965,"UOffset":9966,"cmap":9967,"Ġms":9968,"Ġspeed":9969,"iler":9970,"ulary":9971,"liance":9972,"consum":9973,"logo":9974,"002":9975,"proof":9976,"ĠDaisyX":9977,"lent":9978,"Ġresume":9979,"Ġymin":9980,"ĠBroker":9981,"Ġdifferent":9982,"Ġinteger":9983,"Ġpycuda":9984,"Inception":9985,"ailure":9986,"')]<":9987,"Ġlogin":9988,"callable":9989,"ltas":9990,"ĠTensorFlow":9991,"IPLE":9992,"Streamable":9993,"VISION":9994,"heroes":9995,"busta":9996,"(([":9997,")(<":9998,"SENT":9999,"TINGS":10000,"gnn":10001,"xlabel":10002,"deps":10003,"anization":10004,"Ġredis":10005,"Ġpil":10006,"Ġpub":10007,"Ġmse":10008,"resnest":10009,"profiler":10010,"allery":10011,"jectories":10012,"ĠVisionTransformer":10013,"corner":10014,"curity":10015,"posed":10016,"RandomScale":10017,"MaskHead":10018,"USERS":10019,"aware":10020,"Ġvisit":10021,"Analysis":10022,"Ġprice":10023,"FLOAT":10024,"KC":10025,"Total":10026,"](<":10027,"frequency":10028,"oring":10029,"roc":10030,"Ġrelation":10031,"esnet":10032,"Ġplease":10033,"Ġ\"\",<":10034,"resses":10035,"artifact":10036,"Ġ:],":10037,"Ġalso":10038,"Ġcontract":10039,"Ġanchors":10040,"sgd":10041,"LRScheduler":10042,"compatible":10043,"ĠToTensor":10044,"('.')[":10045,"ĠHTTPError":10046,"DateTime":10047,"ĠBlueprint":10048,"UNetTrainerV":10049,"shoulder":10050,"TopDownMpii":10051,"MOMENTUM":10052,".',":10053,":])":10054,"DT":10055,"NLP":10056,"Rank":10057,"WA":10058,"dashboard":10059,"fw":10060,"fuse":10061,"lit":10062,"ople":10063,"oRS":10064,"tqdm":10065,"ond":10066,"destr":10067,"ckpts":10068,"Ġ[]":10069,"veloc":10070,"ifold":10071,"ivar":10072,"CTORS":10073,"ĠVGG":10074,"detr":10075,"Ġrout":10076,"Ġ{})<":10077,"gressive":10078,"IOU":10079,"GRAM":10080,"failure":10081,"destrian":10082,":].":10083,">])<":10084,"VDK":10085,"ZZ":10086,"ki":10087,"oin":10088,"vacy":10089,"inux":10090,"rea":10091,"Ġwidget":10092,"ĠPort":10093,"three":10094,"masking":10095,"Lookup":10096,"Comment":10097,"Ġimplemented":10098,"CommandSet":10099,"Ġtransfers":10100,"ĠJAX":10101,"stylegan":10102,"funnel":10103,"ĠMODELS":10104,"SUPPORTED":10105,"Snowflake":10106,"[{":10107,"crypt":10108,"gI":10109,"qid":10110,"Ġeta":10111,"Ġtake":10112,"Ġpers":10113,"Ġss":10114,"Ġsol":10115,"isinstance":10116,"riven":10117,"ĠDown":10118,"ĠDisc":10119,"ATTR":10120,"ĠMark":10121,"combined":10122,"()['":10123,"statistics":10124,"ĠVisual":10125,"Ġkeypoint":10126,"Forward":10127,"ĠExperiment":10128,"specs":10129,"Ġtranslation":10130,"GetRandomScale":10131,"singleton":10132,"Ġsmoothing":10133,"Retina":10134,"Ġmaybe":10135,"ĠLayoutLM":10136,"Ġfaiss":10137,"GetRandomScaleRotation":10138,">\",":10139,"Dynamic":10140,"ELE":10141,"PAD":10142,"PART":10143,"cing":10144,"Ġcs":10145,"Ġfw":10146,"dation":10147,"clusion":10148,"setuptools":10149,"planning":10150,"providers":10151,"regular":10152,"REQUI":10153,"visit":10154,")))),<":10155,"ĠHard":10156,"RIX":10157,"IDDEN":10158,"ĠĠĠĠĠĠĠĠĠĠĠĠĠĠĠĠĠĠĠĠĠĠĠĠĠĠĠĠĠĠĠĠĠĠĠĠĠĠĠĠĠĠ":10159,"Loading":10160,"HEIGHT":10161,"notes":10162,"hexdigest":10163,"constrained":10164,"machines":10165,"Ġcudart":10166,"finetune":10167,"ilingual":10168,"PredictionHead":10169,"ĠEmbedding":10170,".{":10171,"/(":10172,"Json":10173,"_[":10174,"bd":10175,"uzzle":10176,"oration":10177,"stim":10178,"umbn":10179,"Ġ150":10180,"ĠRO":10181,"Ġevery":10182,"Dataclass":10183,"DataClass":10184,"Stone":10185,"AMP":10186,"savefig":10187,"Ġ90":10188,"ABCMeta":10189,"ĠTransfoXL":10190,"existing":10191,"LocalBlock":10192,"velop":10193,"ĠExtension":10194,"DIRECT":10195,"dom":10196,"fps":10197,"alert":10198,"Ġssort":10199,"datad":10200,"INVALID":10201,"ĠAx":10202,"usoid":10203,"phone":10204,"Ġfilenames":10205,"Counter":10206,"Ġcaffe":10207,"Ġblack":10208,"IoULoss":10209,"Ġsmpl":10210,"QUESTION":10211,"Swish":10212,"Discriminator":10213,"Ġsurvae":10214,"DATABASE":10215,"Broker":10216,"Render":10217,"SD":10218,"hyper":10219,"rmtree":10220,"wave":10221,"lec":10222,"chia":10223,"Ġcx":10224,"=''):<":10225,"ĠTTk":10226,"Ġwi":10227,"compare":10228,"Ġruntime":10229,"Ġsection":10230,"Ġ45":10231,"Ġdatef":10232,"dbl":10233,"apie":10234,"wrist":10235,"rowth":10236,"Ġ2021":10237,"graphs":10238,"positional":10239,"CONTRO":10240,"ĠDecoder":10241,"Ġflops":10242,"DeformConv":10243,"Semantics":10244,"BICUBIC":10245,"Ġdatefmt":10246,"EIGHT":10247,"High":10248,"Neg":10249,"NAL":10250,"NMS":10251,"]\",<":10252,"break":10253,"knee":10254,"uch":10255,"yy":10256,"Ġ''.":10257,"oto":10258,"pooled":10259,"logit":10260,"00000":10261,"Ġ{:.":10262,"ĠDyson":10263,"Ġgetenv":10264,"ipublic":10265,"Ġsubset":10266,"oose":10267,"}/',<":10268,"Alter":10269,"--------------------------------":10270,"polygons":10271,"macro":10272,"SMPL":10273,"Swap":10274,"Ġposterior":10275,"Remove":10276,"50000":10277,"CIFAR":10278,"KER":10279,"MNIST":10280,"UINT":10281,"gateway":10282,"milestone":10283,"setattr":10284,"Ġ-(":10285,"may":10286,"('[":10287,"ĠOne":10288,"=\".":10289,"ALP":10290,"LOC":10291,"ĠImageNet":10292,"={}":10293,"ImportError":10294,"RandomSampler":10295,"ĠStream":10296,"ĠTFF":10297,"PoolExecutor":10298,"Ġmapper":10299,"WARM":10300,"CLASSIFICATION":10301,"ivariate":10302,"((\"":10303,"Brightness":10304,"TON":10305,"VOT":10306,"_'":10307,"ience":10308,"udi":10309,"Ġoh":10310,"Ġ[_":10311,"kele":10312,"Ġ:].":10313,"CKET":10314,"Ġminos":10315,"ĠExp":10316,"licas":10317,"PATCH":10318,"linearity":10319,"ASSET":10320,"glu":10321,"TopDownGenerateTarget":10322,"segmentor":10323,"assigners":10324,"episodes":10325,"Cursor":10326,"ĠSingleStageDetector":10327,"Ġweakref":10328,"CATEGORIES":10329,"ALPINE":10330,"BIT":10331,"bicycle":10332,"arded":10333,"Ġteam":10334,"Ġprom":10335,"Ġfuse":10336,"dataclasses":10337,"Ġdl":10338,"extras":10339,"ĠSpec":10340,"ĠIP":10341,"Ġyear":10342,"STEPS":10343,"codec":10344,"PECT":10345,"2022":10346,"ibc":10347,"Ġ101":10348,"LIGHT":10349,"problem":10350,"ĠTFXLM":10351,"HEADER":10352,"ĠShared":10353,"ĠFileNotFoundError":10354,"Ġetree":10355,"sensor":10356,"0000000000000000":10357,"MULTI":10358,"Authorization":10359,"ĠTimer":10360,"OPTIMIZER":10361,"Password":10362,"Ġequip":10363,"rivendiscovery":10364,"datadrivendiscovery":10365,"CERT":10366,"CUSTOM":10367,"pay":10368,"ylabel":10369,"stit":10370,"chan":10371,"Ġnltk":10372,"ital":10373,"Ġpyp":10374,"Ġmrec":10375,"Ġminitorch":10376,"umbs":10377,"abb":10378,"Ġai":10379,"lineKeyboard":10380,"Ġsequ":10381,"ĠUN":10382,"Ġsubmit":10383,"temperature":10384,"TopDownRandomFlip":10385,"ĠSettings":10386,"drug":10387,"ControlParameter":10388,"Scene":10389,"ĠPosition":10390,"Ġtermcolor":10391,"HelpFormatter":10392,"ĠCOLOR":10393,"\">":10394,".\".":10395,"4000":10396,"Acc":10397,"Missing":10398,"ev":10399,"fm":10400,"pm":10401,"restore":10402,"ĠmAP":10403,"abn":10404,"lick":10405,"igrate":10406,"Ġho":10407,"ĠCore":10408,"Ġdemo":10409,"obb":10410,"texts":10411,"mount":10412,"ĠVoice":10413,"interactive":10414,"pany":10415,"ContextBlock":10416,"Ġdisable":10417,"itted":10418,"layoutlm":10419,"xlnet":10420,"Ġphase":10421,"ĠCamembertConfig":10422,"DistilBert":10423,"EBPF":10424,"Ġlikelihood":10425,"boolean":10426,"\"')<":10427,"Cross":10428,"SR":10429,"^\\":10430,"ororo":10431,"deberta":10432,"__):<":10433,"urity":10434,"Ġbeanie":10435,"previous":10436,"Constraint":10437,"ĠIf":10438,"LEG":10439,"protos":10440,"1500":10441,"tablename":10442,"Ġtokenizers":10443,"initializers":10444,"what":10445,"ĠJob":10446,"TopDownGetRandomScaleRotation":10447,"alignment":10448,"Noise":10449,"Ġchildren":10450,"enticated":10451,"Ġlauncher":10452,"ticks":10453,"ĠXLMRobertaConfig":10454,",\"":10455,"FLA":10456,"Rew":10457,"eu":10458,"relev":10459,"Ġnf":10460,"Ġnat":10461,"raise":10462,"Ġslice":10463,"Ġicon":10464,"izing":10465,"ĠTable":10466,"ssh":10467,"ĠSMPL":10468,"Ġ:=":10469,"ilestones":10470,"fly":10471,"Residual":10472,"Ġcomment":10473,"INEAR":10474,"IGNOR":10475,"Ġtxt":10476,"Ġtermin":10477,"FEATURELIST":10478,"PrependInt":10479,"forecast":10480,"ynchronized":10481,"AFF":10482,"Diff":10483,"NC":10484,"Print":10485,"Warmup":10486,"hid":10487,"lbert":10488,"xt":10489,"changed":10490,"Ġsz":10491,"aga":10492,"aged":10493,"ĠFI":10494,"areas":10495,"ROBERTA":10496,"Ġtensorrt":10497,"\")[-":10498,"resnetv":10499,"Ġboxlist":10500,"Ġonce":10501,"UNK":10502,"ĠProphetNet":10503,"PERIO":10504,"letter":10505,"cookie":10506,"critic":10507,"NV":10508,"ius":10509,"lint":10510,"xlarge":10511,"erical":10512,"Ġnll":10513,"Ġfeed":10514,"Ġinplanes":10515,"Ġnums":10516,"coverage":10517,"ssue":10518,"Ġtool":10519,"Ġcols":10520,"Ġunhexlify":10521,"=(-":10522,"timedelta":10523,"transducer":10524,"Tokenization":10525,"Ġanalysis":10526,"Ġmulticlass":10527,"Show":10528,"ĠReformer":10529,"'''<":10530,"latex":10531,"Ġdocs":10532,"WithLogits":10533,"Iteration":10534,"MODULES":10535,"experiments":10536,"pider":10537,"Axis":10538,"ĠOutput":10539,"ĠPreTrained":10540,"ASSIGNERS":10541,"Capt":10542,"Upsample":10543,"dark":10544,"ham":10545,"hstack":10546,"vote":10547,"Ġentries":10548,"Ġnpt":10549,"oli":10550,"ometric":10551,"idname":10552,"Ġhf":10553,"ĠSymbol":10554,"Ġsess":10555,"Propos":10556,"ĠĠĠĠĠĠĠĠĠĠĠĠĠĠĠĠĠĠĠĠĠĠĠĠĠĠĠĠĠĠĠĠĠĠĠĠĠĠĠĠĠĠĠ":10557,"izedCrop":10558,"DATALO":10559,"[-]":10560,"Ġattributes":10561,"oost":10562,"Ġupdated":10563,"THREAD":10564,"Ġcodes":10565,"creator":10566,"Ġcalls":10567,"QUE":10568,"Ġnormalizer":10569,"ĠArgument":10570,"Ġexisting":10571,"Ġcalib":10572,"TSCH":10573,"squad":10574,"GRP":10575,"WRITE":10576,"posterior":10577,"integrations":10578,"WARMUP":10579,")',":10580,"Fused":10581,"GREEN":10582,"IMAGENET":10583,"IFIC":10584,"LV":10585,"WD":10586,"Width":10587,"hy":10588,"stds":10589,"Ġ\"+":10590,"lied":10591,"ĠDat":10592,"epic":10593,"Ġdefaults":10594,"Ġecho":10595,"quick":10596,"DELETE":10597,"ConvModule":10598,"ttLib":10599,"ĠĠĠĠĠĠĠĠĠĠĠĠĠĠĠĠĠĠĠĠĠĠĠĠĠĠĠĠĠĠĠĠĠĠĠĠĠĠĠĠĠĠĠĠ":10600,"Ġopenfl":10601,"ickness":10602,"later":10603,"ĠTestCase":10604,"destroy":10605,"Ġcomplex":10606,"MATRIX":10607,"Ġlabgraph":10608,"ĠTFAlbert":10609,"velocity":10610,"!\"<":10611,"Nature":10612,"fine":10613,"nav":10614,"tics":10615,"tutorial":10616,"Ġnone":10617,"Ġoup":10618,"Ġoptional":10619,"ceive":10620,"ĠTeam":10621,"Ġwarp":10622,"Ġ00":10623,"Ġhk":10624,"ĠAss":10625,"ĠLight":10626,"ĠLxmert":10627,"Ġ35":10628,"Ġrd":10629,"MAL":10630,"ResizedCrop":10631,"Ġ84":10632,"IDS":10633,"Ġsubject":10634,"ImageSets":10635,"material":10636,"HEET":10637,"ĠTensorType":10638,"Ġtransfer":10639,"HRFPN":10640,"PARAMS":10641,"Tracker":10642,"ĠAsset":10643,"Ġndarray":10644,"degree":10645,"/\",<":10646,"CAS":10647,"Domain":10648,"GD":10649,"Send":10650,"SESSION":10651,"`.<":10652,"mq":10653,"sup":10654,"uk":10655,"uu":10656,"eref":10657,"research":10658,"Ġtrun":10659,"chi":10660,"elcome":10661,"Ġaspect":10662,"unflatten":10663,"clr":10664,"integration":10665,"conditional":10666,"ĠTag":10667,"heet":10668,"=\"\",<":10669,"ETA":10670,"modified":10671,"([(":10672,"statement":10673,"ĠWe":10674,"subplot":10675,"ongo":10676,"csr":10677,"Seed":10678,"Ġanno":10679,"predicted":10680,"Ġcorrespon":10681,"Plus":10682,"ĠChar":10683,"AUC":10684,"Labels":10685,"ĠDATA":10686,"Ġmonkeypatch":10687,"cookies":10688,"ĠDetectionCheckpointer":10689,"EMAIL":10690,"skatertools":10691,"WINDOW":10692,"keleton":10693,"DATALOADER":10694,"Lite":10695,"dog":10696,"Ġpull":10697,"Ġown":10698,"isdigit":10699,"Ġstrip":10700,"Constructor":10701,"ightman":10702,"loading":10703,"ĠIJob":10704,"Ġvoc":10705,"Ġsecrets":10706,"upernet":10707,"REQ":10708,"runs":10709,"ILL":10710,"ANCHOR":10711,"armor":10712,"objective":10713,"blocking":10714,"usters":10715,"Ġ)),<":10716,"disabled":10717,"DEFIN":10718,"Ġsegmentation":10719,"AddField":10720,"Ġblspy":10721,"websocket":10722,"ifications":10723,"LICY":10724,"Ġmultiplier":10725,"PFX":10726,"ĠDistributedDataParallel":10727,"ĠMasked":10728,"INTEGER":10729,"ircuit":10730,"seek":10731,"ĠVOCAB":10732,"HorizontalFlip":10733,"12345678":10734,"TopDownMpiiDataset":10735,"WithLogitsLoss":10736,"Car":10737,"DDI":10738,"Patch":10739,"SAR":10740,"]-":10741,"hold":10742,"lu":10743,"Ġpat":10744,"Ġpublish":10745,"ĠTRI":10746,"ĠAll":10747,"configurable":10748,"Ġstudent":10749,"ĠMesh":10750,"ewShot":10751,"ĠNOR":10752,"accept":10753,"subplots":10754,"retri":10755,"ategies":10756,"ĠInstance":10757,"SETTINGS":10758,"FLAG":10759,"Ġspacy":10760,"replicas":10761,"SyncBatchNorm":10762,"squared":10763,"GRAY":10764,"Ġconfusion":10765,"clarative":10766,"ĠDeformConv":10767,"ĠIJobInput":10768,"Clear":10769,"He":10770,"bottleneck":10771,"prom":10772,"spe":10773,"xf":10774,"Ġfixed":10775,"online":10776,"chair":10777,"raft":10778,"exchange":10779,"ĠAR":10780,"ĠMULT":10781,"Ġymax":10782,"Ġkind":10783,"pective":10784,"Ġinterp":10785,"white":10786,"vertical":10787,"Transfer":10788,"Ġtopic":10789,"Ġexecution":10790,"AUDIO":10791,"traceback":10792,"aneous":10793,"Ġtracker":10794,"rinsic":10795,"EXTRACTORS":10796,"utcnow":10797,"einsum":10798,"ĠRecipe":10799,"cluded":10800,"Incre":10801,"potions":10802,"ĠGymEnv":10803,"ungarian":10804,"XYWHBBoxCoder":10805,"PERIOD":10806,"'%(":10807,"+'":10808,"Bool":10809,"DC":10810,"Hand":10811,"Pie":10812,"TRI":10813,"VIT":10814,"mIoU":10815,"tures":10816,"Ġ?":10817,"Ġagg":10818,"erlock":10819,"atype":10820,"Ġpalette":10821,"Ġmail":10822,"Ġcwd":10823,"into":10824,"ĠSm":10825,"Ġtesting":10826,"ĠELF":10827,"density":10828,"continue":10829,"Exist":10830,"')):<":10831,"Req":10832,"dotenv":10833,"chats":10834,"FILENAME":10835,"party":10836,"Ġpointnet":10837,"Distance":10838,"ĠNoOp":10839,"Ġbsz":10840,"pixels":10841,"ĠAlbertConfig":10842,"Aggreg":10843,"Properties":10844,"PA":10845,"Trigger":10846,"UAL":10847,"VC":10848,"imp":10849,"imize":10850,"arc":10851,"Ġrep":10852,"Ġmpl":10853,"argest":10854,"updated":10855,"inity":10856,"ĠCu":10857,"Ġls":10858,"INF":10859,"ĠAgent":10860,"pretty":10861,"acters":10862,"Ġelems":10863,"Ġsherlock":10864,"Ġ513":10865,"Ġtfds":10866,"CEArchives":10867,"docstring":10868,"ategories":10869,"288":10870,"Ġcounts":10871,"offsets":10872,"ĠFlash":10873,"PREC":10874,"Platform":10875,"Ġsuite":10876,"ĠFlaxBert":10877,"synchron":10878,"launcher":10879,"Ġstarlette":10880,"ĠFlaubertConfig":10881,"lecule":10882,"*',":10883,"/')<":10884,"MISSING":10885,"TX":10886,"cel":10887,"atar":10888,"redirect":10889,"Ġtt":10890,"Ġnu":10891,"Ġpoc":10892,"Ġpuzzle":10893,"Ġda":10894,"Ġdw":10895,"Ġaa":10896,"(\".\")<":10897,"Ġxmax":10898,"Ġ{:":10899,"gettext":10900,"DEV":10901,"Ġresample":10902,"':'":10903,"Ġhelpers":10904,"))),<":10905,"Ġcompile":10906,"interp":10907,"ullable":10908,"ynomial":10909,"charset":10910,"------------":10911,"Pytorch":10912,"World":10913,"ĠNetwork":10914,"MEMORY":10915,"orientation":10916,"ĠCenterRegionAssigner":10917,"ĠBuildExtension":10918,"Required":10919,"513":10920,"Cls":10921,"KIT":10922,"aze":10923,"pets":10924,"rsi":10925,"vf":10926,"vest":10927,"chastic":10928,"Ġnlp":10929,"lopen":10930,"Ġpaper":10931,"argsort":10932,"Ġ[],<":10933,"Ġwiki":10934,"anned":10935,"()))":10936,"opus":10937,"moe":10938,"Ġprops":10939,"Ġprocessed":10940,"Ġactor":10941,"Ġpredictor":10942,"ĠCollection":10943,"PREDI":10944,"trials":10945,"completed":10946,"Library":10947,"Ġfides":10948,"Cluster":10949,"Ġyolov":10950,"RESNETS":10951,"/\")<":10952,"ADE":10953,"Dummy":10954,"MC":10955,"Nd":10956,"auli":10957,"fcs":10958,"href":10959,"sts":10960,"Ġaws":10961,"ĠCAM":10962,"INullable":10963,"that":10964,"Ġeither":10965,"psnr":10966,"Product":10967,"ImageNet":10968,"Ġalgo":10969,"Repo":10970,"ĠResNeXt":10971,"Ġlet":10972,"Ġpermission":10973,"SPACE":10974,"RANCH":10975,"Ġvariant":10976,"Place":10977,"CHANGE":10978,"BACKEND":10979,"ĠDiag":10980,"legate":10981,"Timeout":10982,"restype":10983,"Ġeinsum":10984,"Ġvariables":10985,"Ġhexlify":10986,"Ġtkinter":10987,"Ġgrads":10988,"SCHEDULER":10989,"/*.":10990,"Fake":10991,"LVIS":10992,"basis":10993,"eer":10994,"aspect":10995,"Ġrecursive":10996,"='%":10997,"Ġgate":10998,"ĠCut":10999,"chee":11000,"ĠButton":11001,"Ġbeam":11002,"Child":11003,"FlipTransform":11004,"COLORS":11005,"egral":11006,"SelfTest":11007,"english":11008,"GaussianProcess":11009,"conditions":11010,"Uniform":11011,"RESOLUTION":11012,"umbnail":11013,"\"[":11014,"DST":11015,"Gcp":11016,"Hub":11017,"bf":11018,"vr":11019,"Ġzeros":11020,"representation":11021,"assed":11022,"Ġperson":11023,"dian":11024,"Ġmac":11025,"ely":11026,"Ġasdict":11027,"updates":11028,"confirm":11029,"ays":11030,"thest":11031,"observer":11032,"ĠBlenderbot":11033,"Ġpytz":11034,"ressors":11035,"Ġalgorithm":11036,"Ġactiv":11037,"multiply":11038,"blueprint":11039,"Ġaccum":11040,"RoIExtractor":11041,"Ġpriority":11042,"ruption":11043,"ootstrap":11044,"ĠAPINullable":11045,"ĠNestedTensor":11046,".\\":11047,"BRANCH":11048,"CAP":11049,"II":11050,"ZE":11051,"_:":11052,"aff":11053,"fwd":11054,"given":11055,"tm":11056,"onical":11057,"Ġremoved":11058,"Ġ\"../":11059,"ceed":11060,"ĠTSKArchives":11061,"004":11062,"ĠFrozen":11063,"rich":11064,"annet":11065,"Ġconcrete":11066,"Ġvid":11067,"STY":11068,"attach":11069,"userstories":11070,"CONST":11071,"traj":11072,"]]]<":11073,"licfile":11074,"Shifts":11075,"trigger":11076,"PERM":11077,"finished":11078,"Activity":11079,")}))<":11080,"Ġmarker":11081,"Ġ[{\"":11082,"ĠContent":11083,"wires":11084,"constraints":11085,"Ġmagnitude":11086,"Ġtabulate":11087,"Potion":11088,"Publisher":11089,"SING":11090,"punct":11091,"uck":11092,"Ġlock":11093,"divide":11094,"Ġmalib":11095,"raction":11096,"strument":11097,"igo":11098,"Ġhow":11099,"Ġhuman":11100,"\",)<":11101,"cob":11102,"],[":11103,"outer":11104,"ĠgetConfig":11105,"ĠMan":11106,"ĠMix":11107,"oku":11108,"Ġroute":11109,"ĠWindow":11110,"Ġ769":11111,"Heads":11112,"ĠDataContainer":11113,"Ġexternal":11114,"100000":11115,"ĠBaseBBoxCoder":11116,"ĠInlineKeyboard":11117,"Ġtxid":11118,"LINK":11119,"Ġdelimiter":11120,"Ġnetworks":11121,"AXIS":11122,"Ġposemb":11123,"ĠTokenizer":11124,"HERE":11125,"Summary":11126,"Ġny":11127,"lour":11128,"Ġ'#":11129,"Ġfee":11130,"='')<":11131,"park":11132,"plut":11133,"(\"../":11134,"addWidget":11135,"Ġlt":11136,"ffhq":11137,"ĠItem":11138,"Ġeig":11139,"ĠVector":11140,"Ġ[\"-":11141,"PATTER":11142,"{})":11143,"PIXEL":11144,"Debug":11145,"ColorJitter":11146,"mixer":11147,"pilation":11148,"DETE":11149,"ĠScript":11150,"hours":11151,"Ġblankly":11152,"bpplut":11153,"FNet":11154,"Fashion":11155,"LATION":11156,"QA":11157,"fusion":11158,"ihi":11159,"passes":11160,"solve":11161,"revert":11162,"room":11163,"Ġfd":11164,"Ġfan":11165,"unbind":11166,"oman":11167,"toy":11168,"annos":11169,"Ġld":11170,"ĠDWORD":11171,"ĠAtomic":11172,"ĠMBart":11173,"Ġeq":11174,"://{":11175,"ĠExec":11176,"Separable":11177,"which":11178,"globals":11179,"structured":11180,"Package":11181,"adaptive":11182,"VOID":11183,")?":11184,".',<":11185,"/\"":11186,">--":11187,"Bin":11188,"CY":11189,"Mesh":11190,"PAL":11191,"_)":11192,"har":11193,"silu":11194,"week":11195,"dialog":11196,"ĠEmpty":11197,"Install":11198,"ivers":11199,"Ġorient":11200,"ANNOT":11201,"house":11202,"near":11203,"istration":11204,"Running":11205,"flipped":11206,")),\"<":11207,"Ġlocals":11208,"ĠServer":11209,"taiga":11210,"ĠBoxes":11211,"recalls":11212,"Minimum":11213,"GENERATORS":11214,"Dependency":11215,"between":11216,"alphabet":11217,"Ġhandlers":11218,"METRICS":11219,")\",<":11220,">',<":11221,"VM":11222,"but":11223,"lax":11224,"lcd":11225,"mint":11226,"pids":11227,"wheel":11228,"yellow":11229,"zor":11230,"Ġdirs":11231,"inel":11232,"replay":11233,"Ġreload":11234,"Ġpod":11235,"Ġbegin":11236,"isnan":11237,"Ġdla":11238,"ĠFROM":11239,"Ġlb":11240,"ĠAES":11241,"ĠAuth":11242,"ĠSec":11243,"osummary":11244,"ĠInc":11245,"Ġunder":11246,"Inference":11247,"\"]]<":11248,"ĠExpression":11249,"STRUCT":11250,"Updater":11251,"Ġinitialized":11252,"ĠDepth":11253,"ĠBertTokenizerFast":11254,"organization":11255,"Optim":11256,"crops":11257,"NtGdiDdDDI":11258,"LARGE":11259,"Ġteacher":11260,"NULL":11261,"Owner":11262,"WM":11263,"gfile":11264,"orph":11265,"stake":11266,"rois":11267,"Ġcm":11268,"adratic":11269,"Ġdr":11270,"coeff":11271,"ĠCreate":11272,"ĠAudio":11273,"ĠSUPPORT":11274,"ĠIM":11275,"()}":11276,"Ġthem":11277,"ĠHash":11278,"Ġalb":11279,"Ġregular":11280,"RandomResizedCrop":11281,"Ġlearn":11282,"Ġcolorama":11283,"TOKENS":11284,"POSAL":11285,"hier":11286,"InstanceNorm":11287,"Webhook":11288,"DCNv":11289,"EPOCHS":11290,"ĠValidationError":11291,"ĠFilter":11292,"PFXMATRIX":11293,"Cipher":11294,"Gen":11295,"MSELoss":11296,"Stop":11297,"_\"":11298,"lmo":11299,"stand":11300,"Ġfut":11301,"Ġinformation":11302,"otonic":11303,"resolver":11304,"ĠLR":11305,"Ġoutfile":11306,"ATURE":11307,"Ġexact":11308,"quiet":11309,"spend":11310,"Ġaligo":11311,"ĠResize":11312,"Ġadded":11313,"Decay":11314,"Ġjoint":11315,"METADATA":11316,"loyment":11317,"Ġlinks":11318,"IntegerField":11319,"tune":11320,"ĠNormalize":11321,"Ġneeds":11322,"Cloud":11323,"INSERT":11324,"Ġprovides":11325,"heatmap":11326,"bootstrap":11327,"JOINT":11328,"Piece":11329,"hierarch":11330,")[:":11331,">(":11332,"Mem":11333,"SCHE":11334,"Xs":11335,"kg":11336,"nft":11337,"qp":11338,"tran":11339,"xp":11340,"remain":11341,"rabic":11342,"Ġ\":":11343,"Ġoperation":11344,"consensus":11345,"Ġhw":11346,"cour":11347,"prog":11348,"Ġxmin":11349,"thic":11350,"ĠStop":11351,"ĠSpeech":11352,"pips":11353,"keyword":11354,"metry":11355,"Ġintrinsics":11356,"Ġelf":11357,"COORD":11358,"formats":11359,"Ġplace":11360,"catter":11361,"noop":11362,"0000000":11363,"PRESET":11364,"orders":11365,"aises":11366,"TRAINING":11367,"ĠKeyboard":11368,"POSIT":11369,"terminal":11370,"Ġhostname":11371,"Ġelements":11372,"WORKERS":11373,"ĠPointAssigner":11374,"Timer":11375,"Ġtelethon":11376,"ritic":11377,"ĠEfficientNetV":11378,"INSTANCE":11379,"RootAs":11380,"DeltaXYWHBBoxCoder":11381,"DEFINED":11382,"250":11383,"=<":11384,"Cog":11385,"Pix":11386,"Sampling":11387,"_(-":11388,"ionna":11389,"Ġreci":11390,"Ġir":11391,"Ġdefined":11392,"pology":11393,"Ġconsole":11394,"ĠOn":11395,"Ġrtol":11396,"2014":11397,"MOT":11398,"Ġabort":11399,"Progress":11400,"Ġchr":11401,"CEL":11402,"UPDATE":11403,"specific":11404,"Cost":11405,"overload":11406,"BUFF":11407,"Ġquaternion":11408,"Ġusage":11409,"ĠAutoConfig":11410,"Ġexecutor":11411,"PointF":11412,"Ġradix":11413,"cmds":11414,"dispatch":11415,"Ġsentencepiece":11416,"blenderbot":11417,"ĠCheckpoint":11418,"FRAME":11419,"LANGU":11420,"torrent":11421,")[-":11422,"BG":11423,"BCE":11424,"Camera":11425,"Factor":11426,"Mult":11427,"bri":11428,"euler":11429,"ky":11430,"motion":11431,"nl":11432,"raries":11433,"severity":11434,"distances":11435,"Ġcf":11436,"Ġidentifier":11437,"omatic":11438,"approx":11439,"Ġwave":11440,"icip":11441,"ĠAut":11442,"ĠLock":11443,"Ġstones":11444,"Ġunknown":11445,"Ġdatamodule":11446,"ROT":11447,"Ġalg":11448,"Chain":11449,"inside":11450,"Ġ|=":11451,"EnumType":11452,"Dictionary":11453,"Ġdocuments":11454,"Ġoverwrite":11455,"TRANSACTION":11456,"indicators":11457,"ACTIV":11458,"ĠActivity":11459,"ĠOpenAIGPTConfig":11460,"Ġefficientnet":11461,"ĠtensorboardX":11462,")'<":11463,")})<":11464,">[":11465,"BL":11466,"HA":11467,"RPC":11468,"eded":11469,"fairseq":11470,"rd":11471,"take":11472,"imwrite":11473,"robot":11474,"Ġtre":11475,"enhance":11476,"ana":11477,"urations":11478,"Ġfx":11479,"Ġocc":11480,"Ġbgr":11481,"Ġdefine":11482,"poco":11483,"ement":11484,"Ġhop":11485,"ĠAdapt":11486,"ĠSum":11487,"preter":11488,"()]":11489,"ĠBad":11490,"minutes":11491,"Ġbackground":11492,"ĠĠĠĠĠĠĠĠĠĠĠĠĠĠĠĠĠĠĠĠĠĠĠĠĠĠĠĠĠĠĠĠĠĠĠĠĠĠĠĠĠ":11493,"Ġobserver":11494,"transfo":11495,"Ġ{\"$":11496,"Ġlinecache":11497,"Ġ|<":11498,"Ġendpoint":11499,"FORMATION":11500,"aload":11501,"modaler":11502,"median":11503,"TransfoXL":11504,"leted":11505,"NoOf":11506,"ProjectFactory":11507,"Prior":11508,"sequential":11509,"blacklist":11510,"ENGINE":11511,"ĠSHA":11512,"ĠStruct":11513,"ighbors":11514,"needs":11515,"Ġpubkey":11516,");<":11517,"Db":11518,"JIT":11519,"bmm":11520,"failed":11521,"hsv":11522,"languages":11523,"merged":11524,"mysql":11525,"nat":11526,"uo":11527,"Ġedges":11528,"dependency":11529,"roformer":11530,"utors":11531,"ĠTRAN":11532,"ĠFix":11533,"ables":11534,"ĠSize":11535,"kwarg":11536,"jectors":11537,"125":11538,"Ġorgan":11539,"ĠHas":11540,"ĠHook":11541,"RID":11542,"Files":11543,"UNI":11544,"queryset":11545,"Shuffle":11546,"multiset":11547,"Ġreadme":11548,"VALU":11549,"Ġregistered":11550,"Ġlookup":11551,"Ġblur":11552,"ĠAttention":11553,"Ġlichee":11554,"Ġplots":11555,"Ġmanifest":11556,"Ġsgui":11557,"TRANSFORMER":11558,"responses":11559,"Ġmeasure":11560,"Ġshortcut":11561,"TEMP":11562,"ForeignKey":11563,"DROP":11564,"BILINEAR":11565,"'%":11566,"025":11567,"Drop":11568,"Email":11569,"PK":11570,"QPointF":11571,"brightness":11572,"dag":11573,"dup":11574,"fba":11575,"hue":11576,"iB":11577,"irror":11578,"Ġtb":11579,"Ġspan":11580,"Ġgre":11581,"ertificate":11582,"vile":11583,"ĠArabic":11584,"outh":11585,"ATSS":11586,"Ġshapes":11587,"regressors":11588,"Ġprojection":11589,"Ġbuiltin":11590,"ĠValue":11591,"Exit":11592,"placeholder":11593,"dists":11594,"Ġinteraction":11595,"ĠStandard":11596,"Ġlinewidth":11597,"densepose":11598,"Assign":11599,"good":11600,"Animal":11601,"Ġmodified":11602,"InteractionData":11603,"Ġneural":11604,"Ġdenominator":11605,"Area":11606,"Feed":11607,"HAND":11608,"Raises":11609,"Skip":11610,"THE":11611,"bagua":11612,"ged":11613,"gloo":11614,"kin":11615,"lated":11616,"ose":11617,"xor":11618,"}}":11619,"sell":11620,"lett":11621,"__)))<":11622,"Ġslot":11623,"Ġ\"\")":11624,"Ġbt":11625,"odings":11626,"plain":11627,"Ġdevices":11628,"ĠMon":11629,"Ġenviron":11630,"Ġenerg":11631,"Ġmmhuman":11632,"ALLOW":11633,"\"]),<":11634,"pendent":11635,"ĠHO":11636,"openapi":11637,"expert":11638,"401":11639,"retrieve":11640,"ĠStorage":11641,"stdin":11642,"PIC":11643,"LACK":11644,"Decorator":11645,"Ġspm":11646,"Mixer":11647,"Perm":11648,"recipes":11649,"PYTORCH":11650,"ĠCOM":11651,"ĠClassification":11652,"pubkey":11653,"ĠPrivate":11654,"ography":11655,"NVML":11656,"${":11657,"'})<":11658,"PON":11659,"TERS":11660,"Wait":11661,"bank":11662,"xnet":11663,"secrets":11664,"stock":11665,"__)),":11666,"peated":11667,"Ġtorchdrug":11668,"figsize":11669,"anda":11670,"scipy":11671,"ĠPack":11672,"Ġnnunet":11673,"Ġrig":11674,"ĠVERSION":11675,"ĠConsole":11676,"novel":11677,"seqio":11678,"Ġqs":11679,"PLAY":11680,"Ġseries":11681,"]]]":11682,"switch":11683,"Ġtimer":11684,"365":11685,"Ġrotated":11686,"Ġprocessor":11687,"ankle":11688,"BLOCKS":11689,"priority":11690,"MARY":11691,"Work":11692,"likelihood":11693,"EnumTypeWrapper":11694,"AES":11695,"Last":11696,"Prun":11697,"UV":11698,"WER":11699,"bed":11700,"kd":11701,"pes":11702,"solution":11703,"ora":11704,"Ġngram":11705,"Ġcategories":11706,"umper":11707,"Ġ\"*":11708,"ada":11709,"added":11710,"ism":11711,"Ġder":11712,"(\"__":11713,"Ġdataframe":11714,"INFORMATION":11715,"ĠDer":11716,"Ġcons":11717,"bases":11718,"ĠBCE":11719,"ĠRed":11720,"ĠeStart":11721,"denom":11722,"eader":11723,"forest":11724,"Ġ600":11725,"Ġalias":11726,"Ġzoom":11727,"Ġreduced":11728,"Commands":11729,"Ġcapt":11730,"BUY":11731,"Ġutility":11732,"Ġ::-":11733,"ĠTransformation":11734,"ĠMultiple":11735,"ĠRole":11736,"Ġsupports":11737,"Execution":11738,"ĠTrack":11739,"ĠActivation":11740,"ĠMobileBert":11741,"DistributedDataParallel":11742,"kernwin":11743,"ĠQiskitNature":11744,"ĠForeignKey":11745,"DetectoRS":11746,"COR":11747,"FON":11748,"Git":11749,"Machine":11750,"NA":11751,"NEST":11752,"Ra":11753,"each":11754,"hk":11755,"reps":11756,"rots":11757,"Ġcipher":11758,"datas":11759,"Ġincrement":11760,"Ġtorchx":11761,"liao":11762,"logdir":11763,"Ġxt":11764,"ĠSuper":11765,"']).":11766,"prefetch":11767,"ĠMissing":11768,"2018":11769,"20200":11770,"registered":11771,"submit":11772,"Ġtexts":11773,"stddev":11774,"SetArchive":11775,"Ġ2020":11776,"convertor":11777,"matcher":11778,"Ġspecial":11779,"WEB":11780,"FeatureExtractor":11781,"roles":11782,"gradients":11783,"ĠChannelType":11784,"ĠCTRLConfig":11785,"VIDEO":11786,"Ġsherlockliao":11787,"HI":11788,"HANDLE":11789,"Pixel":11790,"iT":11791,"erf":11792,"define":11793,"Ġinfer":11794,"isclose":11795,"protein":11796,"ĠFPN":11797,"ĠDel":11798,"permission":11799,"boxlist":11800,"Ġequal":11801,"ĠNE":11802,"Ġconfigure":11803,"tfrecord":11804,"Prober":11805,"Comm":11806,"rtual":11807,"packet":11808,"notify":11809,"Ġconverter":11810,"cropped":11811,"Ġserializer":11812,"ĠTestClient":11813,"Ġcontents":11814,"SERE":11815,"finder":11816,"ĠSearch":11817,"ĠView":11818,"covered":11819,"ĠDistilBertConfig":11820,"ĠStatus":11821,"Ġbasicsr":11822,"ĠElectraConfig":11823,"ĠMutableMapping":11824,"AlterField":11825,"Balanced":11826,"Failure":11827,"GF":11828,"HW":11829,"Orig":11830,"Support":11831,"rsplit":11832,"vd":11833,"xb":11834,"zA":11835,"rewards":11836,"rome":11837,"pedia":11838,"people":11839,"Ġspe":11840,"Ġspect":11841,"agraph":11842,"MAC":11843,"Ġprovider":11844,"aced":11845,"ConvFCBBoxHead":11846,"nerf":11847,"])]<":11848,"LISH":11849,"subscribe":11850,"Ġaddr":11851,"POLICY":11852,"ĠInstances":11853,"CLS":11854,"Unable":11855,"Ġcorner":11856,"Ġ152":11857,"Direction":11858,"SHOT":11859,"Ġfastreid":11860,"Ġautovideo":11861,"Analy":11862,"ĠMOD":11863,"Ġbounding":11864,"candidate":11865,"ĠSerial":11866,"ĠCommandHandler":11867,"estimator":11868,"Ġtlbr":11869,"betas":11870,"aliases":11871,"ĠFusedLeakyReLU":11872,"ATTRIBUTES":11873,"Ġtheseus":11874,"mobilebert":11875,"ynchronizedBatchNorm":11876,"Ġcorresponding":11877,"Cool":11878,"CUL":11879,"CrossEntropy":11880,"ILED":11881,"Public":11882,"ares":11883,"cript":11884,"equi":11885,"family":11886,"megatron":11887,"xff":11888,"Ġuri":11889,"Ġema":11890,"Ġego":11891,"ons":11892,"security":11893,"challenge":11894,"Ġpitch":11895,"Ġcum":11896,"ulong":11897,"='\\":11898,"Ġgp":11899,"Ġ(%":11900,"INET":11901,"ĠOperation":11902,"']]<":11903,"ĠMinkowski":11904,"ĠIRF":11905,"121":11906,"quire":11907,"201":11908,"\"]))<":11909,"ĠDataKeys":11910,"utoModel":11911,"plements":11912,"CADE":11913,"Ġprojects":11914,"ĠDeberta":11915,"ACTIONS":11916,"riever":11917,"CROP":11918,"CROSS":11919,"Ġoverrides":11920,"Ġmedian":11921,"PCKh":11922,"ĠBartConfig":11923,"xcit":11924,":]:<":11925,"Lat":11926,"LSTM":11927,"Onnx":11928,"PM":11929,"PLO":11930,"PAGE":11931,"east":11932,"hydra":11933,"lags":11934,"oct":11935,"publish":11936,"Ġort":11937,"Ġndim":11938,"eth":11939,"Ġfu":11940,"Ġboth":11941,"('.')<":11942,"ĠCl":11943,"ĠSO":11944,"ATH":11945,"Ġresources":11946,"nets":11947,"egers":11948,"Ġcollection":11949,"phys":11950,"ernoul":11951,"Ġchem":11952,"starts":11953,"Ġdimensions":11954,"ĠWEIGHT":11955,"Ġwhite":11956,"converters":11957,"Defaults":11958,"Ġspecify":11959,"ssesbo":11960,"carla":11961,"Ġtables":11962,"serialization":11963,"Disk":11964,"bijectors":11965,"Ġchunks":11966,"Ġsyscall":11967,"rolling":11968,"='+',<":11969,"fficult":11970,"Database":11971,"ĠPreTrainedTokenizer":11972,"ernoulli":11973,"BB":11974,"FewShot":11975,"Hero":11976,"Ii":11977,"fea":11978,"west":11979,"}-{":11980,"changes":11981,"fied":11982,"Ġmish":11983,"Ġmilestone":11984,"Ġsolver":11985,"Ġhour":11986,"Ġ2000":11987,"ĠCR":11988,"forms":11989,"ĠFrame":11990,"Ġ**__):<":11991,"Ġrespon":11992,"Ġrhs":11993,"undo":11994,"Ġkeyword":11995,"Ġintermediate":11996,"USAL":11997,"Ġlex":11998,"riteria":11999,"whitespace":12000,"CAUSAL":12001,"Objects":12002,"Ġfiltered":12003,"omething":12004,"DistributedSampler":12005,"velopment":12006,"ipublicfiles":12007,"maybe":12008,"Ġsequences":12009,"fbaipublicfiles":12010,"Ġenergy":12011,".)}))<":12012,"110":12013,"Bn":12014,"FG":12015,"Fold":12016,"Half":12017,"IE":12018,"Low":12019,"Music":12020,"Push":12021,"gfl":12022,"kill":12023,"mango":12024,"rates":12025,"wal":12026,"Ġ],":12027,"chdir":12028,"elt":12029,"dataSize":12030,"puts":12031,"('{}":12032,"ĠCIFAR":12033,"Ġxmodaler":12034,"addresses":12035,"third":12036,"']):<":12037,"kware":12038,"Connect":12039,"ocore":12040,"Ġexpi":12041,"DataType":12042,"LECT":12043,"Invite":12044,"fixtures":12045,"Resolution":12046,"summar":12047,"caption":12048,"FIER":12049,"ventory":12050,"PROPOSAL":12051,"Generalized":12052,"IMPORT":12053,"genius":12054,"Ġlevels":12055,"mixed":12056,"Longformer":12057,"pache":12058,"caps":12059,"Suite":12060,"OWNER":12061,"IDENTIFICATION":12062,"SENTENCE":12063,"DURATION":12064,"HIST":12065,"SARCHIVE":12066,"Tr":12067,"fh":12068,"Ġemoji":12069,"atz":12070,"roids":12071,"Ġshear":12072,"Ġsionna":12073,"Ġfine":12074,"Ġfuture":12075,"Ġinsert":12076,"Ġbagua":12077,"Ġwx":12078,"profiles":12079,"ĠAns":12080,"configlib":12081,"=\"./":12082,"()(":12083,"Ġunicorn":12084,"RAPH":12085,"arman":12086,"Ġ63":12087,"ĠConvert":12088,"Enable":12089,"Serial":12090,"Attachment":12091,"Ġidxs":12092,"densenet":12093,"Diag":12094,"sterize":12095,"VOCdevkit":12096,"Ġetag":12097,"ĠMetaData":12098,"Metrics":12099,"NEAR":12100,"ounce":12101,"emonic":12102,"Close":12103,"deletion":12104,"rwightman":12105,"TEMPLATE":12106,"Efficient":12107,"Pattern":12108,"RST":12109,"Relu":12110,"Sort":12111,"Squ":12112,"Using":12113,"Write":12114,"ZW":12115,"spl":12116,"Ġpbar":12117,"Ġphi":12118,"didates":12119,"Ġcelery":12120,"Ġ\"'":12121,"clide":12122,"isation":12123,"icdar":12124,"ĠCur":12125,"ĠFuture":12126,"addItem":12127,"Ġtok":12128,"ETYPE":12129,"minmax":12130,"Ġ%#":12131,"UTF":12132,"Ġurls":12133,"neural":12134,"ĠImageDraw":12135,"Ġclvm":12136,"metaclass":12137,"BNReLU":12138,"Ġmatched":12139,"ĠCoco":12140,"learner":12141,"itten":12142,"mixup":12143,"activity":12144,"Ġoperators":12145,"ĠXLMConfig":12146,"UNetBase":12147,"Move":12148,"Ġwebsocket":12149,"Apply":12150,"ĠAssertionError":12151,"widgets":12152,"PositionalEncoding":12153,"ĠCLASS":12154,"clidean":12155,"-\\":12156,"::<":12157,"Legacy":12158,"Panoptic":12159,"ene":12160,"Ġmel":12161,"Ġboard":12162,"ĠFinal":12163,"Ġll":12164,"Ġlarge":12165,"vidia":12166,"shards":12167,"ĠALL":12168,"']._":12169,"ĠMember":12170,"observations":12171,"ĠBee":12172,"ĠUSE":12173,"ĠUpsample":12174,"rading":12175,"LEAR":12176,"LEAN":12177,"Ġ672":12178,"Ġlistdir":12179,"Ġlogit":12180,"OCAL":12181,"Ġclassifiers":12182,"imitives":12183,"quantity":12184,"ĠDistribution":12185,"Ġlocale":12186,"Ġexpanded":12187,"EvalHook":12188,"CONTAINER":12189,"AFFINE":12190,"synchronize":12191,"cobian":12192,"Ġorganization":12193,"CORE":12194,"Estim":12195,"HIDDEN":12196,"Kind":12197,"NONE":12198,"TAG":12199,"lamb":12200,"mol":12201,"sintel":12202,"chapter":12203,"Ġmysql":12204,"Ġ'':<":12205,"Ġtorchquantum":12206,"Ġbad":12207,"resample":12208,"ĠTri":12209,"Ġdns":12210,"Ġdocker":12211,"Ġduring":12212,"Ġln":12213,"ĠDO":12214,"acker":12215,"ĠMap":12216,"Ġrbbox":12217,"ĠRep":12218,"Ġknown":12219,"PTY":12220,"ĠConstant":12221,"curr":12222,"CONDS":12223,"Ġmakedirs":12224,"PNG":12225,"ĠYou":12226,"webhook":12227,"ĠDictionary":12228,"ĠPolicy":12229,"ĠNamedTemporaryFile":12230,"Ġangles":12231,"Accuracy":12232,"twitter":12233,"ĠJAXArray":12234,"+'/":12235,"=(<":12236,"MES":12237,"MATCH":12238,"Win":12239,"qs":12240,"sma":12241,"Ġnix":12242,"fides":12243,"Ġmul":12244,"ingyu":12245,"Ġreturns":12246,"ĠTRAIN":12247,"ffmpeg":12248,"DataSource":12249,"movie":12250,"Ġ55":12251,"Ġscreen":12252,"Instances":12253,"posite":12254,"batched":12255,"ceptual":12256,"ĠConcatDataset":12257,"openmmlab":12258,"FAILED":12259,"assertRaises":12260,"Shader":12261,"Ġserialize":12262,"Ġautoshape":12263,"Ġsegments":12264,"Ġdiscopy":12265,"agged":12266,"connected":12267,"rength":12268,"Normalization":12269,"Route":12270,"Current":12271,"NONSTYLEPROPERTYCHANGESETARCHIVE":12272,"LAYERPARAMETER":12273,"ARRAYARCHIVE":12274,"ĠDiscord":12275,"Calc":12276,"Ġfutures":12277,"448":12278,"CUB":12279,"Ge":12280,"Http":12281,"ICON":12282,"Spider":12283,"await":12284,"pandas":12285,"tfl":12286,"onom":12287,"alance":12288,"Ġnear":12289,"ĠChoice":12290,"ĠPegasus":12291,"ĠDate":12292,"shutdown":12293,"Ġjit":12294,"Ġ38":12295,"randperm":12296,"DataDict":12297,"ĠUse":12298,"Ġjsonify":12299,"ITICAL":12300,"ĠUnicode":12301,"Extra":12302,"ABIL":12303,"retry":12304,"Ġwhat":12305,"ĠProject":12306,"msgs":12307,"playlist":12308,"Interrupt":12309,"winTransformer":12310,"histogram":12311,"CONTRA":12312,"warc":12313,"wikidata":12314,"Created":12315,"TABLESTYLE":12316,"prophetnet":12317,"ĠTOKEN":12318,");":12319,"Body":12320,"CAR":12321,"Game":12322,"Misc":12323,"PUS":12324,"Sql":12325,"Shear":12326,"TES":12327,"clf":12328,"vmap":12329,"Ġed":12330,"routes":12331,"Ġ'[":12332,"Ġ'',":12333,"Ġfar":12334,"Ġ\"\":<":12335,"Ġdefinition":12336,"Ġgpus":12337,"validators":12338,"Ġhor":12339,"coarse":12340,"qualize":12341,"ĠSAM":12342,"ĠMedi":12343,"meter":12344,"verg":12345,"LEARCHIVE":12346,"ConfigDict":12347,"tele":12348,"flask":12349,"ĠVAL":12350,"Ġtexture":12351,"SSD":12352,"contextlib":12353,"Ġchecksec":12354,"Ġquality":12355,"Ġreversed":12356,"TSWP":12357,"HRNet":12358,"reppoints":12359,"Ġcmdclass":12360,"Trace":12361,"offline":12362,"Ġpolygons":12363,"Controller":12364,"SEGMENT":12365,"truncated":12366,"articles":12367,"DecodeError":12368,"BASIC":12369,"cub":12370,"farmer":12371,"Ġaggregate":12372,"Ġnan":12373,"Ġ':":12374,"Ġsac":12375,"Ġfcos":12376,"Ġbounds":12377,"ulers":12378,"strategies":12379,"odm":12380,"Ġwd":12381,"\",),<":12382,"Ġ29":12383,"(\"{":12384,"ĠFID":12385,"ĠFull":12386,"Ġlit":12387,"Ġcond":12388,"ĠSl":12389,"RELU":12390,"Ġprog":12391,"Ġ:])<":12392,"caller":12393,"writ":12394,"traces":12395,"ENTION":12396,"clients":12397,"syncbn":12398,"Ġmsginfo":12399,"DOUB":12400,"})\"<":12401,"Ġproblem":12402,"weet":12403,"directories":12404,"Ġverts":12405,"frag":12406,"LABELS":12407,"Ġfreqtrade":12408,"StepLR":12409,"Ġuvicorn":12410,"NGKey":12411,"ĠNewType":12412,"ĠCoroutine":12413,"ĠAccuracy":12414,"communicate":12415,"CASCADE":12416,"vergence":12417,"Edit":12418,"Fetch":12419,"Matern":12420,"Vision":12421,"ied":12422,"ka":12423,"paces":12424,"tain":12425,"xz":12426,"references":12427,"recog":12428,"Ġtau":12429,"asr":12430,"__\",":12431,"Ġcdf":12432,"Ġii":12433,"Ġow":12434,"izable":12435,"liers":12436,"seract":12437,"setter":12438,"(\"\")<":12439,"ypass":12440,"IND":12441,"ĠMP":12442,"oregressive":12443,"builtins":12444,"ETH":12445,"Ġscaling":12446,"ĠNu":12447,"ĠNULL":12448,"Ġcho":12449,"policies":12450,"Ġcurriculum":12451,"ĠNote":12452,"Ġpady":12453,"CAST":12454,"topics":12455,"NotExist":12456,"Ġcommons":12457,"WithLMHeadModel":12458,"IZERS":12459,"Actions":12460,"HRT":12461,"Recipe":12462,"DENSE":12463,"Rotated":12464,"flatbuffers":12465,"folders":12466,"Ġflop":12467,"installed":12468,"Ġpreprocessors":12469,"sinkhorn":12470,"mcdo":12471,"Pers":12472,"REST":12473,"Sensor":12474,"Solver":12475,"Tool":12476,"Tags":12477,"]\")<":12478,"]].":12479,"aid":12480,"bon":12481,"dependent":12482,"almost":12483,"difference":12484,"Ġcr":12485,"otor":12486,"poc":12487,"scorer":12488,"Ġliteral":12489,"DETR":12490,"CHO":12491,"ĠRES":12492,"ENUM":12493,"1280":12494,"Ġcov":12495,"Ġugettext":12496,"ĠNon":12497,"2016":12498,"Configs":12499,"minimal":12500,"Ġchanged":12501,"FID":12502,"ields":12503,"Ġbatches":12504,"333":12505,"express":12506,"TestModel":12507,"aked":12508,"ounding":12509,"Ġleast":12510,"Ġcaller":12511,"DOCUMENT":12512,"sqlalchemy":12513,"Ġbinance":12514,"Ġframework":12515,"ĠGeneral":12516,"sensitive":12517,"ĠSTATE":12518,"TRANSFORMS":12519,"Ġcallbacks":12520,"CATEGORY":12521,"Ġscheme":12522,"ĠNameError":12523,">})<":12524,"Bear":12525,"OrderedDict":12526,"sac":12527,"ĠERROR":12528,"leaf":12529,"alth":12530,"ances":12531,"Ġinside":12532,"Ġbr":12533,"ĠTr":12534,"Ġhyper":12535,"ĠFLA":12536,"Ġlut":12537,"Ġconversion":12538,"ocs":12539,"minor":12540,"fixer":12541,"flownet":12542,"Ġply":12543,"FileDescriptor":12544,"Ġzlib":12545,"seqs":12546,"Challenge":12547,"refs":12548,"PLUG":12549,"COMPL":12550,"ĠResLayer":12551,"nowled":12552,"Users":12553,"Ġobjective":12554,"permutation":12555,"Ġoptimizers":12556,"assigned":12557,"aterial":12558,"drn":12559,"MMCV":12560,"ĠEnvironment":12561,"ĠIndexError":12562,"ĠXLNetConfig":12563,"ĠGatewayDispatch":12564,"KITTI":12565,"\"^":12566,"'^":12567,"112":12568,"EPE":12569,"FROM":12570,"PCT":12571,"RN":12572,"Zero":12573,"]}<":12574,"cutoff":12575,"dset":12576,"prices":12577,"rmi":12578,"sst":12579,"}&":12580,"Ġrandint":12581,"implementation":12582,"eration":12583,"Ġsure":12584,"Ġ\"(":12585,"Ġ\"..":12586,"ĠTree":12587,"Ġhue":12588,"Ġdc":12589,"coins":12590,"numeric":12591,"ĠIPython":12592,"Ġdilations":12593,"Ġkconfiglib":12594,"Ġseen":12595,"ĠNO":12596,"conventions":12597,"Inf":12598,"Ġthere":12599,"spacing":12600,"Expected":12601,"ĠĠĠĠĠĠĠĠĠĠĠĠĠĠĠĠĠĠĠĠĠĠĠĠĠĠĠĠĠĠĠĠĠĠĠĠĠĠĠĠĠĠĠĠĠĠ":12602,"ĠWav":12603,"Ġpoco":12604,"experts":12605,"markers":12606,"txs":12607,"Ġextras":12608,"factories":12609,"probability":12610,"Coin":12611,"SHAD":12612,"QtWidgets":12613,"supervised":12614,"Ġuniform":12615,"ProjectAdmin":12616,"Ġparents":12617,"coordinates":12618,"Ġtriton":12619,"grees":12620,"Ġmev":12621,"visualize":12622,"LICENSERE":12623,"COLUMNS":12624,"BooleanField":12625,"landmarks":12626,"Ġ{{_":12627,"tschchartseries":12628,"LICENSEREQUEST":12629,"AuditLog":12630,"BTC":12631,"Binding":12632,"MER":12633,"Remote":12634,"Sur":12635,"eh":12636,"nop":12637,"ochastic":12638,"rDict":12639,"tract":12640,"}.\")<":12641,"Ġes":12642,"imap":12643,"recursive":12644,"stft":12645,"chid":12646,"Ġpjoin":12647,"Ġplayer":12648,"umps":12649,"Ġaz":12650,"produ":12651,"ĠSU":12652,"Ġstudy":12653,"Conversion":12654,"ONLY":12655,"Ġvs":12656,"ĠBLOCK":12657,"Ġcompat":12658,"ĠHAS":12659,"BaseAutoModel":12660,"pbr":12661,"Ġmeans":12662,"PLES":12663,"rotmat":12664,"Ġpadx":12665,"Ġstates":12666,"Boxes":12667,"triton":12668,"Ġspecs":12669,"precate":12670,"augmentations":12671,"ĠXLMProphetNet":12672,"LICATION":12673,"GROUPS":12674,"OPTIC":12675,"ocrnet":12676,"coordinate":12677,"compact":12678,"balanced":12679,"SelfAttention":12680,"Relative":12681,"Ġvolume":12682,"BottomUpCocoDataset":12683,"ENGLISH":12684,"FILLARCHIVE":12685,"Media":12686,"RANDOM":12687,"CONTROL":12688,"ĠTRANS":12689,"SHADOW":12690,"BaseAutoModelClass":12691,")\"":12692,":%(":12693,"ELU":12694,"Neck":12695,"OD":12696,"VPN":12697,"bridge":12698,"celery":12699,"nll":12700,"sb":12701,"vox":12702,"wg":12703,"Ġiters":12704,"enn":12705,"amil":12706,"Ġmk":12707,"Ġsf":12708,"ising":12709,"Ġdz":12710,"utility":12711,"ĠDCN":12712,"ntuple":12713,"ENU":12714,"queues":12715,"Steps":12716,"regs":12717,")))))<":12718,"located":12719,"itions":12720,"ndimage":12721,"layernorm":12722,"ABS":12723,"Reason":12724,"EXP":12725,"aking":12726,"skin":12727,"INFOARCHIVE":12728,"overwrite":12729,"Pooler":12730,"titles":12731,"ityscapesDataset":12732,"dumpulator":12733,"Ġboundary":12734,"canvas":12735,"Ġcosine":12736,"Ġmixed":12737,"BUTTON":12738,"Ġurlopen":12739,"ĠDistributedSampler":12740,"ĠGetRootAs":12741,"ĠRetri":12742,"circle":12743,"ĠModulated":12744,"Ġpyplot":12745,".%":12746,"=>":12747,"FET":12748,"Hot":12749,"Slice":12750,"Solarize":12751,"`,":12752,"ually":12753,"}[":12754,"Ġer":12755,"Ġtalib":12756,"Ġna":12757,"Ġns":12758,"Ġfrequency":12759,"agination":12760,"inters":12761,"Ġwarn":12762,"ĠFP":12763,"ĠSA":12764,"numba":12765,"umentations":12766,"()[:":12767,"moving":12768,"REC":12769,"Ġprox":12770,"ANN":12771,"Composition":12772,"Attn":12773,"Ġgeneration":12774,"ĠModelOutput":12775,"Transaction":12776,"Ġoptimization":12777,"CHARTAXIS":12778,"ENSOR":12779,"superuser":12780,"OPTION":12781,"NEW":12782,"LazyTensor":12783,"Ġ'{}'":12784,"PANOPTIC":12785,"sessions":12786,"ĠSignal":12787,"ĠTopic":12788,"gICA":12789,"ĠNORM":12790,"!\\":12791,".'":12792,"LESS":12793,"NAS":12794,"Si":12795,"Sink":12796,"SHEET":12797,"TW":12798,"VOL":12799,"clock":12800,"fds":12801,"mish":12802,"sine":12803,"youtube":12804,"stmt":12805,"Ġtsv":12806,"fromhex":12807,"__=='":12808,"Ġ\"|":12809,"Ġretrieve":12810,"Ġ0000":12811,"ĠSplit":12812,"ĠSource":12813,"Concat":12814,"ETTE":12815,"STRI":12816,"usr":12817,"Ġdice":12818,"alect":12819,"Ġpytracking":12820,"ĠNON":12821,"acency":12822,"Ġthen":12823,"armv":12824,"APPLY":12825,"Ġdists":12826,"ĠResidual":12827,"Short":12828,"ĠProgress":12829,"Ġterms":12830,"})\")<":12831,"anese":12832,"Ġtriangles":12833,"ĠRoI":12834,"Authenticated":12835,"SelfOutput":12836,"Signal":12837,"Ġstarkware":12838,"Ġnvml":12839,"feedforward":12840,"EXECUTION":12841,"Ġagain":12842,"Directive":12843,"oiner":12844,"PytorchModel":12845,"ĠWEIGHTS":12846,",:,":12847,"Elems":12848,"MR":12849,"OG":12850,"Rest":12851,"Ter":12852,"ache":12853,"follow":12854,"gauss":12855,"mx":12856,"zilla":12857,"recognition":12858,"deepspeed":12859,"chamfer":12860,"ancy":12861,"Ġpw":12862,"ravel":12863,"Ġsrunner":12864,"uner":12865,"unity":12866,"Ġbook":12867,"Ġ_(\"":12868,"ĠnumElems":12869,"queries":12870,"trainable":12871,"Ġdeltas":12872,"ĠPauli":12873,"getvalue":12874,"Ġouts":12875,"Ġresized":12876,"keywords":12877,"Ġpredicate":12878,"Ġunifold":12879,"Ġtrained":12880,"240":12881,"ImageOps":12882,"subparsers":12883,"Ġones":12884,"ĠDataParallel":12885,"Ġintersect":12886,"herit":12887,"Section":12888,"whether":12889,"contenttypes":12890,"REGION":12891,"Ġlibraries":12892,"Ġ``":12893,"iko":12894,"serializer":12895,"accounts":12896,"difier":12897,"documentation":12898,"ĠBasicConv":12899,"ĠPermission":12900,"ĠSwap":12901,"OFFSET":12902,"crowdpose":12903,"VIDIA":12904,"rottle":12905,"ĠTransfoXLConfig":12906,"Ġlexicon":12907,"Dest":12908,"FLOW":12909,"GA":12910,"Null":12911,"Padding":12912,"Tok":12913,"TMP":12914,"Vol":12915,"finfo":12916,"gap":12917,"rle":12918,"sch":12919,"yt":12920,"Ġssim":12921,"conll":12922,"apanese":12923,"Ġlamb":12924,"via":12925,"ĠSampler":12926,"ERA":12927,"attrib":12928,"daemon":12929,"169":12930,"ILD":12931,"posable":12932,"0004":12933,"ĠConcat":12934,"APES":12935,"AGRAPH":12936,"Ġcurrency":12937,"ponential":12938,"Ġblockchain":12939,"ĠJson":12940,"lights":12941,"PARAGRAPH":12942,"PREDEFINED":12943,"Numpy":12944,"FeatureList":12945,"diagonal":12946,"ĠInputExample":12947,"Ġcompressed":12948,"deleted":12949,"ĠPOINTER":12950,"NEAREST":12951,"expressions":12952,"__=='__":12953,">:":12954,"bul":12955,"fri":12956,"lam":12957,"xe":12958,"Ġentropy":12959,"imlane":12960,"rem":12961,"Ġpg":12962,"ceeded":12963,"onehot":12964,"Ġdrive":12965,"testcase":12966,"formatted":12967,"Ġxmanager":12968,"ĠPixel":12969,"ĠLAY":12970,"geometric":12971,"ARED":12972,"Ġkpi":12973,"Insert":12974,"questions":12975,"Ġchaos":12976,"OTH":12977,"management":12978,"objs":12979,"sysu":12980,"111":12981,"inalg":12982,"Ġcorr":12983,"azure":12984,"Ġlibs":12985,"AppConfig":12986,"mixture":12987,"Allow":12988,"Ġstreamlit":12989,"Ġcredentials":12990,"OBB":12991,"mirror":12992,"Ġbytearray":12993,"XXX":12994,"Markup":12995,"calculators":12996,"PENDEN":12997,"Ġalbumentations":12998,"Cut":12999,"Categorical":13000,"Names":13001,"Pod":13002,"vdk":13003,"xmin":13004,"{<":13005,"steam":13006,"losed":13007,"Ġrestore":13008,"Ġpct":13009,"Ġpow":13010,"Ġsolution":13011,"Ġfb":13012,"intypes":13013,"otNet":13014,"Ġwr":13015,"Ġnpro":13016,"Ġhmac":13017,"Ġ240":13018,"copes":13019,"..'))<":13020,"shader":13021,"ĠATT":13022,"lendar":13023,"ĠMT":13024,"Standard":13025,"Ġuses":13026,"RAP":13027,"nyu":13028,"Ġori":13029,"ronin":13030,"sumer":13031,"Ġchapter":13032,"\")):<":13033,"\")))<":13034,"Ġ65":13035,"Ġali":13036,"Ġstddev":13037,"PRNGKey":13038,"Ġiterations":13039,"Preprocessor":13040,"ordered":13041,"ĠTFXLNet":13042,"colored":13043,"CONFIGS":13044,"Ġtimers":13045,"Ġmetaclass":13046,"Processing":13047,"Ġautocast":13048,"BUCKET":13049,"SKIP":13050,"darwin":13051,"ĠRandomSampler":13052,"snr":13053,"Ġrefresh":13054,"Markov":13055,"Worker":13056,"PROTOCOL":13057,"Ġlegacy":13058,"LETON":13059,"idaapi":13060,"ulnerability":13061,"icipant":13062,"ĠNECKS":13063,")}\")<":13064,"Abs":13065,"Benchmark":13066,"FFIX":13067,"JOR":13068,"LUT":13069,"Mac":13070,"Sheet":13071,"Tech":13072,"Tanh":13073,"Vote":13074,"Voice":13075,"jun":13076,"nix":13077,"oise":13078,"ratch":13079,"Ġ99":13080,"atures":13081,"Ġti":13082,"Ġtol":13083,"Ġretry":13084,"Ġtorchaudio":13085,"clus":13086,"Ġga":13087,"('{":13088,"ĠFlow":13089,"Ġxc":13090,"ĠSC":13091,"ĠSTR":13092,"Ġ360":13093,"DEPENDEN":13094,"ĠRender":13095,"ĠGoogle":13096,"stateless":13097,"related":13098,"TestSuite":13099,"Preset":13100,"Ġtempor":13101,"UserStory":13102,"EMBERT":13103,"passphrase":13104,"Ġdocutils":13105,"Embeddings":13106,"recated":13107,"greater":13108,"connector":13109,"WIDER":13110,"Overlap":13111,"Override":13112,"AUTHOR":13113,"ĠWorld":13114,"ecause":13115,"MEDIA":13116,"ĠPortDoc":13117,"={}):<":13118,"DETECTION":13119,"Blenderbot":13120,"Its":13121,"Laplace":13122,"MID":13123,"Mish":13124,"mnt":13125,"margin":13126,"tg":13127,"arios":13128,"Ġinline":13129,"Ġbig":13130,"ulative":13131,"Ġ260":13132,"Ġjwt":13133,"ATUS":13134,"=\"\")<":13135,"mention":13136,"Ġkitti":13137,"EDIT":13138,"')],<":13139,"ULAR":13140,"openpose":13141,"Ġdistil":13142,"Ġious":13143,"Ġanomaly":13144,"ĠDevice":13145,"ĠBertModel":13146,"Ġencrypt":13147,"Ġpositions":13148,"Albert":13149,"Ġmodify":13150,"FUNCTION":13151,"Ġpriors":13152,"website":13153,"Ġbotocore":13154,"Ġpooling":13155,"Ġnonlinearity":13156,"ĠAppConfig":13157,"Initializer":13158,"ĠBoxList":13159,"straints":13160,"NtUserGet":13161,"Ġagents":13162,"POOLER":13163,"fusc":13164,"SIGNED":13165,"ĠMMDataParallel":13166,"ĠAdamW":13167,"Monitor":13168,"ĠMULTIPLE":13169,"attachments":13170,"ĠMinkowskiEngine":13171,"ItsMe":13172,"'d":13173,"Cr":13174,"Master":13175,"OVER":13176,"aic":13177,"bra":13178,"bpy":13179,"iloc":13180,"milestones":13181,"pf":13182,"wrong":13183,"Ġtv":13184,"Ġreplay":13185,"Ġpcd":13186,"Ġsx":13187,"Ġfarmer":13188,"ilinear":13189,"lision":13190,"ĠTarget":13191,"initions":13192,"Ġconfidence":13193,"nts":13194,"ĠMean":13195,"compar":13196,"=\"#":13197,"ĠRef":13198,"Ġpretty":13199,"ĠeItsMe":13200,"Ġ44":13201,"Ġcombine":13202,"viewcode":13203,"Ġminimum":13204,"decision":13205,"ampup":13206,"Ġ{}\\":13207,"sklearn":13208,"ĠTFDistilBert":13209,"PIVOT":13210,"BatchSampler":13211,"Ġtimest":13212,"Ġprocessing":13213,"Ġdecoded":13214,"Subscriber":13215,"(\"/\",":13216,"serialized":13217,"legacy":13218,"langs":13219,"editor":13220,"DeviceGet":13221,"Ġsinc":13222,"APPLICATION":13223,"everything":13224,"nlpd":13225,"separator":13226,"ĠApplicationCommand":13227,"umbel":13228,"vester":13229,"punctuation":13230,"ĠQiskitNatureTestCase":13231,"(...":13232,")',<":13233,"=__":13234,"JOB":13235,"Power":13236,"cdn":13237,"duplicate":13238,"hide":13239,"pli":13240,"vl":13241,"xffffffff":13242,"Ġtran":13243,"Ġnt":13244,"los":13245,"Ġ'+":13246,"Ġbind":13247,"odome":13248,"isk":13249,"Ġhat":13250,"ĠFace":13251,"Ġlon":13252,"Ġdeg":13253,"ĠDDP":13254,"ĠAND":13255,"DECODER":13256,"ĠBi":13257,"Ġexpect":13258,"daily":13259,"Ġtrainable":13260,"locations":13261,"AML":13262,"Convolution":13263,"Architecture":13264,"PRETRAIN":13265,"Ġrequester":13266,"Ġattempt":13267,"notifications":13268,"ProcessModel":13269,"decoded":13270,"FORMER":13271,"Ġoffsets":13272,"returns":13273,"laborator":13274,"Flask":13275,"tempdir":13276,"USERNAME":13277,"Ġquantity":13278,"Ġcarl":13279,"blobs":13280,"ĠAnchor":13281,"TASKS":13282,"################":13283,"animation":13284,"EXAMPLES":13285,"ĠHTML":13286,"SCHEMA":13287,"NESTED":13288,"BS":13289,"Boost":13290,"ISH":13291,"PReLU":13292,"rv":13293,"trim":13294,"vdf":13295,"zoom":13296,"ĠINT":13297,"Ġvehicle":13298,"study":13299,"arrays":13300,"Ġtick":13301,"anom":13302,"Ġgu":13303,"ĠTwoStageDetector":13304,"Ġ_):<":13305,"Ġhr":13306,"(\"\",":13307,"Ġisfile":13308,"shadow":13309,"ĠLambdaLR":13310,"Ġrx":13311,"Ġseverity":13312,"registration":13313,"Ġtfm":13314,"ĠGB":13315,"ANSW":13316,"sploit":13317,"cheme":13318,"FAST":13319,"Ġ736":13320,"Ġdetector":13321,"Ġ\"\").":13322,"Ġstarting":13323,"Ġattach":13324,"Obj":13325,"mmcls":13326,"NOVEL":13327,"ClassificationData":13328,"wiseSeparable":13329,"Ġmatching":13330,"returncode":13331,"Ġapif":13332,"elems":13333,"Items":13334,"Opcode":13335,"QtGui":13336,"Ġassigned":13337,"BYTE":13338,"BYTES":13339,"Ġquantize":13340,"vasz":13341,"Increasing":13342,"DefaultsHelpFormatter":13343,"'[":13344,"MagicMock":13345,"Rpc":13346,"TwoStageDetector":13347,"cipher":13348,"oy":13349,"oauth":13350,"rsp":13351,"Ġescape":13352,"ascontiguous":13353,"Ġrecomm":13354,"Ġft":13355,"Ġoc":13356,"edDataset":13357,"olations":13358,"Ġbottleneck":13359,"Ġblend":13360,"illi":13361,"='../":13362,"Ġgts":13363,"Ġ250":13364,"scannet":13365,"ĠScal":13366,"ERAL":13367,"ĠLat":13368,"Ġtyper":13369,"ĠMS":13370,"Stem":13371,"([^":13372,"VED":13373,"Ġbuy":13374,"Ġopenprompt":13375,"OTAL":13376,"AGUE":13377,"auc":13378,"ĠTFElectra":13379,"BNET":13380,"multilingual":13381,"GroupSampler":13382,"finish":13383,"(\".\")[":13384,"Ġfinish":13385,"Ġfmtstr":13386,"magnitude":13387,"PrimitiveBase":13388,"ĠMobileBertConfig":13389,"hypers":13390,"SHAPE":13391,"ActivationFunction":13392,"timesteps":13393,"CERTIFIC":13394,"Ġorientation":13395,"ANSWER":13396,"ascontiguousarray":13397,"875":13398,"Bit":13399,"FUSE":13400,"Sto":13401,"blog":13402,"more":13403,"viz":13404,"Ġtile":13405,"utput":13406,"amps":13407,"urb":13408,"umble":13409,"Ġsio":13410,"Ġsns":13411,"Ġ112":13412,"Ġ115":13413,"..\")<":13414,"('<":13415,"ĠCode":13416,"ĠCrop":13417,"loggers":13418,"allreduce":13419,"shuff":13420,"ĠOrder":13421,"preprocessor":13422,"ĠMIN":13423,"())[":13424,"}</":13425,"Ġpyarmor":13426,"([],":13427,"20210":13428,"ILON":13429,"DELAY":13430,"ranks":13431,"UME":13432,"Chem":13433,"Ġregnet":13434,"Outputs":13435,"Ġgeneral":13436,"radix":13437,"UBERT":13438,"itectures":13439,"Ġnetworkx":13440,"WARD":13441,"(\"_\")]<":13442,"Tracking":13443,"ĠGPUs":13444,"MobileBert":13445,"Sharpness":13446,"Ġdeploy":13447,"shortcuts":13448,"Capture":13449,"aloaders":13450,"HISTORY":13451,"/{}":13452,"Board":13453,"Dice":13454,"ZipFile":13455,"ddf":13456,"gle":13457,"mchid":13458,"arity":13459,"Ġtot":13460,"Ġtrg":13461,"Ġnest":13462,"etype":13463,"Ġpassed":13464,"urthest":13465,"Ġmar":13466,"clusters":13467,"ilds":13468,"estrel":13469,"ĠPlot":13470,"ĠPVOID":13471,"ĠLE":13472,"DEMO":13473,"avor":13474,"cudart":13475,"dbg":13476,"pond":13477,"ĠWeight":13478,"Ġiterator":13479,"PLAT":13480,"ĠExit":13481,"ĠStarknet":13482,"udp":13483,"COMMANDRE":13484,"Ġstatistics":13485,"Ġthreads":13486,"slash":13487,"Many":13488,"Ġselector":13489,"ĠResNetV":13490,"Utilities":13491,"IMAGES":13492,"TTkLog":13493,"TTkButton":13494,"Ġonnxruntime":13495,"Graphics":13496,"ĠOpenAI":13497,"Ġforms":13498,"Quantize":13499,"Signature":13500,"PIPELINE":13501,"nii":13502,"CHARTSERIESSTYLEARCHIVE":13503,"AugmentationPrimitiveBase":13504,"CENTER":13505,"ĠBigBird":13506,"THREADS":13507,"Ġpocsuite":13508,"AKE":13509,"Find":13510,"PACE":13511,"Tes":13512,"Vert":13513,"Wav":13514,"bottle":13515,"ium":13516,"jk":13517,"ju":13518,"pdb":13519,"pull":13520,"qr":13521,"rer":13522,"skeleton":13523,"vstack":13524,"ars":13525,"Ġreferences":13526,"Ġplist":13527,"Ġmargin":13528,"Ġfail":13529,"Ġibc":13530,"Ġblob":13531,"='%(":13532,"Ġdriver":13533,"Ġlane":13534,"Ġdeps":13535,"ĠPATH":13536,"ĠDes":13537,"prep":13538,"Ġvuln":13539,"STOP":13540,"ĠEval":13541,"ĠEnd":13542,"1600":13543,"Ġmaxk":13544,"lectron":13545,"Ġtransformed":13546,"ĠĠĠĠĠĠĠĠĠĠĠĠĠĠĠĠĠĠĠĠĠĠĠĠĠĠĠĠĠĠĠĠĠĠĠĠĠĠĠĠĠĠĠĠĠĠĠ":13547,"tsds":13548,"embeds":13549,"Ġuseful":13550,"stribute":13551,"decimal":13552,"LMPredictionHead":13553,"ĠInMemory":13554,"See":13555,"lowercase":13556,"ELD":13557,"Observation":13558,"Ġareas":13559,"Ġvariance":13560,"Ġadapter":13561,"PyType":13562,"Events":13563,"goal":13564,"ĠBertGeneration":13565,"accard":13566,"Ġpytorchvideo":13567,"Ġscripts":13568,"ĠDEBUG":13569,"rigid":13570,"Ġcyclic":13571,"truths":13572,"ĠGroupNorm":13573,"ĠControl":13574,"Ġalphabet":13575,"Success":13576,"ĠMethodField":13577,"ĠALBERT":13578,"PECTED":13579,"Ġaiogram":13580,"ĠNoOpTransform":13581,"ĠCuckoo":13582,"plified":13583,"Ġhatsploit":13584,"\"\"<":13585,".'.":13586,">]":13587,"AW":13588,"Book":13589,"FREE":13590,"GS":13591,"Height":13592,"NEG":13593,"SPE":13594,"VP":13595,"dg":13596,"sudo":13597,"vin":13598,"xnli":13599,"orie":13600,"ctc":13601,"Ġsi":13602,"Ġice":13603,"Ġbare":13604,"uporie":13605,"conj":13606,"pardir":13607,"Ġdh":13608,"Ġdeepspeed":13609,"shm":13610,"CHAT":13611,"DataKeys":13612,"maxk":13613,"modify":13614,"Loop":13615,"visibility":13616,"ĠGCL":13617,"aca":13618,"Ġ704":13619,"Ġless":13620,"Shift":13621,"Ġ100000":13622,"DefaultDataset":13623,"SpecSet":13624,"ĠUserDict":13625,"DETECT":13626,"Ġsymbols":13627,"CALCUL":13628,"Does":13629,"ĠNormType":13630,"Ġdensepose":13631,"('_',":13632,"SUCCESS":13633,"11111111":13634,"BOOLARCHIVE":13635,"gcnet":13636,"TENSORBOARD":13637,"Ġrouter":13638,"Ġletter":13639,"capsule":13640,"lectronic":13641,"+\",":13642,".+":13643,"AFL":13644,"Camembert":13645,"GAM":13646,"NU":13647,"Runtime":13648,"TB":13649,"Vis":13650,"dconv":13651,"gif":13652,"lut":13653,"ssent":13654,"design":13655,"along":13656,"etable":13657,"Ġpwd":13658,"difficult":13659,"lica":13660,"Ġ[%(":13661,"rescale":13662,"Ġha":13663,"..')<":13664,"ĠCall":13665,"ĠCLI":13666,"Ġvoice":13667,"Ġrc":13668,"ĠBoolean":13669,"REPLY":13670,"filing":13671,"usercontent":13672,"interaction":13673,"Ġchanges":13674,"Ġbackup":13675,"ĠKEY":13676,"ĠSticker":13677,"plans":13678,"General":13679,"SPAR":13680,"Ġupload":13681,"Need":13682,"diffusion":13683,"routine":13684,"ĠParser":13685,"extraction":13686,"SAME":13687,"ĠAttrDict":13688,"lsx":13689,"ĠIntegration":13690,"repeats":13691,"avaPyType":13692,"Accept":13693,"Ġvertex":13694,"RoIAlign":13695,"ĠIsProjectAdmin":13696,"Ġmixup":13697,"emporal":13698,"frac":13699,"ĠTimeLimit":13700,"SYSTEM":13701,"ĠIOError":13702,"Ġdispatch":13703,"ĠANCHOR":13704,"ReduceOp":13705,"memberships":13706,"alesce":13707,"Scoring":13708,"Ġpublished":13709,"ĠKeyboardInterrupt":13710,"ssentropy":13711,")}')<":13712,":/":13713,">|":13714,"Gather":13715,"Issue":13716,"Nested":13717,"OHE":13718,"Team":13719,"ZX":13720,"fact":13721,"lask":13722,"uge":13723,"invert":13724,"inuous":13725,"instructions":13726,"erials":13727,"Ġncols":13728,"Ġrecords":13729,"Ġpages":13730,"Ġcert":13731,"Ġfy":13732,"Ġfalse":13733,"Ġfrag":13734,"claim":13735,"Ġgithub":13736,"Ġgateway":13737,"possible":13738,"pathlib":13739,"istence":13740,"ĠCpp":13741,"ayers":13742,"ĠDropout":13743,"ĠAgg":13744,"ĠAMP":13745,"ĠSGD":13746,"ĠOffset":13747,"Ġtoo":13748,"ĠRemote":13749,"inputH":13750,"Ġuid":13751,"Ġabout":13752,"\"]):<":13753,"ToFloat":13754,"ĠVan":13755,"startup":13756,"Ġ85":13757,"DIENT":13758,"Ġoptapy":13759,"subcommand":13760,"PRESSION":13761,"Ġregression":13762,"Ġ...')<":13763,"ppm":13764,"Variation":13765,"notification":13766,"Ġleaf":13767,"Shard":13768,"Detail":13769,"githubusercontent":13770,"Notification":13771,"FILTER":13772,"Ġjoiner":13773,"Ġlidar":13774,">'''.":13775,"Ġfinished":13776,"Ġ\"_\"":13777,"INTERNAL":13778,"Endpoint":13779,"Poly":13780,"Ġdoesn":13781,"directional":13782,"tickers":13783,"DKMT":13784,"SUFFIX":13785,"ĠConnectionState":13786,"Visualizer":13787,"NextSentence":13788,"flying":13789,"IGNORE":13790,"Ġterminal":13791,"Proposal":13792,"Ġlitex":13793,"Bearer":13794,"Ġnprocs":13795,")['":13796,"Criterion":13797,"EU":13798,"Fields":13799,"GDB":13800,"Hex":13801,"PITCH":13802,"YE":13803,"][:,":13804,"aiga":13805,"banner":13806,"fakes":13807,"hh":13808,"migrate":13809,"recogn":13810,"alive":13811,"algo":13812,"ethe":13813,"Ġput":13814,"Ġmt":13815,"Ġmut":13816,"Ġmotion":13817,"Ġcrypt":13818,"Ġfe":13819,"Ġbpe":13820,"Ġgdb":13821,"Ġgauss":13822,"ĠTASK":13823,"ĠTemporary":13824,"Ġwrong":13825,"fileobj":13826,"plaint":13827,"inited":13828,"ĠFOR":13829,"Ġlandmark":13830,"ĠPAR":13831,"ĠPerson":13832,"ĠSigner":13833,"ĠLegacy":13834,"outdir":13835,"Ġviz":13836,"ialog":13837,"oci":13838,"ETED":13839,"pointcloud":13840,"Ġeven":13841,"Ġensemble":13842,"ĠElement":13843,"Internal":13844,"Ġparamiko":13845,"plotting":13846,"amplers":13847,"ĠWAR":13848,"RandomHorizontalFlip":13849,"ĠStep":13850,"Ġpatches":13851,"spectrogram":13852,"''''":13853,"latin":13854,"longest":13855,"Ġsignals":13856,"IZED":13857,"ĠZipFile":13858,"Ġ404":13859,"SPECSET":13860,"SPECBOOLARCHIVE":13861,"QuestionEncoder":13862,"proxies":13863,"ĠTokenization":13864,"Curve":13865,"percentage":13866,"percentile":13867,"Timestamp":13868,"Ġqtpylib":13869,"ĠBOOL":13870,".],<":13871,"=\"<":13872,"NESS":13873,"NECT":13874,"Pegasus":13875,"Term":13876,"TOTAL":13877,"VA":13878,"Watch":13879,"gid":13880,"gui":13881,"have":13882,"lxmert":13883,"sized":13884,"ĠEND":13885,"ctan":13886,"pedestrian":13887,"Ġ'*":13888,"race":13889,"clist":13890,"intrinsics":13891,"ultaneous":13892,"ational":13893,"Ġhom":13894,"Ġhello":13895,"plat":13896,"ĠCan":13897,"rict":13898,"Ġ{},<":13899,"Ġyaw":13900,"ĠREAD":13901,"normals":13902,"Ġcoll":13903,"Ġkv":13904,"Ġcoeff":13905,"Ġshare":13906,"Ġ51":13907,"Loihi":13908,"irt":13909,"spans":13910,"Report":13911,"DIFF":13912,"Ġruns":13913,"Ġadditional":13914,"ampus":13915,"dential":13916,"Ġbyref":13917,"FOUND":13918,"BOP":13919,"BODY":13920,"Ġtranspose":13921,"SPP":13922,"Details":13923,"lastic":13924,"Ġlibc":13925,"TFlags":13926,"ResNetV":13927,"styles":13928,"carafe":13929,"STYLEPROPERTIESARCHIVE":13930,"('/')<":13931,"Ġ3600":13932,"atterns":13933,"ITIONAL":13934,"CMD":13935,"ASTNODE":13936,"restoration":13937,"SelectionTransformer":13938,"CDClient":13939,"UOffsetTFlags":13940,"ĠTFFlaubert":13941,"ĠBCEWithLogitsLoss":13942,"CUBE":13943,"SHADOWARCHIVE":13944,"ĠAggreg":13945,"etheus":13946,"980":13947,"Cart":13948,"DM":13949,"Done":13950,"Dif":13951,"FREQ":13952,"LC":13953,"`<":13954,"both":13955,"fall":13956,"gh":13957,"lrelu":13958,"nob":13959,"solarize":13960,"tect":13961,"rew":13962,"recon":13963,"arly":13964,"leave":13965,"leaves":13966,"under":13967,"ented":13968,"aborn":13969,"omb":13970,"Ġgdbscript":13971,"ĠTTF":13972,"classifiers":13973,"Ġlazy":13974,"thumbnail":13975,"ĠSync":13976,"ĠOpt":13977,"Ġcolormap":13978,"Ġ5000":13979,"coded":13980,"COUN":13981,"Ġthird":13982,"locale":13983,"gradfix":13984,"opencv":13985,"FACT":13986,"marker":13987,"prefixes":13988,"Ġextend":13989,"pytestmark":13990,"ATEARCHIVE":13991,"TextField":13992,"Ġenvs":13993,"ĠJoiner":13994,"door":13995,"SETARCHIVE":13996,"flattened":13997,"ĠArgs":13998,"Mixed":13999,"ĠSeries":14000,"sired":14001,"ĠFormField":14002,"balizer":14003,"yolox":14004,"WITHDRAW":14005,"ĠPartialEmoji":14006,"mobilenetv":14007,"ynchronize":14008,"TSTArchives":14009,"Ġcookie":14010,"computed":14011,"ĠDatabase":14012,"ANNOTATION":14013,"Ġapiflask":14014,"IAN":14015,"LT":14016,"MUT":14017,"WT":14018,"]\"<":14019,"bag":14020,"gw":14021,"ove":14022,"pens":14023,"rink":14024,"vv":14025,"Ġvideos":14026,"received":14027,"intensity":14028,"Ġgpc":14029,"Ġgrowth":14030,"('#":14031,"ayment":14032,"additional":14033,"boost":14034,"ĠApi":14035,"ĠSemantic":14036,"']),":14037,"Ġelapsed":14038,"Ġgettext":14039,"()[\"":14040,"flop":14041,"attachment":14042,"[:]":14043,"indll":14044,"ToFixed":14045,"ĠVAR":14046,"\")],<":14047,"ixPath":14048,"Ġkeywords":14049,"rectangle":14050,"ĠWarmup":14051,"Ġ74":14052,"traffic":14053,"EXPORT":14054,"TOOL":14055,"ĠInception":14056,"Pole":14057,"ELLOW":14058,"Ġpermissions":14059,"APIView":14060,"azel":14061,"Ġautomatic":14062,"Ġgeneralized":14063,"passages":14064,"Annotation":14065,"ĠAllow":14066,"ENDING":14067,"Ġnonce":14068,"atingFileHandler":14069,"ĠDocumentTestModel":14070,"xlim":14071,"reports":14072,"INTEGERARCHIVE":14073,"EXECUTE":14074,"claration":14075,"ĠTFAutoModel":14076,"ĠRelatedTo":14077,"Ġsubmitit":14078,"Ġproxies":14079,"ANSWERING":14080,",:]":14081,">\")<":14082,"BAD":14083,"CALL":14084,"Fea":14085,"FBNET":14086,"RULE":14087,"aarch":14088,"brain":14089,"lx":14090,"mime":14091,"pper":14092,"Ġ(((":14093,"ĠCD":14094,"ĠSent":14095,"ĠSpatial":14096,"plet":14097,"Ġvmap":14098,"keyboard":14099,"Ġrnn":14100,"DataStore":14101,"Ġ49":14102,"angent":14103,"angular":14104,"ĠUSER":14105,"Loaded":14106,"sampled":14107,"german":14108,"ULONG":14109,"curry":14110,"UNDOT":14111,"Theme":14112,"spectral":14113,"RANSACTION":14114,"pcd":14115,"Ġsegm":14116,"cards":14117,"SCORE":14118,"Ġexecutable":14119,"ANDARD":14120,"AutoMapping":14121,"ĠTSCH":14122,"Ġidaapi":14123,"loyee":14124,"SAMPLING":14125,"ĠFormComponent":14126,"LazyAutoMapping":14127,"LINEAR":14128,"ĠTimeout":14129,"Ġvia":14130,"qtpylib":14131,"Ġbuttons":14132,"ĠRelatedFrom":14133,"TIMEST":14134,"ĠPublicKey":14135,"DIRECTORY":14136,"abbrev":14137,"ĠFrozenBatchNorm":14138,"FONT":14139,"ĠTTFont":14140,")},<":14141,"NP":14142,"OUR":14143,"QRect":14144,"RNN":14145,"Sin":14146,"YY":14147,"[__":14148,"ah":14149,"how":14150,"lbow":14151,"oss":14152,"ĠENGLISH":14153,"inventory":14154,"stable":14155,"argate":14156,"ading":14157,"Ġtorchtestcase":14158,"agers":14159,"ĠTR":14160,"Ġwatch":14161,"toh":14162,"Ġhy":14163,"copt":14164,"rick":14165,"INO":14166,"ĠAli":14167,"ĠSET":14168,"ĠLavaPyType":14169,"Ġstuff":14170,"ĠMult":14171,"=[.":14172,"ippets":14173,"Ġdistances":14174,"Ġpymongo":14175,"npa":14176,"tfd":14177,"Ġcommit":14178,"Ġ'.'":14179,"Replace":14180,"Ġminimal":14181,"neo":14182,"Ġimread":14183,"POWER":14184,"PRESS":14185,"Ġ...]<":14186,"swe":14187,"MAGE":14188,"BertModel":14189,"BertTokenizerFast":14190,"accel":14191,"Ġcanvas":14192,"naive":14193,"(\"/\")<":14194,"[[],":14195,"Ġlocalconfig":14196,"ISO":14197,"ĠMultiply":14198,"ĠFormGroup":14199,"lexicon":14200,"enticate":14201,"ticker":14202,"Ġcoordinator":14203,"SeqLM":14204,"CPP":14205,"Selected":14206,"Signed":14207,"CHARACT":14208,"valent":14209,"ĠFlashRegistry":14210,"Estimator":14211,"ĠSTRING":14212,"QRectF":14213,"Cho":14214,"Fir":14215,"Frozen":14216,"Lxmert":14217,"Layers":14218,"Press":14219,"QP":14220,"QLA":14221,"UA":14222,"WDataset":14223,"XM":14224,"]\\":14225,"eo":14226,"hdf":14227,"hflip":14228,"lhs":14229,"mrec":14230,"rlimit":14231,"tight":14232,"Ġfilt":14233,"arpness":14234,"Ġmapie":14235,"Ġcoder":14236,"elbow":14237,"Ġaspp":14238,"pyter":14239,"expect":14240,"Ġ___":14241,"INK":14242,"ĠPad":14243,"ĠSER":14244,"ĠOSI":14245,"Constants":14246,"loaders":14247,"combin":14248,"company":14249,"Ġrm":14250,"ENSE":14251,"fove":14252,"Ġshader":14253,"Ġunregister":14254,"Ġprofiles":14255,"Ġtheir":14256,"readme":14257,"Ġmaxval":14258,"Ġcompose":14259,"indexed":14260,"corefile":14261,"ForNextSentence":14262,"Ġimpacket":14263,"txid":14264,"={},":14265,"TOPIC":14266,"ĠStage":14267,"packer":14268,"sketch":14269,"Setting":14270,"Thumbs":14271,"Statement":14272,"sinusoid":14273,"Ġsuch":14274,"Ġfrozenset":14275,"requirement":14276,"Algorithm":14277,"SPECINTEGERARCHIVE":14278,"GRADIENT":14279,"partitions":14280,"ACCOUNT":14281,"ĠCustomDataset":14282,"ĠNormal":14283,"Ġpinout":14284,"riting":14285,"hypothesis":14286,"ĠApproved":14287,"pruned":14288,"ighbor":14289,"Reduction":14290,"EXAMPLE":14291,"synthetic":14292,"cryptodome":14293,"PATTERN":14294,"LANGUAGE":14295,"ĠTemporaryDirectory":14296,"ForNextSentencePrediction":14297,"(.*":14298,"ACH":14299,"Dot":14300,"cpy":14301,"japanese":14302,"mes":14303,"uf":14304,"Ġits":14305,"erance":14306,"atal":14307,"recor":14308,"stub":14309,"ita":14310,"peer":14311,"Ġcutoff":14312,"Ġour":14313,"izations":14314,"Ġbic":14315,"Ġbnp":14316,"apl":14317,"ison":14318,"ĠCy":14319,"ĠFunc":14320,"Ġdeleted":14321,"ĠProp":14322,"ĠDLA":14323,"Ġcontour":14324,"thre":14325,"ĠARA":14326,"ĠAcc":14327,"gether":14328,"ĠOp":14329,"Ġrfp":14330,"ĠRect":14331,"arts":14332,"checker":14333,"maxpool":14334,"Ġ54":14335,"Ġconfigured":14336,"Ġorg":14337,"ĠVI":14338,"ĠVision":14339,"ITLE":14340,"spider":14341,"Ġvalidators":14342,"interfaces":14343,"SECONDS":14344,"izedProgram":14345,"blocked":14346,"Ġabspath":14347,"ForSeq":14348,"3333":14349,"Ġimagenet":14350,"ĠTFT":14351,"STRATEG":14352,"Deberta":14353,"Ġstatement":14354,"Ġ\".\"":14355,"ContextEncoder":14356,"eeded":14357,"Ġcanonical":14358,"Ġordered":14359,"Ġ\"/\"":14360,"Ġaligned":14361,"cutmix":14362,"middle":14363,"Pickle":14364,"ONGO":14365,"STATIC":14366,"Ġcleanup":14367,"compressed":14368,":`~":14369,"nique":14370,"ĠLearning":14371,"ĠLongformerConfig":14372,"ĠUniform":14373,"ramidVisionTransformer":14374,"Ġsquare":14375,"PERMISS":14376,"ĠStopIteration":14377,"bullet":14378,"ĠARABIC":14379,"\"'":14380,">'<":14381,"??":14382,"Bbox":14383,"GIT":14384,"Hel":14385,"Hyperparams":14386,"KX":14387,"Leg":14388,"Mut":14389,"Same":14390,"Synth":14391,"`.\"\"\"<":14392,"bwd":14393,"gcp":14394,"grouped":14395,"kps":14396,"mass":14397,"pron":14398,"qn":14399,"saturation":14400,"ining":14401,"Ġnpoint":14402,"Ġrepresent":14403,"Ġfal":14404,"ĠTORCH":14405,"ĠCosine":14406,"plex":14407,"Ġrle":14408,"Ġexchange":14409,"Ġkl":14410,"Ġeuporie":14411,"LEAGUE":14412,"readable":14413,"Ġtransformation":14414,"Ġ122":14415,"primitives":14416,"Ġdoctest":14417,"IMREAD":14418,"Ġsessionmaker":14419,"RoBERTa":14420,"Functions":14421,"TFPreTrainedModel":14422,"laplace":14423,"nonlocal":14424,"Ġpostprocess":14425,"LibError":14426,"Ġalignment":14427,"OBJ":14428,"ĠScraper":14429,"Ġscenic":14430,"GRAPH":14431,"ĠClassifier":14432,"ĠThreadPoolExecutor":14433,"midi":14434,"Alias":14435,"Black":14436,"multiples":14437,"Relation":14438,"Ġckpts":14439,"CHARTSERIESSTYLEPROPERTYCHANGESETARCHIVE":14440,"ĠMinos":14441,"Ġslug":14442,"ĠCallbackQuery":14443,"Ġremaining":14444,"Coordinate":14445,"Ġblacklist":14446,"navig":14447,"ĠAssign":14448,"ĠNONLocalBlock":14449,"DoesNotExist":14450,"\".<":14451,"\"},":14452,":')<":14453,">================================":14454,"CAT":14455,"DG":14456,"EK":14457,"Ident":14458,"Kit":14459,"MQ":14460,"RuntimeError":14461,"VERT":14462,"cnet":14463,"cannot":14464,"cision":14465,"eager":14466,"gly":14467,"sdf":14468,"ttf":14469,"uoffset":14470,"vnet":14471,"wik":14472,"wider":14473,"|\\":14474,"semb":14475,"Ġtrigger":14476,"Ġinvert":14477,"unary":14478,"ups":14479,"0015":14480,"nnUNetTrainerV":14481,"ĠAD":14482,"ĠMenu":14483,"keyring":14484,"textTools":14485,"lossary":14486,"Ġeos":14487,"ĠUP":14488,"Ġtfp":14489,"mlt":14490,"Ġmaxes":14491,"ĠVocab":14492,"Ġ102":14493,"Ġpls":14494,"ImageEnhance":14495,"embedder":14496,"Recognition":14497,"UMP":14498,"SIM":14499,"ĠBaseSampler":14500,"pooler":14501,"KeyError":14502,"Ġclients":14503,"DAY":14504,"Elements":14505,"Permissions":14506,"WrapperDataset":14507,"('/')[-":14508,"ĠDirect":14509,"Formula":14510,"Actor":14511,"CustomAttribute":14512,"ĠSTRes":14513,"ĠTranslation":14514,"TRANSFORMERARCHIVE":14515,"\\.\\":14516,"ĠAsyncIterator":14517,"veloper":14518,"Scenes":14519,"Private":14520,"ĠINVALID":14521,"Selector":14522,"Ġdotenv":14523,"Ġproperty":14524,"GuildChannel":14525,"/*/":14526,"ĠWork":14527,"pageno":14528,"LOCATION":14529,"PREDICTOR":14530,"Ġeqx":14531,"Pixmap":14532,"letters":14533,"Ġcapture":14534,"FewShotVOC":14535,"Ġresponses":14536,"fragment":14537,"oundingBox":14538,"intersphinx":14539,
[...]
